FE
FF
FE
FA
E8
EA
FB
02
03
08
05
F7
FE
FF
0D
FA
FB
04
EF
EE
FA
FF
F4
07
01
04
FB
F8
05
FA
E4
07
03
F7
F7
16
FF
FE
FD
F5
02
0D
F5
F3
FB
EB
02
1A
CB
DD
0B
08
0C
E8
EE
00
FD
FA
FD
FF
07
03
F0
07
FC
E8
F5
FE
FD
F3
2D
01
07
04
F7
18
FD
01
0F
EC
FF
E8
0B
FB
FF
01
D2
FC
FE
03
D9
FF
F8
2C
F3
08
FE
02
F8
DE
02
FE
F7
F8
10
02
0A
03
02
0A
03
FC
0F
05
F6
02
FF
0C
02
FD
03
F5
FD
0C
FC
EB
FB
FE
F8
27
F3
FD
E8
F1
E7
EB
00
B0
0F
F9
DC
0A
F4
F7
05
0F
CC
15
FD
D7
04
0C
01
FD
F4
F1
05
F7
0C
0E
03
C1
07
0A
FF
07
02
F7
D9
EA
20
F9
10
F3
02
11
BC
CC
E1
F7
17
02
DE
06
F8
FD
04
0C
04
E5
F0
F9
08
E2
FA
05
E0
ED
00
F8
FE
02
02
FC
F9
06
FE
F3
F4
0B
F3
EE
05
0C
F7
0D
0A
05
01
EA
CA
FF
F5
00
12
08
07
F7
04
06
0D
EA
04
EB
ED
F8
F9
FD
0E
06
E2
F0
11
0C
07
16
EF
F3
EE
F1
13
F5
FA
E0
F3
08
FE
0C
F6
0B
0D
EB
F4
F7
14
17
18
FF
04
FD
FD
EB
FA
F0
02
F0
F7
07
06
FA
05
08
12
07
17
E8
17
F8
23
3E
F8
0E
05
FD
FB
0A
F3
FB
07
E5
F3
0D
F6
DC
F8
04
FE
FF
F6
F2
F4
13
0B
EB
08
21
0E
16
16
16
01
0B
14
02
0C
EF
00
E7
0C
F9
1E
04
EE
E4
E9
0F
10
19
04
00
27
EC
FB
F9
FC
00
08
F1
B7
09
0F
17
F2
E3
FE
1B
06
06
04
F2
04
30
02
01
F8
25
FE
FC
FF
F1
F8
0D
01
F8
01
06
08
0E
E7
A8
00
F3
EC
07
F9
E1
F4
08
DD
DA
25
F7
09
0C
F5
FC
E4
0B
0B
1D
11
0C
02
FB
06
03
28
01
01
0C
CE
F0
CE
E7
EE
EE
F0
08
0B
0B
FD
06
07
EF
0C
06
00
D1
CE
04
00
F3
E9
DC
E1
0A
F2
E9
00
00
F3
27
02
00
F8
E0
EB
FF
FD
FE
0C
04
0A
0A
2D
03
01
0D
07
FB
F4
03
F3
05
03
07
FC
F6
02
FE
FC
F7
04
FF
B4
F8
02
ED
09
EB
E3
F4
00
06
05
01
00
FB
F3
0A
02
10
ED
FC
06
FB
03
02
F6
FF
0D
00
01
03
05
11
07
ED
01
F2
0C
02
F1
F3
0D
0A
FB
D2
02
FF
01
F9
FF
E4
02
FB
06
0E
14
0B
14
08
F9
EB
2D
00
01
E6
F9
10
11
CB
FF
EA
EC
E3
FB
E6
03
FF
FC
EE
F7
FA
12
F6
E6
0C
FE
E0
2B
FA
F4
0D
01
B7
F3
FC
1B
2D
FA
CB
FE
FC
22
F7
FE
08
E4
0F
10
02
07
FA
FA
F8
EB
0D
F1
00
06
EC
10
F5
E5
F4
FF
03
EC
FF
0D
EB
F6
F6
FC
11
0B
18
FD
02
FD
1D
FE
F7
F1
FD
F8
16
FF
FA
FD
F1
FB
FB
D0
E3
00
FD
08
F7
EA
06
3E
00
FE
01
FD
F9
0E
F0
E5
FE
16
FC
09
03
F9
FA
0C
F9
00
06
00
F8
FE
E5
FB
FF
04
FF
08
00
FF
0C
02
08
00
F0
01
0D
04
22
F9
FD
FD
FC
04
00
FF
FB
FD
09
F5
03
03
E6
20
FB
FB
03
F9
F0
EB
F9
00
08
FC
F0
01
F9
FA
F8
FB
08
E3
F9
F2
09
08
F0
EC
FF
03
D6
1F
FB
FA
05
E8
D6
17
15
09
F5
06
E0
ED
FF
0B
04
FB
F2
F2
11
00
0F
F6
ED
06
E7
06
0A
F6
F2
E9
F6
16
EB
2B
13
09
DC
13
FD
E7
09
00
E8
0B
FF
F8
03
05
EF
04
F3
FD
05
DB
ED
E3
05
F5
E3
F9
F6
06
FC
10
FD
0D
FA
05
F9
1E
09
10
F1
09
FD
06
03
FD
E5
0D
EF
E5
05
FD
F9
E2
F2
19
0A
04
0A
EB
FA
13
F7
FE
08
F9
04
06
FD
EC
EA
EC
FF
15
FF
DA
FC
06
06
08
E1
00
F9
F1
09
FC
02
FA
03
03
F3
E1
04
06
D8
00
FA
EE
FF
E8
22
0A
F1
03
F9
FF
FA
FF
F6
00
0D
0C
0E
07
F0
F2
ED
04
D6
FE
F4
02
03
0B
0F
FD
01
FA
05
FA
0A
03
FE
01
0E
08
07
F8
FE
FF
17
03
E7
FD
F7
FF
FB
FE
06
D6
FC
E5
0D
F0
C8
05
07
02
F7
10
F3
F3
21
0C
FC
ED
15
DE
05
FB
DD
0E
12
EE
08
05
17
0C
0E
FC
F8
F9
EE
24
14
EB
01
07
F6
02
02
08
F2
F3
F0
FE
FD
F1
09
EB
FC
0A
FB
0B
F1
F4
DE
17
20
C7
EF
10
01
F5
0A
FD
03
08
0F
E8
F9
00
FF
F9
FE
0B
01
FB
06
FA
FF
24
00
02
FA
FC
F9
03
02
04
0C
1A
FE
9B
04
F8
F9
FC
CD
00
FE
FC
07
3C
0A
0A
05
F9
FB
01
C3
FE
FD
EE
02
00
F9
F7
02
14
04
00
01
00
07
DB
01
13
EE
EA
02
F9
03
FC
F5
FF
FE
F9
0A
0D
04
03
F0
FC
F3
05
0C
04
F8
F3
F5
FE
F7
08
13
06
03
0C
0A
04
07
FC
F7
03
00
F5
EF
FB
F9
1A
04
FB
FE
F9
FC
0F
02
08
FF
12
02
12
ED
05
03
F9
0A
04
15
06
01
FF
0C
0F
FF
01
F8
DF
FA
FD
01
0D
F2
0A
FE
FB
24
FB
E6
D9
01
FC
F8
27
F4
FE
F6
1D
0A
03
CB
0B
DB
10
F8
FB
17
01
01
04
15
F7
0C
02
EF
E5
08
F7
FB
DF
F8
F6
02
02
05
FB
FC
F0
0D
FD
05
FE
F8
FF
FF
FF
FD
FE
01
FB
01
FE
08
14
00
17
05
FB
08
FB
00
03
FB
FE
FC
F2
03
FA
F9
02
F2
FE
03
FD
FF
FB
01
F8
01
05
FB
FA
0B
02
FE
FA
08
07
0B
03
F7
01
FA
FC
F8
04
19
FB
FE
07
F6
05
FF
11
FD
E2
05
F2
CE
EF
F6
F8
03
02
F0
01
FC
04
06
07
F8
06
04
FD
01
13
F9
00
FC
FD
F9
02
0D
FF
19
FF
07
FA
02
02
FB
01
F5
29
06
FF
08
01
00
05
0E
0C
F7
07
03
06
07
03
FA
FA
03
07
01
05
11
01
07
F8
FE
02
F7
FD
FD
06
06
13
09
D8
E7
F0
FE
0A
07
F2
EE
0A
05
0E
0F
FB
07
E6
0B
01
F8
0A
00
07
0C
08
FB
00
D9
07
DD
EE
D8
12
14
07
03
0C
12
FC
D8
10
0D
DE
E1
13
08
CC
EA
E3
07
07
05
D9
FD
03
EE
F8
D8
00
EA
F0
FE
FC
F3
FD
06
06
14
10
F1
FD
EB
1B
F9
BD
FC
1C
DE
10
F5
1E
DE
F7
0A
F4
07
09
15
D6
ED
07
06
CE
09
EA
E6
0F
CD
01
F9
F2
0B
20
0F
F3
06
DE
02
07
D5
08
0B
00
F3
F1
06
DF
11
F5
02
05
0A
05
FB
D0
FD
05
F6
01
FA
E8
E1
03
EA
03
FC
E8
EE
EB
07
05
EC
13
11
0A
E8
FE
EF
03
03
FF
04
03
F2
D9
F7
21
FA
0A
05
05
06
FD
03
01
FF
CD
04
18
E6
07
EA
08
DE
2B
F1
ED
05
06
E2
E9
FF
F9
12
09
16
FE
E8
EB
04
D5
F9
FF
FC
FD
15
25
EB
FC
0F
0B
FC
14
F7
08
4C
02
13
21
05
02
E8
0F
0B
FA
F7
13
08
F3
04
14
09
F7
0F
10
13
00
F3
03
F3
17
EB
20
F3
05
02
F3
06
09
1F
26
F9
F9
29
0C
06
F1
14
01
FF
F5
FB
12
F5
DE
F1
EF
FF
F1
E3
06
F9
02
07
10
08
F8
F9
0D
F6
39
0F
F2
02
FA
EF
F3
03
FE
F1
F4
FA
07
FA
09
02
FA
FC
FD
05
00
0C
F4
26
F2
0E
0F
0B
D9
07
02
01
FA
F4
0C
FE
06
F0
CC
15
08
DB
FF
01
FE
00
0B
01
F9
F9
DB
09
F9
E9
C7
FC
0F
FB
F4
17
00
02
E6
01
02
0B
F9
FC
FD
FF
CB
EF
05
F9
26
FC
FF
13
01
1B
00
EE
FE
F6
01
05
04
ED
F6
0D
0D
0B
02
F8
F2
FF
05
FA
05
0B
00
07
10
F5
05
04
01
F7
FB
DC
F1
04
11
0C
F7
02
EC
FF
01
04
13
FB
E7
07
1B
08
DD
D9
FC
05
F4
F7
FF
0D
C1
17
03
12
0A
F8
FE
1D
F3
04
FB
E9
05
01
04
02
FC
FC
FE
03
FC
FF
0F
FB
FB
07
EA
ED
E4
FB
EB
0C
FD
00
D9
E4
FF
EA
02
EC
FC
FE
EE
05
FD
FD
07
09
00
FE
E1
F8
18
00
FE
F9
F0
01
04
E4
00
06
05
F1
1E
CB
FD
EB
F8
FE
0A
F6
00
E9
FD
03
F6
00
03
F8
02
05
F8
02
03
F8
F8
EF
DE
F3
F5
08
03
00
00
FC
07
F3
10
05
EF
F9
FB
F2
FA
F8
EC
04
0A
05
2B
81
08
00
07
29
1A
EA
F8
F5
FF
15
02
00
E9
01
14
09
17
F1
03
04
03
34
13
13
F8
01
E1
E8
0A
25
0E
FF
0F
0C
0C
F8
FB
E7
D3
F7
00
04
DA
D7
EB
F5
FF
E3
0A
F8
F7
F8
05
BC
F9
F8
FB
F9
E8
FD
0E
04
17
FB
EE
F8
FF
00
EC
F9
0D
F9
05
11
0F
EE
13
ED
00
0C
16
F7
08
F5
0B
03
FA
D8
F8
D0
03
F0
07
D5
FD
00
FE
07
00
02
FD
17
F8
F8
FA
EA
26
16
EA
FA
11
04
F2
04
F4
05
09
EE
02
FE
E4
FD
1A
FE
E1
F7
12
FF
F1
0E
04
F2
FC
FD
01
FA
F3
06
FB
EA
F8
0E
0B
F3
FE
D5
F4
0C
0A
EB
0B
F3
02
D7
F8
FA
03
0B
13
04
FD
E9
FF
0B
0C
F1
0E
FD
F9
09
FE
08
FC
D9
1C
FC
10
07
FC
01
00
F8
04
FC
FD
F1
D6
FF
04
FD
03
02
FF
03
FD
F6
01
05
03
FC
F6
F0
18
09
18
FB
F8
1C
FF
00
05
F8
FF
F9
01
08
00
02
F7
F3
FF
F2
FD
FA
F2
04
F7
00
EA
04
08
FB
00
E9
16
0E
F8
00
EE
04
FC
12
FE
FB
05
EE
FF
08
FE
04
E6
DD
FB
06
FF
09
0B
09
06
DB
03
E9
B4
FE
1D
FA
02
02
FF
11
05
FB
12
07
01
04
EF
DD
86
1C
0F
FE
02
DF
17
0B
FC
FE
09
13
FC
0F
15
05
02
18
08
36
10
F9
F3
05
FE
FE
00
F6
06
16
F8
EE
FC
EA
CB
04
F6
FC
FD
F2
45
02
EF
ED
01
FC
17
01
EF
F7
EE
ED
F8
00
F1
F0
FE
FF
F5
00
FC
01
03
02
FF
03
10
FC
04
06
FE
02
01
04
03
E4
D6
03
14
EE
FA
E9
FC
E7
17
FF
09
F7
F0
D3
FA
F9
F2
06
FE
04
09
04
00
F5
18
06
FB
01
08
03
01
FA
04
FA
07
F9
FF
FB
01
09
F7
EC
03
00
06
12
FC
CF
06
08
FC
0A
FA
FF
FF
E9
07
01
FB
03
05
FC
FE
0A
FE
09
EC
FD
0A
FB
FC
F9
05
04
0B
FF
11
07
F2
07
F7
F9
00
F2
00
06
04
FB
0B
EC
E9
06
00
DA
F1
0F
07
FE
F2
F2
E9
01
F4
C0
FC
FD
F0
F2
03
0C
F1
01
05
12
01
F1
F2
0A
FC
0D
08
F8
0D
FA
01
0D
03
02
09
11
E7
E8
11
0F
05
FE
07
F8
E5
04
EC
F4
F8
F9
F9
F5
FF
EF
06
EF
F5
FF
F7
FB
08
06
FF
EC
00
06
03
DE
FC
FD
E1
05
FD
01
0C
01
F7
06
06
FB
FE
13
02
0D
EA
1E
00
FE
FD
02
FD
C4
FC
05
04
02
FE
06
F0
15
0A
06
E3
FE
06
00
FF
02
03
05
0F
FA
12
12
02
00
FB
FF
03
FC
0B
01
F0
F7
E5
01
F5
EE
09
F6
05
09
07
FA
FD
01
0A
EC
EC
02
21
EC
05
EC
EF
04
FC
05
F4
14
00
FD
E6
14
F2
FC
0F
CF
03
09
F5
E8
17
00
0E
FD
F5
05
02
DE
35
0D
F8
01
FB
0B
0F
DD
FC
FB
0A
F6
F7
EA
F3
FD
DA
FE
01
F5
29
DB
F7
F1
0D
F8
12
F4
E1
C3
05
F1
03
1A
D4
0C
02
EF
12
05
E9
FA
F2
05
F7
0A
01
F8
EC
01
09
04
2D
08
0A
F5
E9
09
E2
1A
19
19
0F
DF
F7
ED
1A
FD
13
1D
03
FF
04
1E
07
F4
D2
D1
01
FB
D5
02
09
06
08
F7
00
FD
FF
06
E8
F9
F4
03
02
55
0C
F9
F9
FC
FE
EB
FC
E9
06
FF
F6
F3
F3
E2
01
FB
F7
F9
0A
FC
01
0E
11
05
F9
F0
15
F5
ED
0F
FB
F6
EF
F9
F7
F5
ED
F9
08
02
F2
22
0E
0D
09
F9
FF
FA
02
FC
FC
03
F6
F5
C4
FD
01
E2
0C
FB
14
00
E3
0A
FB
F7
C9
F4
02
F6
02
FB
05
04
26
F5
0B
ED
3D
0C
F3
EE
03
23
01
00
02
07
B1
0B
07
FA
FF
FC
FB
0F
EB
FD
E3
04
FE
09
F7
F8
00
10
06
0B
FE
F9
F9
01
01
DF
FA
FD
F8
ED
C8
FE
02
F4
F8
EE
E5
FF
ED
EC
03
F6
FB
EC
F6
FB
E8
0B
04
14
32
F9
C7
14
1A
03
01
FC
FF
02
FE
01
FE
EC
D3
08
0B
E8
20
FD
01
F3
10
F2
EE
02
FA
F1
F1
0E
E7
DF
05
01
F9
EA
DD
FD
F2
DE
F9
FE
E0
DC
EA
F1
0E
39
E5
E0
0D
FB
EC
EA
08
04
E9
05
FA
0A
DD
F9
FE
02
10
D9
8F
03
0E
FF
FE
1E
FE
D7
E5
F7
04
E8
02
E0
EE
CA
32
00
05
0E
FC
EE
E8
E7
DB
33
FA
EE
ED
14
0A
4C
F7
EB
E2
FD
ED
FD
07
04
08
F4
9C
01
02
EE
09
E2
10
01
D9
1C
01
12
0B
FB
FA
F8
0D
04
FF
FB
31
FB
07
C8
DE
FC
FD
FD
0D
F3
F9
07
09
14
17
02
0D
FE
06
05
FA
EE
22
05
EA
F9
FB
FE
FA
FF
0E
04
09
08
01
EC
E5
FC
3F
02
08
FF
0B
00
01
F2
FE
FD
01
00
01
07
FD
08
04
04
F9
0D
01
EE
06
FA
FE
FE
01
0A
0A
FE
FE
02
FF
05
FB
04
FC
FC
01
FA
02
02
14
09
0D
01
FA
15
F5
01
F8
02
EE
FB
FF
FF
09
01
F8
08
FC
0B
00
02
0B
03
BB
F8
F3
FC
EC
FC
FB
ED
2A
12
E8
00
F6
97
02
0D
F5
F7
00
07
17
06
FC
03
F8
07
00
FA
F5
1C
0C
E7
04
FE
07
F8
EA
F5
F4
11
EC
ED
00
04
01
EA
09
F1
E3
02
06
CD
0A
EF
11
DC
FA
E6
01
1C
15
00
DF
09
0E
FA
01
F1
06
04
FC
F8
05
EA
05
02
05
18
08
0D
FA
01
FB
07
07
03
01
02
F9
FA
01
EE
F7
08
FF
F9
F4
07
00
FC
05
12
0D
05
E6
F9
05
F5
0D
08
D4
F1
FC
FF
E6
06
D4
18
FC
01
06
F9
FD
F5
FF
04
01
F9
00
06
05
04
00
0A
07
FD
FE
F9
F9
03
00
F9
02
04
02
FE
0F
05
03
0B
02
FA
01
FF
06
FD
03
03
FA
07
02
FE
EC
F1
0A
03
05
F5
FD
07
02
FC
F8
01
FA
07
FF
05
EB
04
03
00
FE
FB
11
FD
2B
02
00
D6
08
00
09
01
FE
FE
2F
FD
05
FF
1E
FA
FE
FE
F8
F7
FE
00
13
EB
FF
01
15
FD
01
FF
BD
FF
05
F4
BC
EC
F1
F1
FC
F8
03
FE
FB
11
22
08
03
05
F3
ED
F8
FA
F0
FC
F4
07
FC
F9
FB
F9
FC
08
F4
F7
01
05
FF
FC
05
EF
FE
03
09
FE
03
04
01
FA
EF
F4
FB
FE
00
FB
EA
06
EC
03
12
F4
08
FF
04
0C
FB
10
FA
FB
23
06
FF
F1
02
FD
00
00
11
E9
DA
06
06
04
00
27
03
F2
0D
20
FC
F8
FE
07
20
EE
03
04
01
EC
FA
02
0E
F9
09
EB
09
08
FC
00
33
07
0D
F1
01
02
EE
01
1C
D8
F7
29
F7
FB
F9
FA
EB
11
00
06
BD
F7
FB
15
0A
01
DF
EE
0D
08
FA
04
00
FE
F8
02
04
06
07
01
FE
08
02
FF
EF
F0
CF
F5
FF
F5
02
F5
00
14
02
F3
E2
F7
C3
00
EC
01
F6
00
F5
11
F5
04
03
0B
04
EA
FE
04
00
F4
09
08
F4
17
00
EB
FA
F8
05
FB
0F
01
F6
E6
FE
FF
FE
F8
EE
FB
F6
03
04
FD
D6
FC
01
E8
F0
FF
08
FA
06
00
0F
F6
F6
FE
F5
FF
0A
08
F8
FC
FD
F9
ED
FD
D8
04
0E
FE
00
06
FE
F9
F3
08
04
01
02
E4
08
F4
02
F7
06
FF
EC
D7
04
F0
FD
0A
FA
0D
07
FE
FE
FF
F8
F9
05
05
FA
02
00
02
00
F8
02
0F
F3
0E
FB
F6
FA
ED
FE
03
FD
F1
EE
F6
08
03
02
00
08
FB
01
07
1D
FE
07
F8
F7
FE
08
F6
01
E7
0E
06
0A
10
EB
01
06
F8
F9
EF
11
06
FE
0F
09
10
02
E7
FE
FD
0D
03
ED
EA
07
01
08
01
0B
04
1E
FE
FC
FF
0A
F7
13
0A
0D
01
EC
FE
09
FE
03
06
FB
FE
01
FB
04
02
15
02
06
FD
F4
FF
F8
F7
08
FE
FB
0F
F6
09
ED
EB
F8
0B
EA
08
FF
E2
F7
03
FF
12
FB
FC
F8
08
F6
17
EE
F9
0C
17
05
FB
0F
F7
FF
04
18
FB
F4
04
0D
0C
DE
FD
F8
03
F3
F9
0C
F9
0E
E1
FD
EA
F9
F9
FB
08
04
F5
F2
FF
E9
E9
D9
05
03
FF
F7
FF
E3
02
F8
F1
EE
FD
15
FB
FD
08
F4
FF
FF
14
30
EC
DE
18
C3
12
00
08
00
04
FF
FC
09
08
33
07
F6
FB
0D
FA
FD
0A
EB
F0
F5
FD
00
F4
04
FF
F2
EC
06
02
FA
EE
F0
FF
03
F3
FC
FB
FE
ED
31
02
02
03
F3
E3
F1
00
F6
02
00
FA
ED
F7
FB
FF
20
F2
FE
05
C8
00
F4
EC
1D
E2
F0
FB
03
F9
FF
03
FC
02
CD
FF
04
F4
F6
04
F6
F7
0B
FE
EF
03
E4
F2
FE
0B
FB
19
06
06
FF
FE
F6
00
0D
F2
02
FB
FB
03
18
F7
00
FA
00
04
FB
00
06
E7
EB
FE
B5
F9
02
FD
EF
02
FF
02
CD
F3
09
0C
36
01
F1
F9
08
29
02
00
FE
FA
BE
04
08
09
05
F4
00
09
D6
FB
DE
01
FE
F8
F8
01
FD
EB
07
19
01
02
F1
04
20
06
FB
0C
00
07
00
FA
FA
09
06
03
02
09
03
13
F6
F7
F5
06
FB
DE
0C
F1
02
F4
FD
00
FE
FB
F9
E3
FD
FB
09
0E
F5
FF
01
08
05
FE
1A
02
EC
10
EE
0D
E9
00
FB
02
09
FE
0F
EE
F9
FA
03
F9
FF
FE
01
F6
FD
EA
FB
0B
E1
D3
02
E5
09
04
FB
F9
05
11
DA
FF
FE
0D
0A
F0
01
ED
08
0B
0B
F4
05
F1
F4
F8
01
F9
F0
E7
FD
EF
FD
05
F4
DF
E5
0C
FA
02
11
FE
08
D5
2A
D8
E5
08
06
07
F3
E5
01
16
12
E0
03
DD
12
0C
04
12
02
01
E4
D6
F9
F8
01
F0
00
15
EB
02
F3
F9
F4
0A
FB
F4
0A
F3
01
F5
0C
F6
FD
F0
FD
FD
F9
09
05
D9
13
F9
0E
06
F3
0C
FC
FE
E3
11
EE
F9
FD
10
D8
EA
E7
0C
03
FE
ED
F1
01
EF
04
1B
03
E2
00
05
04
0C
07
FC
09
02
06
FC
FD
FF
02
0F
FD
F6
03
08
F3
20
03
FB
05
0D
03
0D
01
F6
07
F9
07
07
05
04
F5
12
F7
F3
FE
FE
FE
F6
04
D9
DC
FA
ED
05
FB
FC
03
07
10
F1
F3
08
01
E3
1B
F9
04
00
01
04
FA
03
F9
ED
FB
03
01
F2
03
02
06
18
FA
F6
DE
06
EF
F4
F4
06
19
FF
01
01
0B
FF
06
11
F7
D8
D2
F6
A4
01
F0
00
0E
11
01
09
18
0D
39
0A
F7
E2
EA
FE
02
11
FD
02
E9
01
FD
F8
FD
F1
EF
F9
05
FF
03
F0
EC
01
F8
FE
04
00
04
0A
0A
FA
02
FE
FF
FB
F6
00
FB
EE
07
09
F7
F5
FE
00
ED
FE
FD
F9
DB
03
0E
FA
E8
FD
E7
FB
01
F3
FB
07
05
06
FA
E9
FA
FA
F8
FC
01
E9
04
0E
FD
02
F4
00
FE
00
08
FA
01
08
FE
00
E3
FF
