EE
F4
D5
F3
F1
0A
F3
D2
20
FC
0C
D0
F1
08
E9
FD
E3
17
FA
19
F4
08
08
0B
04
E0
DA
F4
E3
E7
DC
EF
00
E9
08
06
ED
E7
08
07
F9
FF
D1
18
02
0F
02
FC
FC
14
0C
1A
19
01
DC
FD
FF
11
00
D0
09
E7
16
16
F7
03
F7
0A
02
F9
04
01
FA
F5
1B
03
04
FC
04
FA
FA
FE
05
08
FE
FD
FE
FD
FA
07
FB
09
03
FC
FF
E9
F7
F2
FB
F7
FE
F4
1A
FF
00
FD
FB
0A
EA
05
01
F6
05
E7
05
F9
00
07
F3
FC
FE
04
FD
F9
05
06
F1
09
EF
08
07
D6
02
FB
0F
10
00
11
0B
07
08
F7
FD
F9
08
16
FE
F7
F7
F7
00
05
F7
01
FE
F0
00
F0
03
03
FB
02
04
00
01
00
04
02
F9
F7
0F
05
08
05
02
FA
00
FA
EF
FA
F6
FF
0B
04
05
00
F4
FC
F5
01
FE
20
26
09
12
18
02
EE
D7
36
01
14
0F
FC
0D
CD
11
F0
01
E5
02
F9
0C
04
D3
E5
29
EE
EC
F9
F8
EF
FC
03
DE
0C
F0
23
00
DE
14
B9
F1
04
FA
F3
0E
FD
0E
F9
01
19
05
CB
19
CD
07
26
EF
2C
10
E4
19
00
09
17
ED
06
18
01
F3
FD
01
07
EF
29
12
2E
F5
08
F8
24
E9
FB
1E
02
0E
D9
DE
2B
F6
E2
E4
0B
D9
00
EF
16
F3
35
F1
FA
0A
F9
F4
E8
F3
E3
1A
E8
00
D9
01
06
FC
FE
06
FD
F4
EB
19
03
ED
EB
05
F1
D3
ED
F9
08
02
E4
06
FA
FA
05
F3
FD
08
1A
ED
EB
09
FE
03
02
EF
E4
FC
F5
F0
F7
0A
F9
04
ED
06
09
F8
16
E7
FD
F8
F1
FC
FC
FB
FE
01
01
F9
F4
FF
01
05
EF
E9
FE
EC
0B
FE
10
04
0C
17
12
0B
08
EC
05
0A
01
0C
03
3C
01
FE
F6
F0
04
F8
09
F1
10
ED
03
E8
02
15
00
0A
F6
28
0B
FB
03
E4
05
FE
FE
F3
02
F8
F5
ED
FB
06
03
FF
F9
F3
FF
E2
1B
06
07
EE
E7
F1
C9
EC
02
00
FD
00
FB
F5
EE
E2
F8
06
F3
11
FF
1A
0D
EB
00
02
E4
FD
FE
F6
F6
F5
F1
F8
09
09
05
F7
01
01
0B
F5
F8
F0
05
F7
05
FE
11
FB
D9
EB
E3
0F
04
F0
10
FA
06
E7
FF
08
04
11
05
09
EF
FE
F1
FE
FD
05
FB
EB
0F
EF
F2
F3
FD
0A
02
F4
12
EC
0C
FC
00
11
F9
F5
23
FF
0E
F1
13
FC
F2
FB
F2
15
0E
02
09
F1
FA
ED
0D
02
F8
F1
0A
19
05
FF
E7
CC
F0
D2
F5
D4
E5
02
08
E5
FE
43
1E
2D
1B
08
F8
42
C7
0A
01
FB
02
05
FB
FD
05
F7
C3
3B
03
F5
C3
11
E6
10
E6
D1
F4
F8
FA
FB
0A
FE
F8
02
FD
FE
11
0B
F5
08
FB
02
05
EF
F7
FA
FE
F7
F8
02
FF
06
FB
F8
05
FB
FD
FB
EF
FE
EC
FF
00
FC
F3
0B
0A
07
01
F8
FD
01
F8
F6
01
00
0B
FC
16
0B
10
10
FB
FA
F6
E3
FA
00
0A
F9
11
F6
F9
12
F3
14
FB
B6
F7
01
EF
40
0C
F0
1B
20
FC
EC
31
24
01
1C
E6
FB
E7
EE
FA
07
DE
05
F8
0B
3C
12
00
04
CD
00
06
FE
E3
07
D3
04
10
1F
0A
15
04
00
FF
EA
FD
FF
0D
FA
EF
E6
08
08
0A
07
05
F0
1F
06
12
0A
F1
EA
00
F3
FC
F6
FF
ED
FD
08
0D
DF
F3
E9
0D
F7
EA
FE
0E
03
06
08
FB
E9
DD
F6
0D
1C
0C
E7
07
03
04
EA
0D
F2
0D
16
10
F3
ED
FF
0D
1F
E2
17
00
04
EF
04
00
0C
FB
FC
E9
FE
FA
00
E6
02
0B
01
FC
F2
EF
0C
26
20
FB
F3
25
EB
F7
06
FD
F2
11
01
F3
D9
17
09
0F
04
2C
E4
FE
FD
23
F3
03
F3
F8
0D
09
FF
14
F7
02
FB
F8
03
F1
09
E7
FD
05
F3
EB
17
FB
FF
1A
04
E1
0A
EC
01
DA
E3
FF
E4
FD
E4
F1
04
FE
03
FA
05
F6
E7
FA
13
03
E5
F7
02
EE
06
05
17
F1
11
07
0C
09
0C
11
06
F4
05
23
FD
08
FD
DB
03
0C
15
FD
F9
01
04
03
F4
F8
12
FD
F8
DD
D8
F7
00
F9
FD
F8
18
F0
EB
08
F6
11
14
FF
00
EC
01
00
0C
02
FF
DC
FE
F9
17
01
04
07
FD
F9
FE
FE
01
FD
0D
08
FE
FC
F5
FE
00
FD
F8
F9
01
F3
FD
F8
0A
FA
0B
F8
FD
00
FA
05
0B
01
05
F7
01
0D
FF
F0
03
FF
FF
EE
F6
F6
FE
13
03
FB
F3
05
F8
07
F2
FF
FE
03
00
D3
00
0C
01
0E
FC
E6
EB
F5
FE
F4
0F
05
14
ED
ED
DC
0F
01
FB
F5
0C
EB
FE
F3
DF
0E
F9
FD
06
F3
03
08
FF
1B
10
04
07
FA
E8
ED
F8
E9
F7
01
FB
FD
DC
FF
E0
07
0A
F3
0C
E7
EC
ED
F9
01
05
EA
05
0B
07
F2
E9
03
E8
19
ED
08
2B
0D
F7
FE
E8
1A
E4
FA
0B
22
1B
F8
FE
0C
29
01
F7
08
FC
13
00
01
F5
F1
04
FA
04
F4
F1
0D
F4
19
10
04
FF
F0
00
EB
ED
F5
EF
09
0C
E3
FD
04
00
0F
FC
1B
C7
FE
04
0F
08
09
04
FB
00
F9
F5
05
F5
06
FA
01
F0
06
FC
FD
FC
FF
FE
F9
30
FE
01
FB
FB
0C
07
F3
F0
F0
04
04
EF
02
FC
FB
EF
FE
FC
03
04
0E
03
02
02
FD
00
14
00
18
F9
04
FA
F9
F8
04
04
08
F8
01
07
01
FA
F7
02
09
05
F5
E0
01
14
F4
03
E9
13
0E
21
F1
EE
FB
F3
F7
E1
F0
07
F9
FA
07
16
F2
18
F3
E5
ED
E6
FE
E4
11
03
EC
0D
16
1A
00
13
11
00
1E
00
F4
EC
05
FC
03
0F
22
FE
F7
01
F1
08
E6
EB
F9
FE
E9
F7
E5
F0
F4
00
FC
FA
F8
F2
F7
08
FF
04
07
05
FF
05
FF
FB
02
06
04
FC
01
F6
FD
FF
FB
01
09
08
08
05
07
07
F4
03
EC
EB
FE
01
F4
F4
02
02
FC
06
05
03
07
FE
F9
FB
0F
04
10
FD
FA
01
FD
FF
07
F4
0C
F9
FC
FA
02
FE
03
07
ED
09
05
4B
F8
F4
F2
0F
06
13
1F
08
05
FD
F4
FB
00
06
11
06
E5
FA
02
05
21
F9
F6
FE
F6
D3
00
E3
07
EF
01
F8
E3
03
F8
00
F1
E1
1D
FC
ED
0A
01
F4
FC
EC
04
0F
ED
EE
0B
11
0B
0A
FE
F9
05
09
DA
03
05
07
09
ED
E3
F9
02
13
F6
FB
FB
F9
0A
DF
F8
F5
EE
FA
0B
02
02
04
DB
03
F0
07
0B
EB
01
01
06
D2
F9
06
FD
0C
F3
F7
EC
01
EE
F5
F4
04
07
E9
05
E4
F6
DC
03
0E
FF
05
09
E2
11
FA
0A
09
FA
F5
FA
E6
05
00
F8
02
0C
27
0F
04
01
E5
DF
0F
F9
0D
0C
F8
00
F7
0C
FD
0C
FC
00
F8
ED
01
F4
F6
E9
FC
F7
EE
09
00
01
28
E3
01
07
FE
0C
F8
0A
EC
F9
F8
04
F7
F8
0C
0A
FC
13
FD
EA
1C
07
01
11
2D
03
FF
F8
06
FD
FE
FF
FF
04
F1
02
01
00
03
05
07
02
FD
FE
E1
F3
00
FA
01
09
FE
F6
F6
F9
04
08
07
F9
F9
00
FA
FE
F6
02
01
0E
FF
F8
F4
FC
02
10
03
E2
FA
02
FA
FE
0E
FD
FF
02
01
03
F9
07
F7
05
06
03
F1
0B
03
CF
02
F4
06
05
01
04
FF
01
05
00
FD
FF
0A
0F
FC
FD
FE
03
F7
03
F8
01
04
F1
01
ED
0F
01
05
01
F9
0E
01
FC
07
FA
FE
E9
0A
04
FF
04
00
FF
02
F5
E4
03
F3
0A
06
FC
F6
08
F5
FC
FC
06
02
1E
1A
15
E7
02
08
15
0C
07
EA
03
E0
D3
0C
00
F8
1E
B3
13
05
0A
2F
22
E5
D8
0B
EC
F8
08
03
13
FD
E3
EA
DF
18
D5
DB
09
0E
21
ED
B9
F0
03
07
F2
14
FE
FC
02
03
03
E3
0E
18
DD
0B
E4
11
FA
0B
F0
F3
07
E8
06
07
D4
00
02
06
08
05
0A
0B
01
08
F8
FA
F9
06
15
03
F8
F7
F9
F7
07
FC
09
02
EB
04
F3
03
04
0A
03
03
05
01
03
FE
FC
FC
F8
09
FC
0C
F9
02
F7
01
F8
F4
FA
F4
FE
04
FD
08
01
F8
FD
FA
04
01
17
C1
EB
F7
E4
09
05
F7
FE
F3
01
10
09
FB
12
0D
2E
0C
F5
FF
07
E7
F8
41
DE
CC
08
FA
0C
0B
30
05
06
F1
07
04
C5
FF
11
15
1D
DF
F8
ED
1B
CC
08
01
FC
06
05
00
D4
CE
26
DA
DA
24
03
08
15
E4
01
D3
FE
F8
0B
0C
F6
CE
06
00
0F
FF
11
00
FB
11
FC
EE
F8
00
0A
E6
FA
02
CF
FA
0C
F6
00
FF
FB
0E
F1
0B
00
FE
FF
14
36
14
04
04
F6
FE
1A
06
EF
F0
06
F7
FD
17
F1
ED
01
DB
0A
04
E4
FC
0D
FE
04
06
0D
F4
12
F7
FF
FB
01
F2
FC
07
07
05
02
F8
08
F5
F9
13
06
08
08
04
F7
FD
08
00
00
FB
04
00
08
01
FF
FF
EE
FB
FA
00
06
F9
0A
0B
07
16
03
04
06
F4
F7
FF
F7
FD
0D
07
FC
0F
00
12
FF
05
07
12
F2
06
03
06
FD
06
FC
FB
FA
0F
04
EF
C9
DA
18
17
C3
18
03
F5
03
E3
FB
14
1A
DF
F1
E0
14
F9
1F
36
F7
18
0D
36
01
0F
F3
0C
04
CF
03
C7
F9
02
16
DE
09
0A
00
EA
F7
15
F9
01
04
FA
08
CF
09
0B
01
0D
2C
E2
CE
EA
02
FB
0D
07
FD
06
FB
0B
F1
E5
C1
0A
15
F8
FB
04
F5
04
0F
09
07
0F
09
F7
FF
04
00
F1
03
0E
CD
0C
1D
FB
0D
F9
F9
F4
1B
0D
03
14
13
05
F4
F6
00
23
03
14
F9
F5
E5
07
D4
DA
D6
DF
E9
18
04
F8
F9
02
0E
E6
1E
11
F1
1B
FB
0B
F6
29
F0
10
F0
16
0B
00
FF
FC
F4
E3
FB
00
FE
0F
FE
F2
02
FE
10
FE
F2
FE
07
02
F6
F9
0F
FC
FE
03
ED
06
01
F4
E8
02
05
0B
04
10
DD
00
00
24
F7
02
F5
F4
F7
F2
00
E9
F4
10
0E
06
0D
F8
FF
13
0C
05
01
16
06
0A
02
07
00
FD
F3
FA
15
1A
00
07
04
04
F0
08
11
09
0E
F5
FF
F2
FA
0B
F4
04
FB
08
FE
04
E6
00
06
FF
07
05
F1
FB
0E
15
F3
0C
09
F0
0B
08
05
08
F6
00
FE
05
F6
00
FB
02
FE
03
01
0A
03
0C
02
02
02
02
01
03
02
FF
F9
05
FB
07
F8
08
0A
00
FE
FA
FE
FF
05
FD
F9
07
00
FA
FC
00
FF
00
FF
03
FD
FD
F4
01
04
00
FC
FE
FF
FF
00
F9
02
04
02
04
0B
FA
03
FF
00
05
01
FE
07
FC
09
10
F6
0C
FD
08
09
FF
01
0C
08
15
FB
19
08
FA
01
FC
28
06
00
01
07
0A
F8
00
06
EE
06
F8
0E
FA
F6
DB
01
F9
0B
03
05
00
04
F3
04
E6
F3
03
0D
08
07
02
FC
0F
FC
0C
00
F8
FD
07
F1
FC
DC
03
FE
09
01
FE
F5
06
19
10
08
FA
17
01
02
0B
01
FA
FB
09
F7
17
F9
00
F4
F3
FB
10
04
04
0E
07
FB
09
00
DD
FF
04
F7
F3
03
F2
F8
03
07
FF
00
26
FE
FC
E1
FE
E8
ED
F7
1E
08
06
F4
02
03
17
09
FC
08
FD
F5
FA
02
00
FB
07
0C
05
F6
FA
EC
15
0F
ED
F7
03
00
05
0E
F9
F8
06
04
02
0B
F4
F9
06
EB
00
EC
F1
EC
03
07
E4
FC
07
FE
08
FE
03
01
05
F9
29
02
00
FD
06
FD
04
D9
F3
20
06
F4
F6
FD
01
06
FC
03
F7
01
FE
13
F2
01
FF
01
0B
F5
F0
03
14
11
09
F8
15
21
E8
F3
0E
1D
ED
FC
F4
05
FD
F1
03
EE
EA
F8
0F
EE
06
22
ED
05
F0
20
EC
11
0A
F8
0D
F0
00
E3
EC
EB
05
E3
12
FA
E2
FE
18
F5
F3
E8
FA
35
F5
EC
ED
ED
01
0A
07
FE
FA
00
FA
08
02
13
02
FD
0C
FD
FF
04
FC
0E
04
07
01
00
FC
04
01
0E
03
08
04
08
F5
0B
01
FF
F7
FD
00
FE
02
00
08
FE
FB
01
FF
06
F7
0A
0E
08
FD
EE
FF
01
0B
00
FB
F6
F9
08
00
0B
03
FE
E8
FF
08
F2
00
02
1E
06
FA
FE
04
0A
05
04
03
F8
03
E4
01
F6
F0
0A
03
02
F7
0B
02
0C
0B
E4
0A
FC
0C
05
0B
04
0A
F7
04
08
F8
E8
0A
01
00
04
0F
0F
F6
09
FB
03
13
00
05
FC
0F
09
0C
F7
FA
01
06
F9
F3
FA
07
1C
F7
1B
0C
2B
C9
20
F5
ED
19
EF
D9
F4
02
D3
07
70
E9
E8
10
FE
C8
10
D9
F6
B0
E7
02
E8
12
03
E7
F2
B4
19
00
1C
06
15
E1
0F
D2
F4
17
04
FF
0B
F6
F3
17
1F
13
05
16
E5
F3
F7
E3
DA
0D
F6
07
EB
D7
00
23
E9
F8
D5
09
F7
FA
EA
F7
D4
01
0E
EC
06
04
1A
F2
FF
01
22
07
16
3A
26
31
0C
E9
02
F9
0F
00
08
03
E9
FE
F9
F0
E3
E7
FD
07
FE
FD
FF
1B
0F
E2
12
F0
EC
E0
E7
EA
ED
01
F6
03
0B
FF
FE
F2
FF
F9
05
00
FD
FC
04
06
F9
04
02
FE
02
0A
06
FF
FE
16
FB
0E
FC
05
00
05
05
01
FB
FD
F7
FA
F9
04
0D
FF
00
FC
F5
08
03
F1
FF
02
06
F6
00
08
F5
FC
FD
02
0D
02
00
FB
06
01
05
07
FC
03
04
F5
FD
09
21
08
FB
05
00
FA
05
0F
FE
FB
FC
0F
FE
FF
F1
01
F8
02
E5
00
F8
06
06
FF
05
FA
04
FE
03
05
11
FB
ED
F0
04
FC
48
10
F0
59
03
00
E9
FE
E1
FC
FA
01
FC
FA
15
00
11
05
01
07
F8
FD
FB
FB
FA
15
FE
FF
03
FE
FC
FE
00
FF
03
FB
06
FF
00
01
FD
FE
FF
00
03
FE
FF
02
01
01
F8
01
00
FD
00
FB
FE
02
FB
FC
FD
02
FE
FB
FD
01
01
04
04
FF
01
FE
09
01
FA
03
FA
02
FE
02
00
04
FF
00
FE
04
00
FE
FD
FF
FA
2D
0C
01
E9
18
11
3D
F4
1E
11
0A
F4
0D
FE
1B
F3
06
F4
06
EE
D0
01
17
E8
F9
04
F7
02
FB
11
FE
0E
0A
FB
FB
0A
13
07
20
F8
FC
FA
19
FE
17
F0
FA
EE
01
F1
02
F1
FF
09
1F
17
11
07
01
F6
01
06
05
0E
FD
04
0D
03
04
F4
FC
CB
EA
FB
F7
04
F7
0C
FC
0C
00
02
09
D9
21
06
0F
EE
03
EE
CE
03
06
F0
0B
1D
12
1E
ED
0A
F7
20
04
F8
1E
FA
05
BD
01
F0
19
07
13
10
BB
D3
EE
C7
EE
CB
D4
E9
14
0F
FC
05
22
0E
DF
01
00
D6
00
02
03
08
F7
08
FD
04
FE
0B
FE
F9
09
02
FD
F6
EC
04
F6
07
F2
0E
0A
04
11
EF
09
FA
08
FC
0C
FC
02
FD
FE
01
FF
FE
02
00
08
0B
03
FE
02
07
EF
01
F9
02
04
0C
08
09
FA
FA
05
FC
04
1B
01
E1
21
02
EF
E2
1E
E7
EB
F1
05
08
FB
0F
16
C7
0E
16
07
FD
05
F0
EF
E1
FA
0D
F6
1A
CB
19
F6
03
DF
0B
FF
F8
16
CB
10
12
31
ED
0E
0A
12
00
E6
FA
E6
FD
ED
00
EB
11
14
F7
02
F3
FF
04
02
F9
FE
E6
0D
00
1E
FA
FB
09
01
1D
F5
05
12
FF
00
03
F2
E9
29
F7
F0
F0
01
FA
F6
02
01
06
E9
1A
03
12
DB
1B
FA
DE
F1
05
ED
FB
E1
F2
0B
FB
E0
E3
0A
E7
F3
13
06
04
F4
11
DA
EA
E4
F9
F5
DF
0F
DF
09
1E
FF
FD
FD
FC
01
09
FD
01
02
F8
0A
FA
EE
FA
07
FD
0B
FD
FC
FA
FD
00
04
FC
00
FC
05
FC
0E
FC
FC
F7
FD
08
00
0B
F8
00
FF
08
10
FA
FE
02
04
08
06
EB
07
01
00
04
02
FE
03
FB
03
00
04
01
06
FD
05
04
FC
0B
FF
F1
00
01
07
05
0E
F7
F1
1D
DF
F4
04
EB
01
E2
EA
05
06
E6
EB
DF
F8
FD
F3
00
F7
07
F0
EE
FD
22
07
ED
0D
E1
F4
FE
F1
FC
02
CF
F2
11
0C
15
01
F7
E3
1C
24
01
1C
07
F8
F7
1D
0C
04
F7
F0
EB
00
E4
00
0F
FB
01
0A
FD
07
02
F7
E9
09
03
F5
01
FA
F2
0C
09
09
FD
10
F6
06
FE
03
0F
F2
EE
07
E8
0B
FC
09
FE
F3
FD
04
FC
FB
10
FD
06
FC
01
F6
0A
06
01
04
EB
05
F8
FC
F3
E3
F5
EE
F3
02
05
F8
11
02
09
EF
03
F8
F1
F6
FF
DC
F0
FA
FA
FE
EF
F6
07
27
FB
04
04
22
12
F8
F3
01
F6
F2
05
06
07
0C
E1
08
E9
0D
FB
FE
28
F1
FC
04
FD
04
F5
EE
07
E3
FE
11
0D
FA
15
02
FB
FC
05
DF
EF
0C
01
FE
0A
15
06
01
04
F6
FE
FA
F6
03
FB
03
F8
E5
02
0F
01
E2
FD
F5
F9
F3
05
03
0B
09
02
08
0A
FA
02
F9
EF
08
F3
FC
E6
FD
FE
E4
FA
00
08
08
00
FA
FD
F9
F6
09
10
FE
FC
04
04
FD
D9
EE
16
07
EC
05
FF
F3
04
F8
FD
FB
09
E4
05
0A
D4
F8
F8
0B
03
FF
00
00
05
03
04
FA
FE
07
07
F9
FB
FA
06
F8
09
F9
00
08
F2
02
EF
10
02
FD
FF
FC
03
00
FC
03
FE
FD
E8
07
00
F3
03
05
03
06
F7
F0
02
EE
0A
02
FE
F4
09
F9
FD
03
F9
04
1E
D6
1D
F9
EB
EA
00
BA
25
08
F8
FF
1A
15
D0
10
1A
23
05
FD
0D
EE
20
2C
E6
F4
03
EE
EF
16
FE
D2
F8
E9
07
FA
26
09
17
11
B7
FA
27
F1
F2
ED
0B
E2
FF
23
09
0A
20
20
01
10
F7
E0
E8
DD
0D
EC
00
D7
26
DD
01
14
E3
0A
07
03
00
0B
F0
0E
09
07
08
FD
00
F7
F2
19
01
FC
EF
0B
02
E5
06
11
0C
07
EE
02
11
21
0F
F3
17
09
06
06
02
02
E6
0E
04
FA
05
F9
FB
FE
11
02
14
07
02
10
22
F2
0A
27
03
05
00
07
FD
1E
FD
FB
D4
F6
05
03
FC
05
04
16
1E
FE
0D
25
F7
01
05
F9
52
1F
0D
08
05
05
F9
04
FC
FE
0A
06
1D
F4
00
F9
05
02
FB
F9
FF
FD
06
DA
EC
F9
F1
FC
0D
06
F2
FA
EB
F7
06
0D
07
07
14
F8
ED
FD
E0
11
E6
FA
F9
EF
FA
F5
0A
03
E8
00
09
F7
05
FA
F6
F6
0E
E5
FD
FC
0B
00
0B
0A
00
1D
F8
00
0A
E8
F2
F9
F2
08
0F
EC
1B
02
FE
08
F1
F9
F8
FB
F9
14
F2
03
EE
F1
F6
E3
01
35
F7
05
FC
E2
F1
FA
00
1E
EA
07
FB
EA
05
ED
09
05
04
FC
0A
0F
F8
E8
F4
F7
08
02
F8
22
FA
08
0A
05
02
04
09
EF
0D
03
10
04
F2
02
C8
11
F4
0B
04
09
FF
1A
F7
E8
08
07
10
16
07
E2
F7
F6
ED
0B
DD
F7
03
08
FA
06
FB
16
FE
FB
F2
E1
00
E6
22
F0
01
0A
0D
04
DF
D4
F0
FF
E4
17
13
F7
F1
E2
F4
FC
F2
ED
17
DA
02
F1
E1
E8
FF
DB
EA
0D
E8
E4
F0
28
FA
E6
15
C6
F2
1C
F2
F4
38
FE
04
02
F4
FC
E9
0F
FB
12
38
EB
06
F7
29
F1
01
10
D0
07
03
05
09
FA
FD
FC
0B
0D
F9
ED
D5
0A
0D
EB
09
09
EA
09
09
FF
06
12
03
FE
00
03
08
FB
00
05
EA
06
15
F7
F9
FA
04
00
05
EF
06
FC
0E
F9
00
F3
16
20
01
02
EA
FE
E2
FD
F5
E0
EF
F4
ED
0F
F7
F8
F5
F7
08
0A
09
FB
E7
F7
08
F6
12
F1
E5
0B
39
03
23
08
1D
DD
FC
F2
01
1C
05
E6
1B
06
E9
F8
EF
E2
07
FE
F8
FE
25
D0
0C
0D
ED
ED
FC
F5
07
FF
EF
F1
EC
EF
1D
0E
F7
EB
EF
F4
FE
FE
0B
E8
FD
F7
F5
1C
E2
03
12
0B
DA
0B
FE
F5
00
E9
F6
17
1D
D5
F3
05
00
00
12
E7
D4
F7
F2
EF
F6
13
FA
04
EE
13
09
03
0F
EE
F0
FA
F8
F4
01
F2
FF
02
FD
E7
E3
01
0A
05
E8
EA
00
D2
18
00
00
04
19
27
10
16
17
E6
04
06
FA
02
10
F8
02
FE
DB
09
FD
08
FE
F5
FE
00
03
0C
FB
FE
00
F8
01
0A
05
03
02
FB
03
FE
03
FF
00
FB
F4
04
06
11
08
FC
01
06
03
F7
04
FC
03
03
F7
12
01
FB
06
08
F8
FE
F9
05
FD
FC
02
03
FE
07
08
03
FD
FA
15
E1
03
08
ED
D5
21
1B
0D
0F
03
13
0E
1E
FC
04
F3
DE
FB
0B
FB
00
FC
07
E0
F3
1B
F1
08
F6
FB
12
04
D0
F2
01
1B
F7
0A
12
04
0D
03
DC
19
0C
0B
35
05
EC
2A
1B
FB
01
FB
05
02
FB
0C
09
1D
0A
EE
16
F7
F7
0C
EC
EF
EE
00
FF
EA
02
F4
E7
E7
07
F3
F4
F4
FD
04
07
0C
1D
05
05
03
03
0A
1C
F6
18
E0
1F
FF
02
F4
CF
F7
1F
04
13
06
05
E8
03
D8
CA
E0
FB
FA
04
0A
1C
FE
1F
FA
03
FA
CF
E9
FE
14
17
FB
EF
0F
F9
EB
0E
08
FA
F8
FA
1C
19
15
F5
E4
19
06
0D
F4
E0
E5
06
EC
EE
DB
F1
F1
FB
0A
15
15
EC
26
E9
C1
FF
DC
F2
08
0B
C9
00
FC
B6
F1
04
2E
F1
04
BA
F9
CC
E1
1F
1A
0D
24
22
29
2F
15
BB
F7
01
03
D5
12
10
F7
05
E2
05
F0
0F
20
F1
FA
F9
1E
00
F3
E4
0B
0B
09
09
FD
C7
03
E9
00
08
FD
02
EF
FE
DF
02
09
15
1A
0E
EC
E9
01
E9
F5
FA
1C
06
02
D8
15
04
C4
FB
0A
0C
FC
3A
F8
02
FC
03
02
FB
07
15
13
07
05
F1
1B
F8
FD
02
F6
19
04
F3
E2
16
00
F6
01
11
C6
F6
17
0B
E8
0E
05
F3
F3
FC
26
0B
16
03
DB
0C
F7
05
02
ED
F9
00
F3
F6
FC
04
1C
05
19
EC
0D
03
05
28
B3
1B
E2
09
EB
DF
D0
ED
BF
00
F3
00
F9
DB
1A
01
F9
09
09
07
FA
08
F3
F4
05
FD
FA
FA
FC
F2
F3
F6
F7
17
00
13
0A
F2
F8
05
FE
F4
E7
F9
01
FB
05
15
F7
05
12
00
00
01
1D
03
0C
FB
F7
FC
01
02
01
F6
F8
FC
FC
01
FF
02
07
09
FC
0B
FF
00
F6
FD
F3
16
F8
CE
F3
D5
09
1B
1B
3C
F0
0A
1E
FF
AC
09
06
F8
F8
02
25
12
F2
F5
00
07
33
00
EC
20
F3
11
15
86
0E
08
02
9D
D1
17
FD
0A
CF
D4
FA
EC
1A
13
09
15
32
FE
FD
F5
FF
20
11
03
15
04
28
C8
E7
02
F5
17
FE
ED
F5
FF
02
1C
07
F3
FF
0A
FD
F3
03
25
02
00
EA
02
06
05
02
FE
FB
EE
F1
F3
22
ED
F1
FD
F7
23
07
D5
14
DC
11
F0
EF
0B
01
FB
FF
FB
FF
FC
04
F3
0E
FF
0A
E7
FD
F0
27
FE
F8
0B
09
0A
11
08
03
0F
DA
07
ED
FD
FA
E1
EF
FC
0D
C8
09
01
01
F4
18
FB
E0
09
F8
F2
02
FF
06
02
DD
E7
08
13
08
F2
FC
FC
FD
16
0B
F6
03
01
09
FF
E5
00
E6
04
ED
E8
04
F2
1A
E4
08
20
F8
03
03
F8
1E
FF
07
FA
EA
0A
01
0E
0B
0C
F3
27
05
09
FE
FF
05
05
F7
0E
00
F2
F5
FF
0A
F6
FA
15
27
FF
06
07
FC
FF
FA
F2
F9
02
0E
01
EF
FE
E4
02
07
FC
F2
03
F6
FD
06
F0
FA
F7
02
08
EE
FC
F0
F7
0A
06
00
F2
05
FD
03
F2
F0
00
0E
F9
FE
FE
07
01
F3
04
05
08
02
00
04
09
FD
F4
02
02
05
FB
FD
EC
FA
FC
FF
03
00
01
07
F8
00
EE
1C
0E
14
12
F9
04
FC
F4
03
05
00
08
0E
E9
FC
0F
00
FA
FD
0A
0D
FD
F6
D9
FE
07
17
E5
EF
03
0A
F8
01
F9
04
06
F8
03
1E
10
07
02
F7
EE
0A
03
FD
F2
07
01
F9
04
04
FC
0D
FD
02
EF
06
07
06
06
FE
FF
06
10
03
08
EE
03
05
FF
F6
04
06
01
F5
03
F8
09
E1
1C
F5
18
F5
20
FC
FF
03
F5
09
0F
05
FF
FF
0C
05
44
00
E2
14
D3
12
F3
DE
FA
FB
07
EC
2D
D7
F6
F8
D5
05
F2
63
24
E0
B5
FC
F3
1C
05
00
D8
11
2B
1B
01
FA
FB
0F
81
08
EF
07
F5
CE
EE
00
E2
F6
29
04
E9
27
08
F8
02
FC
40
D5
E9
F9
0F
EE
AC
DC
CB
0D
FC
08
FC
E5
E9
FF
11
D5
F8
EB
FD
DE
01
19
FC
FE
F9
03
05
18
FE
F6
F5
16
DE
25
1D
ED
28
FC
F7
E6
FA
FD
F3
EC
FA
FD
F4
01
01
E2
E9
EB
17
F1
FE
F3
FA
F2
02
EE
F0
E3
DD
1E
13
E6
01
F4
1A
0C
F0
1B
0F
0A
02
E6
F8
09
FC
EF
E5
F1
03
01
F6
EF
04
01
04
18
FA
05
0C
0E
0B
F1
FC
F4
E0
F2
FB
F1
0D
1D
E6
0F
00
FE
F0
20
07
F5
16
11
F5
E1
EE
F2
1A
01
17
07
E9
ED
0C
E6
E9
E1
E1
F9
18
FC
F9
F1
16
F9
09
00
05
E0
07
04
FB
F3
06
03
0F
F4
FC
07
F0
FB
F9
04
10
FF
0B
FF
FF
0B
1F
F7
FB
F3
F9
0A
FF
06
07
FB
04
FF
FF
FF
FF
06
01
04
03
05
FC
ED
02
00
07
0B
FD
03
F2
03
FE
1A
FF
FC
FC
08
0B
FE
FE
FB
E5
FA
FF
27
C4
40
1F
05
F6
E9
1B
F4
01
16
E2
0B
F7
0F
08
E1
07
29
14
F7
D6
04
04
0D
CF
3A
0F
23
17
12
13
19
EC
09
10
F5
E5
12
03
FA
04
06
EC
01
F9
08
0D
01
DC
E6
30
0B
17
FA
1A
06
CB
13
17
04
E7
FD
DF
EC
0E
24
F5
F0
07
FF
F0
07
FF
F9
01
1D
D9
F5
17
1D
FE
06
13
F3
0C
F0
F8
0B
EE
E0
ED
14
F6
1B
F1
F1
F8
0A
12
F3
FF
0B
F9
F3
F1
EE
03
01
14
FE
19
F1
04
E8
09
0B
E7
EE
05
FC
FA
F7
01
FE
20
FC
FF
FE
0B
0D
05
FE
06
FD
11
FD
FA
04
F1
FB
EE
06
FB
0E
EF
EE
FE
08
08
00
F5
F9
F6
FD
F3
0A
01
FB
F1
FA
0C
F3
ED
FB
F2
F5
04
FA
E0
08
07
F4
F6
F5
FF
F8
F2
04
E9
04
F3
FD
CD
03
FE
08
F8
04
09
E9
0A
00
01
2D
F7
F0
E0
F9
00
E9
F0
07
07
E0
F7
FF
F7
EF
02
25
F1
29
D8
FC
F3
07
F2
EB
EB
F6
09
D2
07
ED
F4
E9
ED
F8
FA
27
F4
02
08
16
F7
F3
28
0A
17
03
F8
F5
EE
10
FA
F5
FC
E6
14
DA
E8
01
14
13
F5
0F
FF
07
0A
09
FB
14
0F
F9
F3
05
F7
F0
E9
03
F8
F5
FD
06
F9
0C
0F
04
FF
0C
08
05
00
13
0C
FE
05
01
FC
FA
EC
06
FE
0D
02
03
E9
0D
13
FC
06
09
FB
09
05
EE
E7
FF
F3
E9
FB
EF
0B
01
F9
0A
F9
F5
FC
FC
01
FC
E6
12
0D
FC
04
15
FF
F8
01
09
25
E0
04
FA
FA
1A
0B
10
08
FE
11
02
0A
0D
0F
EE
EC
05
21
E2
17
05
1C
17
FF
10
15
17
F2
0D
03
08
FA
00
EB
26
FA
02
12
EF
15
19
E9
06
F3
0B
01
FA
00
FA
FE
0D
F9
FE
FB
0B
06
FC
28
04
F3
FE
02
FB
F0
02
05
F4
0B
FF
FE
05
F8
09
02
02
FC
03
FE
05
01
0D
F7
03
00
F7
07
0A
F6
04
FD
0A
F1
08
14
09
03
01
09
07
FF
0E
0A
0B
07
F8
01
F9
09
0A
FA
0A
04
1B
1F
04
05
E5
FE
F3
ED
ED
04
F9
07
E2
09
F5
00
0F
F9
F5
F2
E2
15
12
0C
01
F7
D3
F2
FB
FA
14
FB
FB
09
F7
13
F6
F8
F2
F6
FB
FB
0A
FC
FB
12
03
10
ED
0D
08
0E
FE
EC
EA
F4
FF
36
F4
09
EF
0D
13
01
10
FC
09
04
F5
08
F7
14
03
12
08
F8
08
EE
FE
F4
0C
E5
00
FF
00
FE
FE
FC
18
09
2A
FF
F8
F6
00
01
F2
0E
FB
0B
04
07
F2
FF
09
16
FD
01
FE
0C
CE
04
FC
02
07
0D
0E
08
01
07
00
FF
F8
02
F5
03
F6
08
00
F9
FA
FA
F8
F6
FD
FB
F9
07
00
09
02
03
FD
FB
FD
03
FD
03
F3
03
02
03
01
FC
FC
00
F2
02
04
01
00
FB
03
03
FF
FE
FF
FA
06
04
FD
02
00
F5
FB
00
07
0C
FD
F7
05
FD
07
FB
FC
01
FE
00
01
00
04
E4
16
0E
1F
20
2E
FD
02
DD
20
11
06
0B
DB
F2
0E
EF
24
09
02
F5
F0
EC
05
EF
10
1A
0D
EF
12
F8
13
FB
EC
10
00
B4
18
0B
DB
1E
F4
0D
1D
F0
F0
03
02
03
0C
FF
F3
FB
07
07
ED
F9
09
08
1A
D8
F6
EA
F8
15
E7
13
F8
33
18
DF
FE
F1
ED
EB
EB
E1
FE
17
01
17
03
11
07
2D
34
FC
06
12
EF
EE
15
DF
11
E0
F1
13
ED
15
EC
F4
F3
FB
F7
00
E4
DC
16
24
02
F3
FB
0A
14
D4
04
28
EB
04
06
EC
FF
01
F2
04
DD
EF
0A
EB
F2
00
17
FC
EF
FE
FC
16
E4
F0
06
13
FB
FA
FF
F7
F0
F9
E9
16
F5
F6
01
0F
F6
FC
08
E0
EF
FA
F1
05
1C
EA
FE
EC
F1
26
F7
FC
F9
F5
FB
05
0B
F7
F3
FA
F6
FE
03
F4
F8
FD
02
EF
FA
FC
E6
0C
F7
FA
1F
FE
F5
F1
FD
F4
06
06
05
07
ED
FF
17
FA
F7
FE
41
1D
07
03
43
FC
FE
0D
05
FC
EC
F6
03
FB
F6
F6
0F
FE
04
00
FC
F7
F7
01
F6
F9
04
EF
01
F5
07
03
F9
E8
F1
FF
F9
08
F8
F5
FB
F5
FD
00
F1
FB
12
FB
FD
F7
04
FF
FE
FE
FE
07
02
FF
03
FF
00
FE
00
F7
06
02
00
F5
FB
FA
01
FC
F7
FD
02
00
06
FB
04
05
FE
00
05
F9
04
02
06
FD
04
FE
03
FD
00
06
FF
02
0D
00
05
01
F9
06
01
06
FE
FF
FF
0C
FA
F7
FC
FE
00
F2
09
FF
F6
E5
F7
12
FE
05
05
F6
FC
01
FD
05
01
F8
00
F9
02
EF
FB
FC
01
F7
02
FA
05
FF
FF
05
F9
F5
FD
04
22
05
FF
09
06
02
0A
FC
01
DD
FB
02
28
03
08
3A
F9
D5
0A
FF
ED
2C
03
FD
02
04
FA
0A
06
01
FA
FD
FC
07
FA
F8
08
FB
08
FC
F6
07
08
FA
03
F4
F9
0A
FC
FB
03
FE
FF
FD
0A
01
FE
FE
08
03
16
02
F8
03
00
0E
FF
F7
F9
04
F3
FF
05
E6
FA
07
09
02
0B
05
0B
02
F9
F4
FC
00
06
F3
04
FC
04
00
FD
F9
05
FE
F7
FB
10
CC
03
01
F0
0F
FD
E5
02
38
FC
08
14
10
FD
DF
FD
F4
08
F8
F2
F8
07
FD
FB
01
08
4D
F8
0B
06
02
03
12
FA
03
04
06
F8
E4
FC
07
03
0A
F0
0E
FC
FD
FF
F4
E3
F0
00
E0
02
10
03
F9
12
0A
06
FF
02
FE
ED
F8
17
F3
0A
DD
01
FC
08
03
FA
14
FF
00
F4
00
F5
FA
10
F8
F4
F1
0C
0C
1B
0D
08
01
F9
1A
FE
FF
F6
00
0C
FC
FF
FE
04
DE
0A
EE
FD
F3
EB
04
FE
05
E8
F2
11
FC
07
05
FB
F5
F7
F9
FD
F6
09
07
DD
01
FE
04
01
05
10
04
01
04
05
03
02
FF
0D
04
00
0C
FE
01
03
F8
FF
00
F8
FB
F9
06
01
F7
00
FC
0C
07
FF
04
FE
FF
F0
06
03
04
03
02
02
03
F4
E7
07
F6
05
00
F5
FF
00
FC
02
F7
00
01
19
17
F5
06
FE
F2
FC
E6
C2
D0
16
0A
13
FE
17
FE
2A
FF
03
03
08
08
02
FA
D6
19
16
1B
ED
FB
0F
01
F6
FC
FF
E8
17
C5
00
05
D7
EE
FF
EB
4D
F9
16
06
FF
F1
08
E3
04
12
E9
1C
E2
C4
F2
02
E4
1F
FE
06
DC
F0
FB
11
FD
07
01
16
FD
FF
F2
06
01
04
03
F9
02
01
F8
02
FC
F1
05
04
FC
E1
05
01
0D
F9
F4
0A
0C
FA
01
FD
00
06
FB
05
FB
00
EE
FE
03
E8
FE
07
FC
03
FA
FF
FC
00
06
05
04
FB
FC
04
0A
FD
00
02
00
0A
09
DC
D9
07
09
11
FE
06
F9
12
0A
0D
EB
0C
E5
11
00
F0
29
05
D6
FD
08
F9
05
1E
E9
13
14
E7
15
B2
12
F1
FC
F7
02
0A
06
24
F2
BD
01
F1
10
ED
FD
EF
FF
D9
EC
FC
01
EF
04
EF
01
EB
07
0F
E0
0E
E7
F1
05
FF
E0
FF
07
FE
F8
04
00
07
F9
07
00
02
FC
03
05
09
03
0E
09
F7
0D
06
F9
FC
F6
F7
F9
0A
00
F8
FD
F9
FD
FF
FB
FB
FD
FC
F9
05
03
FC
FB
03
08
07
F6
06
FC
EF
0F
F8
FC
FC
FC
00
02
F9
FB
FF
0B
0B
EE
37
2B
17
F9
0B
04
F0
0C
F5
E4
11
0D
F2
F3
FA
18
FF
FC
12
FC
CF
13
18
01
FF
10
EB
F5
EA
E3
14
1E
0D
D2
01
E6
F9
0C
1C
FF
15
F8
02
0D
1C
F9
15
19
F6
FE
E8
05
02
10
10
09
F6
D1
FC
FE
37
E6
FB
00
F2
F1
04
11
DE
EB
F0
09
13
F3
FE
FF
F6
EE
E6
FE
1B
04
05
01
F8
08
29
F6
F1
FD
F3
06
FA
09
09
F6
07
FD
05
F9
FA
FF
FA
20
FF
F5
FF
FF
F7
F0
05
F4
05
FE
DF
F7
F8
0A
0E
01
F7
FA
0C
EE
ED
F8
31
1C
F2
1A
0D
0F
09
09
FA
2F
C6
E2
D3
17
EC
0A
FD
29
FB
0B
EA
17
FE
02
27
1F
03
E3
FF
00
D0
E7
F8
13
53
21
1D
27
0B
ED
03
03
0C
FE
21
27
FB
F0
16
12
FA
B6
ED
13
DA
06
07
FD
D5
12
1C
0E
00
E4
05
FD
F8
F5
F4
CD
F3
F5
EC
0E
F7
EE
F9
10
F8
EC
D8
06
00
EA
F8
F8
EC
09
2C
F7
F7
27
F8
F3
FC
DE
0E
F4
15
1C
FD
01
01
00
00
E2
ED
E9
13
0A
F6
FE
D3
23
F6
F2
04
F5
E6
EA
15
F8
FF
07
09
D5
FB
F8
FF
01
F8
EE
EC
FB
FD
F5
F8
F9
F2
E9
EA
FE
15
01
01
FF
03
F7
ED
FE
FA
11
F4
05
00
00
FF
E8
FD
DD
04
F9
F4
FA
04
0B
2B
02
FE
03
00
08
0F
08
F0
F2
05
03
00
E9
06
0A
0A
02
02
F5
11
FB
E9
03
F2
06
F2
FF
EC
FF
EF
F9
FA
02
E4
F6
FF
FD
16
04
09
F3
FE
FB
FD
05
01
02
DA
0F
00
EA
F4
07
F1
F2
12
07
0D
FC
16
13
DB
FD
C9
FA
11
00
ED
18
09
14
E6
FE
01
15
02
11
05
5B
D8
02
E2
56
0A
16
FF
0A
09
E9
07
F1
FF
FA
F9
F6
F2
FE
03
FD
03
F6
F4
FB
02
07
00
F0
0A
FA
FC
04
04
04
02
F1
0C
02
02
07
01
F6
01
00
FF
04
FC
FE
01
F5
FF
F8
FD
FC
F4
EB
FF
FE
F7
01
F5
09
06
01
00
06
09
10
00
05
FD
03
06
00
25
01
00
00
FB
0C
30
04
F7
EB
09
07
11
08
D3
FC
04
E6
FC
F8
04
FF
F9
06
16
0A
FF
0E
02
F4
09
00
2B
06
F6
EB
FB
04
FB
FC
03
FE
01
FD
03
E4
FC
F6
01
F9
0C
00
FB
01
FE
E3
07
FB
19
05
12
0A
F5
F1
10
FD
04
01
0A
FA
F4
F4
01
0B
C6
04
0A
F8
00
03
11
00
FE
06
06
06
01
06
0C
01
01
25
14
13
FF
F5
09
FF
36
02
0A
00
0A
FA
F9
F7
17
F1
F1
EA
E6
03
FD
01
F4
FE
1A
E6
F5
0B
EF
FD
00
08
06
F3
00
F4
04
03
09
01
07
F5
FF
2E
04
08
FA
00
F4
00
01
0F
08
04
01
10
FC
10
06
F6
08
F3
F4
FE
F9
03
F0
E5
05
11
03
00
F6
F7
FF
FB
F6
EF
FA
F6
05
07
FC
ED
22
06
07
01
F5
F9
F8
F0
F5
F6
01
F0
00
3D
00
F1
F8
FF
F7
F9
FF
04
00
03
FB
03
00
FA
09
FF
07
FE
FB
06
10
FE
02
FD
FF
02
01
06
04
F6
FC
FD
04
06
04
FF
04
06
06
F5
09
06
FF
01
FD
06
F9
03
0D
EB
01
F5
05
04
07
02
FD
FD
03
FA
F8
FD
FC
05
F8
FC
F0
0D
CC
F6
E4
FE
21
FA
FC
2F
F6
FC
19
0C
BC
02
F2
1C
D6
12
1B
FA
ED
28
17
18
05
08
01
F5
FF
EC
C6
04
FD
F7
FB
FA
F8
FC
FB
0F
FB
EE
F1
0E
E8
08
F6
F2
05
27
F8
FA
F8
0C
11
F4
0E
FB
F8
09
FF
28
02
FE
FE
FC
07
FC
09
01
F9
FC
03
FB
01
02
00
F7
F1
0F
FB
F7
FD
FF
03
F6
03
14
F9
0B
09
F8
D7
FF
FD
00
EA
00
F5
0C
00
F4
02
02
01
06
07
FD
F9
01
01
0D
FF
FE
00
F3
07
FB
FA
F9
FF
09
F7
08
FD
04
1F
00
F7
E8
F1
00
36
07
F8
05
2E
FA
0E
F1
DF
07
07
F8
2A
0E
00
F1
EE
DD
FD
08
04
E6
0C
FC
0D
10
FC
11
FF
0C
F8
0D
23
4A
FC
03
02
03
2B
EE
50
0E
07
0D
02
09
E7
09
EE
0E
03
13
F7
05
15
1D
3F
F7
FC
FE
00
DE
F2
F8
DA
EC
F3
0C
E6
F2
FA
06
FD
04
ED
E8
15
F4
F8
FE
FC
02
FC
1B
FC
11
11
F0
CB
F5
03
0F
EA
D3
F0
0B
FE
12
04
02
02
E7
FE
F3
F5
13
02
03
EB
D8
FC
FF
FF
02
00
FF
F7
07
0D
EB
04
16
0B
FF
ED
FA
0F
03
F6
07
F4
1A
1E
F3
FE
0B
0B
F3
21
FE
FB
02
FD
FB
F7
EF
04
27
0B
00
32
FF
F3
08
0D
F7
03
12
E8
F3
ED
F1
F9
0F
F8
FA
F7
F4
F9
0A
FB
F8
EE
EE
F0
E6
F5
08
FC
F2
05
EE
E6
0D
EE
02
09
05
00
FF
FE
04
08
FD
00
FC
06
0A
FD
FE
FF
F9
FE
0B
EA
00
F2
01
05
04
07
04
FC
FA
11
FE
09
0E
02
F8
0B
05
04
08
03
08
FC
FD
09
02
F5
F8
08
12
02
0A
FE
FB
04
F0
FC
FB
F3
FB
00
06
0A
FA
02
02
FD
EE
25
07
E3
17
02
F2
F9
E8
FB
EC
FE
16
19
04
0C
FB
F3
FF
08
19
FF
EC
EB
2B
35
EF
0E
F2
07
E8
03
FB
FA
EF
06
F5
FE
F3
F8
FA
F9
06
F8
07
F8
FF
ED
EE
14
08
05
FF
FA
F9
F0
F6
01
10
21
F3
F7
E0
05
F0
FA
0A
06
07
02
0B
08
FE
F7
F7
02
09
FA
FD
F0
F4
01
F5
EF
F7
F4
07
07
01
0A
FF
FA
07
F9
FA
07
0B
FA
06
00
F3
FF
01
E5
EF
F6
14
FC
08
FB
00
EC
F1
07
05
03
02
02
0A
0E
08
F0
FE
03
01
F6
07
DF
FC
F0
E4
03
FE
09
0B
09
F0
15
06
F6
05
04
04
09
19
C7
04
15
04
11
11
0C
12
08
E8
0A
EA
01
E2
FD
0B
FB
FA
F3
0A
01
28
03
F5
19
0D
06
1B
F3
FE
E4
FF
0E
FE
F1
03
0F
33
09
11
03
06
CE
09
F8
02
13
0D
02
FA
00
08
07
0F
FD
0B
FA
FE
22
01
13
03
1A
08
F9
F7
FA
F6
05
F8
10
0D
EF
FD
F2
1B
06
F3
FF
05
07
E8
FA
06
FD
FB
00
F9
F7
F7
FA
04
FA
EC
00
F7
F2
FF
0A
E9
F6
11
ED
06
17
0B
0F
F2
03
FC
