EF
FE
FB
07
00
08
02
F7
0B
E7
02
09
0A
04
F1
FE
F0
02
0A
F6
F6
FC
02
00
F2
F4
F4
11
FA
05
F0
F6
FD
F1
FD
F5
04
EF
08
FB
EB
F8
0E
FA
FA
DE
E3
F1
F5
FA
E4
0A
07
F6
08
DE
0A
00
01
FB
E3
F7
07
F9
F7
F7
01
F4
EE
00
17
FD
F9
FF
E6
F9
08
F7
09
0B
F4
FE
07
06
0F
E9
ED
F8
EA
02
0C
FD
0A
F2
F2
00
08
F8
05
08
04
04
0B
0A
06
1E
F7
0A
E8
03
07
F8
F3
FA
01
0C
25
FE
03
00
10
15
EE
F9
F8
F6
04
E2
0A
F7
EC
E1
E2
01
FA
18
F6
F8
FD
FA
09
0A
21
DA
08
E3
02
FC
0E
FF
08
F9
25
00
F8
03
14
E9
E6
F3
04
09
F5
00
FF
02
0C
0B
0D
F6
0E
02
07
FD
FF
F7
09
FC
0C
05
03
16
FD
04
F1
08
09
F0
FB
0A
08
02
F5
EC
0C
06
FA
03
F5
06
13
2E
04
10
0F
29
F3
01
01
05
FF
19
FD
0F
F5
FF
03
0B
F8
2B
F6
81
05
0B
1B
F6
FD
00
FD
0A
FC
01
27
FC
21
06
FA
28
27
2D
01
13
E4
09
00
10
0F
18
08
00
F7
F6
2C
11
F0
F7
05
F9
0A
E2
18
03
17
09
EE
FB
F1
FE
EF
0D
ED
03
0F
18
00
05
F8
FA
FE
0E
F3
FC
F1
E7
E7
00
00
FB
DD
0A
0D
10
F7
F7
F7
F7
FF
F7
ED
F9
00
FD
02
EF
FC
E4
FF
0C
FB
EE
FB
FE
FF
FF
F7
FF
F7
FB
F2
F8
FF
16
0A
EC
FB
FC
F4
F3
FD
F3
09
FA
07
04
FC
05
EF
04
FD
0F
02
FC
09
02
FD
FF
FC
01
07
02
FB
06
03
F1
E7
03
15
0A
11
04
07
02
D9
0C
EF
F6
00
0A
F0
03
FF
09
F8
ED
09
F9
03
FA
ED
03
EC
03
E5
F4
FA
17
FC
00
F3
08
02
FF
FD
ED
06
FF
FD
F2
FF
01
F1
00
F9
02
FA
FF
01
FD
06
F6
F8
FD
00
17
EF
03
F4
F9
FD
FE
D2
FA
03
05
D5
FE
03
03
02
E7
EA
E0
0A
06
09
FD
01
00
17
F7
03
FF
07
00
EB
02
12
05
F6
EB
02
11
24
08
17
FF
FB
01
07
F9
FD
FE
0A
0B
07
10
00
E6
0C
05
E6
F6
E1
F6
08
FE
D1
F7
FE
13
00
05
F8
F5
06
F9
17
F2
FF
00
E7
04
0E
03
FD
FF
10
02
00
06
00
08
F5
02
01
FD
F5
E7
FB
09
F4
EB
ED
0C
05
F8
0F
11
00
F5
02
05
FB
27
FA
FD
FC
03
DA
04
02
F8
00
E4
0E
FA
04
F5
00
FF
EE
E8
F8
E5
02
FC
EE
0F
0F
08
F5
00
03
F7
03
11
0B
06
0F
FD
FD
04
FB
04
FD
EA
D1
F7
22
00
0D
F9
01
04
F8
0B
19
17
0B
00
1E
18
FC
01
06
EA
ED
FA
F4
EF
0A
04
F8
E6
FC
F3
02
F0
FC
F6
F5
09
D9
02
05
EE
F0
FC
FB
F6
FC
03
10
E1
FD
07
E3
ED
11
F6
19
E5
00
EC
FF
FF
0D
F0
1C
FC
05
F9
09
08
F0
FD
FE
F9
00
FE
0E
F9
FD
FC
12
15
02
F7
01
01
FD
FA
06
1C
CF
28
E9
09
F6
0D
F3
FA
07
F5
09
FC
0E
F2
FF
EB
08
03
E8
E5
01
0C
F4
EA
F7
02
0B
02
FD
14
11
0C
10
FB
06
FE
09
06
0B
2D
02
F9
15
FE
DA
F7
FA
FF
10
F9
EB
05
0D
FE
12
FE
00
EE
04
FA
09
FD
FC
FF
EE
13
FC
13
FE
FF
F4
EE
E5
0B
0A
F0
09
FE
12
DE
05
15
02
06
09
08
06
F7
FA
FF
FD
FF
F5
0B
EA
FF
00
02
02
01
F7
16
F5
FA
0E
FF
09
F7
EE
16
01
FE
00
18
11
FC
F9
01
0E
F9
F9
00
05
FF
22
0E
05
04
00
FE
FB
F8
FB
02
F6
0E
F9
FC
00
FC
0A
FB
FB
EF
F7
E0
FA
FF
FE
ED
01
FF
0B
F3
04
11
06
E5
16
05
F5
F8
F2
F9
05
07
08
FB
03
04
05
C7
FD
F2
FE
FE
02
10
F7
FF
F5
02
11
F5
0C
03
06
F4
09
FC
00
02
FA
F7
E2
F2
02
00
08
04
00
F3
EE
0B
12
0C
07
07
EE
08
F5
F3
EC
F7
05
FF
0A
F5
0D
14
10
FB
04
F3
E5
FF
FE
07
12
FC
04
F9
FD
E9
12
F9
FB
F5
EB
0C
E4
06
F6
0B
03
02
F2
0B
03
FF
06
EE
FC
04
04
F1
FE
05
07
02
FD
FE
0D
03
F9
F8
09
09
FB
08
F8
FF
10
F6
FD
F4
05
01
06
03
03
D5
FC
03
02
FC
FA
EE
F7
FC
F9
E7
09
0A
F5
FB
0E
DD
F7
FD
01
0C
ED
03
FE
FF
37
D6
F0
E4
E6
0A
F7
EF
07
FC
E8
0C
15
FE
F7
14
FE
F1
04
15
01
17
F2
0B
1F
08
05
01
00
E9
FC
D0
00
FE
CB
E6
FF
02
F5
0D
FC
12
0D
F2
11
FA
01
FE
F5
FB
0D
E3
0E
F9
FD
01
FA
0E
F2
14
FC
EB
FF
FE
EB
FD
02
F3
00
F8
DE
F8
05
F9
18
FB
06
00
FD
0F
FF
FE
FE
F8
F9
F9
FF
18
30
08
07
02
2C
EF
F6
09
06
00
F5
08
0B
0A
F6
04
F8
02
12
06
ED
FB
03
FF
05
FF
FE
F9
FC
EE
03
02
FC
E6
F3
F3
FD
FA
03
F3
09
FF
15
E6
E9
E9
F1
FF
F6
0D
10
FF
F9
F7
22
E7
EE
E7
FC
05
0F
02
FA
F8
FC
0C
11
F4
09
02
EE
FB
F2
07
F6
03
09
E3
D6
0E
21
F5
FC
F1
F5
F0
09
EE
ED
F8
F9
F6
06
F8
13
01
0D
09
EF
F6
17
14
13
04
08
1C
FE
00
FB
E9
F9
0A
04
ED
FE
0B
FF
08
FA
F6
F9
FA
03
FD
1A
00
00
0D
FD
0B
EB
FD
0B
0C
F8
04
EF
FE
FF
FB
14
04
E3
F8
09
08
F7
F8
FE
F0
E3
F1
02
EC
F7
F9
01
FA
03
F4
FC
00
FC
F8
E9
03
11
FE
BC
0F
FB
EF
2F
1A
DF
F7
F5
02
FD
D8
0A
0E
20
0A
EB
0C
07
E7
FF
E6
0C
D9
1A
FE
F9
01
1D
E8
F3
1D
09
EE
26
E7
0F
E0
F9
0E
0D
14
1A
14
FF
F7
FE
F7
04
ED
10
15
FD
E6
F5
FF
0E
00
D3
9E
FD
13
02
07
06
EC
14
00
EC
02
03
F8
02
FF
08
01
13
1F
0A
FC
F9
08
06
F3
E8
07
14
0C
F9
F2
14
F6
FA
E9
E9
00
C5
FB
04
02
01
FA
05
0A
CF
FB
F7
1D
F5
FD
F9
F8
0D
17
03
FD
FD
F3
05
1F
F9
00
FA
FF
02
FC
FC
F7
0B
FD
E0
EF
03
06
0D
F9
F8
F2
05
06
FE
FF
FA
01
04
1B
FB
06
FA
14
F7
F6
FC
F8
0D
E9
EA
0B
F2
FF
EE
FA
EE
06
0E
F1
0A
FC
F6
03
E3
0D
01
F5
09
F9
F0
F6
0B
EF
F8
F2
FF
F8
FE
FB
09
F8
00
F8
05
FF
01
04
F8
F3
EE
D8
0A
04
FC
00
06
E4
04
09
0E
FF
E3
F6
FB
03
FB
04
02
F1
F2
F5
F5
FD
02
F6
01
06
00
15
ED
F8
08
F7
E9
02
01
10
04
00
EC
16
F7
15
EF
F8
0E
FE
02
F0
2C
04
0D
00
06
FC
F4
0B
12
ED
01
1F
FF
E9
F3
13
FD
EB
07
E3
F9
EA
03
09
0C
07
D7
06
08
02
D2
F6
05
0F
04
06
1D
FE
09
F4
05
EB
06
EC
06
00
1C
03
03
21
F4
F8
FD
ED
F9
F8
F5
26
F2
FB
EA
0A
FC
FC
19
03
11
0B
00
FE
F5
F2
05
0A
18
1C
EE
F1
08
03
09
05
F6
01
05
02
FC
0F
F4
F3
FB
F5
0D
E3
00
05
FC
03
F0
ED
FB
FD
04
EF
E7
FA
F0
FF
F6
F5
14
CF
15
0D
F2
FB
02
F2
F8
09
00
F5
F4
0E
E5
FE
02
F7
F6
10
EA
04
F3
FA
0C
FA
F1
F3
DB
FF
01
07
1C
FF
E9
FB
11
03
05
04
0A
01
FC
09
FD
0C
08
FF
02
11
0B
F3
0F
17
02
FB
09
E2
F3
11
FA
01
E8
FE
01
FB
02
FA
04
F9
FA
13
E9
FE
FA
F6
FB
00
03
E9
12
FC
F4
03
EF
FC
E4
0A
FB
FA
F4
E6
10
06
04
EF
F0
FB
0D
2B
FD
F9
13
FC
FB
0D
09
DE
FD
FA
05
0C
F5
E2
F5
04
E9
E6
0A
09
1A
EA
05
0A
04
E9
15
ED
00
F7
F8
F7
FC
FB
FB
07
FC
FC
FD
FE
02
05
01
15
05
0B
02
F4
15
E6
05
14
FC
0C
F2
F0
00
15
02
01
09
F8
F5
FE
09
F5
EE
08
FD
01
FE
F2
EF
03
0D
FA
EC
F4
06
0C
FA
00
F7
0C
02
FB
F9
F8
F9
01
F4
EE
0E
0C
11
F2
02
FD
0B
F8
01
EF
ED
EF
01
02
0C
13
F7
F9
09
02
09
08
05
EF
F1
EB
DD
F7
13
FB
FE
10
0A
08
FF
E4
FB
F6
EB
05
09
FC
07
1A
02
08
04
E5
F1
0A
DC
1A
F2
09
05
FC
DB
F5
07
EE
00
FD
FD
0D
08
F6
F1
0E
01
0A
E6
FD
10
02
FE
02
07
05
FE
0C
F7
15
06
FD
0A
1A
EF
E3
00
F1
F6
08
07
E8
02
0B
04
06
13
F1
11
07
02
F7
1A
0E
E8
09
06
22
FB
F2
F5
07
06
09
F4
05
FD
24
F8
D0
02
08
FA
F8
08
FC
06
E7
F4
00
08
FC
F8
01
08
02
F8
08
08
09
01
12
FD
06
F9
0E
FC
04
12
FF
01
0C
F8
FF
00
FF
11
FD
10
16
E3
05
02
01
DC
EA
F8
00
F4
08
FF
05
00
EE
10
04
1A
DE
10
F5
0E
00
FB
D4
FA
0E
FD
03
E0
F9
FB
F6
07
06
F6
F1
F7
11
FB
04
F8
FF
03
F6
FF
F2
FD
F8
04
F9
E9
1C
F3
F9
FE
1F
13
15
0A
02
FB
E7
04
08
F1
F4
FB
06
04
04
F2
FE
FB
0C
02
0C
0B
0C
F1
FD
15
1F
18
08
D9
FD
04
EA
F4
08
F6
05
FD
E8
FF
F8
EC
01
FA
FD
F0
07
F0
0B
E9
ED
06
EE
FA
11
01
F0
04
02
00
04
DA
FA
F4
E4
09
FF
F9
0A
FC
F8
04
0F
03
01
F9
ED
05
00
01
F7
FB
04
E2
F5
FC
FA
EE
05
02
FF
F8
05
09
F9
FD
02
1B
00
F4
07
FF
FF
F5
03
24
0A
0B
FF
00
FD
06
FA
FB
F4
05
C7
F7
F2
04
FF
FE
FA
11
FD
05
03
F7
FC
07
F9
FE
0E
FE
08
17
F9
03
1C
09
FE
11
00
01
01
0B
D1
04
04
00
EE
05
06
13
F8
E6
0D
F7
04
E2
EB
F8
0E
00
E2
E8
30
02
FD
F4
FB
00
F9
F5
FE
13
01
02
F4
FB
FC
FE
FA
12
08
01
03
F7
E2
F6
E8
FE
03
FB
FB
02
0C
14
00
08
F7
05
F7
01
FB
F2
F3
F7
05
F8
02
F1
0D
F8
EF
FC
07
07
FF
08
07
FA
F5
F9
EA
EE
0E
0D
03
F9
FA
1D
E8
EC
20
F7
F1
FC
F0
05
01
03
14
FB
03
F9
FC
07
EE
08
FF
00
0D
FF
01
F1
FE
14
E5
02
15
FB
08
26
06
FD
F3
11
F2
00
FB
FC
FC
F4
09
FF
E1
07
E1
F2
FE
FD
0A
FA
F8
F6
05
09
F8
00
00
1D
FE
F4
F9
FA
00
0A
E6
F7
0E
FC
FC
03
F7
F8
E5
FB
F4
08
F5
04
17
FD
FD
02
FD
FB
0C
FA
01
F9
FA
05
F2
F6
02
04
F9
0C
12
FF
FA
15
E4
05
09
FE
FB
FC
02
FB
F5
0C
04
EF
F2
F0
05
04
00
00
EA
E8
10
02
F8
F9
FE
11
F3
03
16
09
1C
07
F4
FE
FD
F8
FD
03
F7
F4
0C
EF
05
0E
02
EF
ED
FD
00
FA
09
17
0A
EE
FC
FD
08
07
E5
2B
24
07
02
F5
CA
FC
03
00
DA
FE
F5
1A
F6
FB
E9
02
15
EA
16
0A
FA
1A
E0
07
1F
FB
CE
DF
FA
0C
F7
ED
FC
03
01
08
1B
F9
FF
F7
FF
FB
06
09
ED
ED
F4
17
FD
02
0D
07
DC
F9
E3
0D
17
09
09
00
04
0B
2A
F9
0F
03
08
11
FB
FB
06
FB
EB
03
00
FA
F5
F6
14
FE
17
F8
13
F6
FB
02
F0
01
03
01
E8
0D
F3
F7
03
10
EE
08
06
06
F2
08
FF
08
03
05
03
06
FD
F9
F4
F7
F0
E5
FE
F7
F7
02
EA
12
0A
09
FC
F2
FF
FF
F0
05
F8
04
F7
F7
0B
F5
04
FF
0D
E8
04
F5
11
0B
03
EF
EC
01
E4
FF
0A
0B
E2
F7
08
FC
08
F8
FE
13
0A
E0
01
E2
08
06
FF
0C
0D
F5
FB
09
08
DD
02
07
F8
10
0A
15
FF
FA
09
FC
07
23
FA
18
06
06
F5
18
19
C2
EC
02
FE
0E
0F
FE
07
FC
0E
E4
08
36
05
F8
18
FB
DC
25
E8
FC
FB
E8
EB
0D
DC
F6
EC
FF
0B
12
FF
EF
14
FB
F7
FF
DD
24
FA
08
02
F5
F6
11
16
F0
EC
F9
05
EC
E4
E8
08
03
27
FC
01
FF
05
E8
ED
11
01
FF
00
18
F8
04
FA
EF
E9
E4
08
FD
F6
06
09
F8
F6
19
07
FB
EF
01
FE
02
00
F6
11
11
F9
FC
EE
0C
E4
F7
02
F5
0B
02
FB
FA
09
FE
07
E7
0D
F8
ED
07
E1
FB
0C
F3
01
DE
05
08
F6
F8
02
07
10
07
F9
0A
1C
E2
03
0F
FF
F9
15
FB
0E
06
F9
04
FC
F3
07
E2
10
10
0E
25
FE
08
FF
F5
E8
0F
DF
00
EA
FA
ED
FC
FF
E4
F2
FC
EE
04
E6
20
03
F5
FF
EF
FE
FF
F7
0C
02
E6
F8
F7
00
FF
E8
F8
FE
F7
EB
08
07
01
F8
F7
1B
EE
08
FE
0C
F8
EC
05
03
F3
01
FE
09
F7
05
FA
1A
F8
FE
0D
F8
FB
F6
00
E3
FF
0E
FE
EA
01
16
F7
10
15
F5
10
10
F7
FF
E9
01
FE
05
FE
08
F9
0B
05
E8
07
F1
E6
0C
EF
08
FE
12
0C
EA
0B
05
15
12
01
FB
F7
F5
05
F4
04
FE
17
1C
19
F9
FD
EA
FE
E2
F2
FD
F8
F8
07
FE
08
04
16
ED
FB
EB
CF
F6
01
09
FE
05
0F
02
0B
EF
0E
0F
FC
F6
01
FB
F8
E8
F2
F7
FC
0F
07
FA
04
F6
0B
01
F8
FF
FD
FC
FC
06
F8
FF
0B
1A
F9
0A
01
02
05
0D
00
FA
F6
F6
EB
EF
F3
02
EC
F5
FA
FD
FA
F5
FF
FD
FC
E1
08
F0
FD
F3
FC
06
FF
0C
0D
EE
F8
0D
05
0C
0A
14
09
0C
F6
05
22
FB
EB
F1
FA
0B
19
F4
FA
FB
F7
00
F4
0D
E0
FF
FB
FE
05
E4
1F
2C
00
15
FF
09
FD
F6
03
29
FA
08
F9
E8
FB
EC
06
E1
34
EA
F7
FD
D8
CB
FA
D2
0E
FB
EE
F8
E0
F2
DC
1F
0B
FE
F6
FC
E3
E8
00
E4
FF
E1
FF
02
F2
20
11
09
2D
F1
10
F6
E9
FF
E8
F7
FA
E8
05
CA
FA
F1
02
08
08
FB
05
F3
F6
DB
03
FE
00
2D
04
31
08
EC
05
04
12
1B
05
18
F4
D1
03
03
2A
F2
FF
FD
00
0B
F7
17
1B
E7
DF
FF
1E
ED
FB
E9
06
E4
F8
04
04
F2
07
F6
03
01
F7
F4
F7
0A
F3
01
07
F5
07
F9
06
FC
08
0C
0A
02
FB
05
FC
F1
EA
09
FD
15
05
02
F3
F9
0F
0C
E0
F5
06
02
E3
FC
F6
0A
0F
F1
02
05
06
FE
FB
06
FF
02
E0
F5
02
04
F9
04
FA
EE
0E
06
07
06
FD
02
00
04
F4
05
FD
01
F7
FE
05
13
F7
03
10
FF
05
08
02
06
F2
F8
F8
F7
0D
FC
F4
02
F2
0A
FD
09
01
FA
ED
F3
F5
FC
FD
F9
F4
02
FC
EE
F7
ED
08
0A
F7
06
06
06
13
F2
13
03
07
0D
14
E9
0B
FB
E2
E9
00
FB
03
EE
EF
FA
11
EA
F0
F7
0D
08
02
E3
02
FC
F7
0A
EE
FE
FF
00
F1
EB
19
EE
03
0D
07
0A
01
F2
04
04
06
05
00
D9
F6
03
F4
F7
1E
FE
FB
06
FD
F3
0F
04
02
04
DA
00
0C
FF
02
FE
0C
F6
F7
F6
03
F7
03
02
FE
FF
E3
F8
09
01
FA
F8
FA
06
FA
05
03
15
0A
07
00
0B
00
04
F8
F4
03
FA
EA
F5
17
FA
F8
09
04
11
F6
FA
0F
FF
05
DD
EA
09
00
EB
FB
FD
EE
06
FF
11
FB
05
01
0B
01
18
FD
04
FA
F7
0B
04
16
FF
07
10
04
05
00
FD
04
F1
18
00
08
1A
05
F2
03
FE
03
F7
E5
05
06
F0
F4
00
0A
03
03
F1
FF
F0
FF
F8
01
01
0B
FE
09
E7
02
15
F9
F9
E9
FD
FB
FF
FD
01
06
F8
0A
FB
F9
0C
F1
FC
08
00
F4
F5
03
F1
04
01
FB
08
F8
01
01
0B
18
FF
F8
02
EC
FF
E9
FB
FC
1A
13
1B
FC
01
0D
10
05
09
07
ED
F9
FD
02
06
F9
D4
E1
02
E9
0D
FA
FF
0E
F3
0B
0D
FB
D8
F6
F3
03
F7
F5
FE
FB
1B
04
1D
FC
FD
05
F6
FE
01
F9
06
02
09
D5
F1
15
FB
0A
06
04
EF
03
FC
F7
0C
01
F9
F9
FC
F5
E3
04
FB
DF
12
FF
FC
FB
0D
EF
04
06
0C
FF
E9
FF
FD
0B
F6
FD
FE
10
DD
05
02
07
03
23
0A
06
0A
02
04
01
F3
F6
0E
FC
00
00
FF
FD
02
0F
01
04
F3
01
F7
1D
1F
FD
08
01
08
E2
EE
FF
FA
EB
F5
FC
05
F9
02
11
E9
04
F3
0C
17
08
04
FC
06
00
20
F8
FF
02
02
05
F9
05
00
FB
F8
0B
04
E7
08
00
08
05
14
0B
D5
E7
FF
F3
08
09
E8
FB
F6
1A
FC
F2
FA
01
F8
FA
FB
0E
FF
EA
F2
10
03
FC
03
02
01
01
E8
F3
F8
F9
0D
0A
03
08
F9
FB
D7
1E
DB
01
F6
0B
17
00
ED
F5
07
02
F1
20
19
FF
E2
E7
03
16
01
FD
02
05
1A
F8
FE
E8
1C
E9
F7
0F
FE
EF
F7
07
0C
F7
0C
07
D1
F8
13
E4
09
FF
F1
FC
00
05
19
02
05
05
FD
0B
C5
0A
EA
04
02
0B
0E
02
06
06
0A
DC
FD
02
FD
04
0E
17
03
05
0C
FF
01
F8
EC
FB
EF
05
15
0A
EF
0A
F7
DA
03
01
EE
01
E9
0F
0B
01
00
F9
FD
00
F6
F2
F5
19
08
12
FA
07
EB
FA
F7
00
09
F4
1A
0B
05
FE
14
FA
0C
04
FC
FD
0D
FE
08
F9
13
04
FF
09
09
FC
06
06
07
09
FA
0C
04
F8
06
E5
03
F5
DC
FD
FC
09
14
0D
0A
00
0E
03
EA
F7
06
E6
F7
FD
0B
F9
0D
01
06
05
02
D6
0C
F8
FD
EE
F0
09
FF
16
04
F6
02
FC
F0
04
DC
06
01
03
02
00
F9
F4
18
ED
FD
E7
09
13
08
FB
08
F7
0F
F7
FF
03
D6
F5
E9
FE
1D
1D
22
04
FF
17
06
03
0A
F7
EF
0E
01
08
03
FD
10
05
08
12
F6
0E
FD
0A
EE
FC
FD
FB
E8
0E
08
16
0A
D8
F8
02
04
F9
FB
FA
F6
F8
1B
F5
EE
06
04
00
EF
F7
F1
00
FE
F8
09
09
D0
0A
F5
09
05
F8
FF
03
EA
F9
FF
0C
EE
0E
FE
03
06
FA
FA
FB
F4
EA
E5
F3
EF
F3
FC
F1
0A
0B
FF
03
02
F5
00
F6
13
07
FF
28
F7
02
EE
EB
FB
10
1A
17
FE
ED
FB
04
09
FC
D6
FC
F7
FE
15
02
F7
24
E8
F1
04
FB
05
0E
EF
F4
E3
FA
F5
0C
FE
09
13
09
0A
01
F8
F4
E9
15
FB
02
FA
F5
02
F9
02
FA
05
06
FC
00
0E
0C
15
FB
05
FE
0B
18
FE
F5
04
FE
06
FB
FB
0B
F0
F3
DF
05
05
04
FD
08
FD
07
0A
FB
10
F2
00
FC
F2
03
00
0B
F5
08
16
01
DC
18
F8
0A
FF
02
01
F9
FF
FB
F7
09
F9
04
FF
02
F9
0B
F9
05
F7
22
F4
DF
FD
FB
01
FC
FE
1D
EE
FB
BA
23
F8
1D
F6
FA
FD
16
12
0D
F0
20
F7
EF
F0
F4
F6
08
E6
FE
EB
09
02
00
04
2D
07
06
22
FE
EF
FB
FA
0E
09
E2
DA
EC
E5
FA
0C
E8
F4
EF
DE
21
CC
F8
DD
0E
13
14
F6
FF
FC
E9
0F
F0
FC
29
FD
D9
09
