FA
FA
FC
F9
EE
00
FC
FA
F0
05
0D
02
F6
09
FA
EC
F7
12
11
0C
F9
E6
15
03
04
EA
03
EF
FF
F7
14
FB
FB
03
FB
F6
FB
02
01
07
10
01
0F
F9
F3
08
F7
E0
FA
08
09
00
16
F1
0B
04
F9
E9
FF
F2
F3
08
19
0D
0A
05
F7
F5
FE
FB
FB
FE
FB
07
05
12
FC
F0
05
FA
F3
0B
15
01
02
05
08
08
07
E6
F2
F1
F9
08
E7
0E
F3
11
06
E9
F5
01
F2
03
F0
00
0B
03
0A
EE
FF
F8
F0
FF
04
10
13
F9
FE
0F
03
ED
01
DF
FB
F4
0A
02
01
1D
07
CB
EC
F8
12
F8
07
FF
F2
E7
46
07
EB
0D
20
00
17
EB
0F
E9
F9
06
E3
E1
DE
13
F8
F5
04
C4
02
FC
F2
F5
00
FF
F6
03
F7
07
02
05
E5
F8
05
F2
FA
F7
F4
FD
03
FC
03
03
FF
F9
00
D7
F6
01
F8
1A
00
08
F5
E9
FC
11
F3
FB
E5
FE
FC
FC
F3
EF
FA
F6
FE
F9
00
09
06
E7
FB
03
09
F0
04
F7
00
04
F2
F8
00
11
0D
07
FE
20
FF
EA
EC
19
01
01
BE
FE
06
F8
F8
F1
05
05
F5
EF
F2
24
FE
04
FE
EE
E8
F5
F7
18
03
05
FC
EA
0A
05
01
FB
ED
02
0B
FE
F0
F4
01
F8
FC
FA
F8
03
FE
04
17
0C
FA
EE
09
FC
EE
0F
07
02
FF
05
FD
04
06
FD
FF
F5
E9
07
F8
1C
01
FE
F5
03
0C
FA
FF
03
FC
0C
03
FD
FD
0C
02
0B
08
08
FB
FD
09
10
F7
00
F8
F7
F6
05
03
13
0D
25
07
05
03
F5
F5
05
07
FA
10
06
14
F5
EA
07
EC
FB
00
02
F2
01
FF
F9
00
00
FE
FE
02
06
ED
07
02
22
00
00
F8
05
05
F7
F6
FC
FC
02
FD
F8
F9
04
FA
0A
0D
02
02
FB
07
05
03
0E
FF
0B
14
00
F7
05
01
23
01
02
04
01
FD
0A
05
09
FD
F8
02
06
04
F1
FF
07
10
00
E7
02
12
0A
F9
ED
DF
02
E9
00
48
13
08
E8
EB
02
15
DE
E8
0A
03
18
1A
ED
1C
16
03
EF
F3
E2
E2
E6
0C
0A
08
FB
FA
F5
F8
08
0B
07
F1
0F
00
20
FD
05
FA
F6
FA
0C
0E
04
02
0C
01
07
00
FF
F8
F5
06
03
04
F7
F5
F7
FE
03
09
F3
00
E8
C1
FC
0C
05
F9
F1
FE
04
FF
05
02
F6
EB
FF
FF
FF
FB
0C
08
F1
09
F9
00
F4
FA
17
08
F0
03
0D
F9
F0
DE
01
F7
FE
E6
F7
10
01
09
EC
FB
14
FD
EA
FB
08
01
0B
05
FA
CF
06
F8
D6
F9
FA
F7
FA
07
FA
FF
02
C4
FF
F8
05
FB
FE
FD
07
0B
FB
02
03
F6
FE
FD
F8
F1
05
06
FD
04
03
EA
EE
01
0E
F6
F5
EF
10
FD
F7
0E
F3
F8
FB
08
09
FC
02
FE
FA
07
03
00
F5
FD
F5
0E
0F
F7
F8
FF
F8
0B
03
F7
02
EE
FC
E1
D6
01
05
12
00
08
EB
EC
00
DF
D7
EC
2D
06
FA
26
F2
27
CB
EF
09
1C
FB
06
0A
0F
FD
03
FB
FC
FB
FF
03
01
09
0A
02
FF
FA
0D
14
01
F7
F7
E8
07
FD
09
FC
EB
FE
02
FB
0A
F6
00
FC
F5
19
03
09
E8
06
1D
FD
FA
DF
F0
FA
02
FB
03
01
EC
0A
03
F7
08
FC
09
01
FB
F9
0D
01
DE
05
0B
FE
F4
FA
ED
F7
06
FA
F5
F1
F5
08
D8
14
F4
1E
E2
11
E4
00
F5
FE
04
FE
0D
EF
10
E7
FF
F2
05
F1
EB
00
04
06
EC
E4
E7
EE
EC
01
F5
0A
FE
FE
F4
E9
F9
1A
EA
E0
F9
F7
EA
EC
FA
F5
01
02
07
F6
17
F3
FF
0D
0F
00
FF
12
15
FE
F5
E7
08
DC
F7
03
0B
EF
09
0C
18
10
DE
03
FA
00
EE
F6
FE
19
F1
0B
D4
D8
FD
F4
03
F0
1F
13
17
18
03
49
E3
0B
0F
07
EA
17
00
E3
34
FA
0E
E3
0A
FE
CC
F0
C4
48
2C
EB
CF
1E
E7
05
EE
D9
F9
FA
F9
EB
03
F0
0A
16
09
F1
00
02
0E
EF
22
EB
0D
03
14
FF
F7
00
0E
FC
FC
00
1D
06
0D
09
00
19
FC
EF
F5
05
F9
FA
FD
0A
10
FF
FC
F4
FB
F8
F4
F7
0C
FD
FD
FA
0D
05
FD
EE
FD
00
0D
FA
03
09
02
0A
13
FA
09
FC
09
F7
FE
FB
0C
FC
14
F7
F3
FE
F8
F3
1D
0D
F2
F1
00
11
FE
06
05
01
11
F8
0B
EC
04
08
FB
FA
04
FD
FD
10
03
09
1F
00
FA
F5
F4
F1
0F
09
0C
F9
F5
FC
00
FC
EE
00
06
02
17
FE
01
06
12
07
01
ED
07
F9
09
F8
0A
FB
03
FA
00
FB
FA
F5
0C
01
02
FB
FF
01
02
05
F9
03
05
06
15
FB
08
FB
FA
02
FB
F9
05
0D
12
0C
0F
EB
E7
F3
03
23
EF
09
11
F1
E8
FE
10
1B
11
08
03
10
04
FE
FE
0D
16
15
F9
09
0C
F7
05
03
0A
F1
F7
07
0A
FF
FB
02
FA
0F
FD
06
07
00
FB
F8
FC
00
FF
02
05
03
08
04
19
00
F3
06
0C
F5
06
06
00
FE
FB
0D
05
F9
00
F6
12
F0
07
0D
FC
03
FF
FE
0A
06
FC
0A
04
FF
09
FE
0C
F7
01
F9
03
10
F5
0D
F9
0B
F1
0A
FF
FA
F6
DE
19
01
07
1B
12
EC
05
02
12
EB
FD
FE
F7
EF
F4
15
02
09
05
D8
0B
FA
F2
FD
FA
0A
F9
15
07
FF
FD
EF
0B
00
F2
07
03
06
EF
FD
10
0B
FA
FB
FD
04
0B
FC
12
FE
08
FB
04
10
04
F7
FF
05
0F
FB
07
02
07
12
08
10
05
E6
FA
0A
10
10
15
FB
12
07
01
FB
FC
F9
05
F0
00
08
08
44
F2
FE
09
F5
0E
BF
0B
FF
FD
18
F4
08
F4
07
EA
FC
12
FA
1B
FE
1C
EA
01
0E
BE
06
F9
07
F7
D5
02
03
10
F9
E9
07
08
04
FD
FE
0D
01
01
0D
02
DC
F4
0D
07
0F
0E
04
05
04
07
05
08
FB
1B
0A
0B
FC
F2
F7
02
E0
FB
07
FD
F0
EB
0E
07
F9
FC
F7
06
DC
D9
0A
05
EB
F7
ED
FE
10
03
E8
FF
EA
F9
FB
FE
15
08
24
08
2E
0F
FA
E5
E9
EE
F9
06
EA
C4
11
00
17
EF
F3
F2
00
ED
F4
05
09
0B
ED
DD
EF
E9
03
0A
12
FD
07
F5
D9
F7
0E
F2
FE
E3
F5
FE
FB
FA
F7
F6
E7
E2
0C
FE
F8
14
FB
FE
1E
F5
DE
FB
EE
ED
02
0F
FA
FC
FC
05
E7
E7
08
06
FB
E8
FB
07
FB
06
EB
00
EA
E8
07
0A
07
FF
EC
FA
FD
09
EB
0E
E8
F3
F9
06
0D
ED
EE
0D
DB
F3
18
F5
1B
F7
F2
F9
FC
16
F3
05
ED
E8
08
FA
FF
01
F2
F5
09
14
D6
0E
FA
F8
FA
01
FE
FA
FF
F7
DE
EA
F6
FE
0E
E6
FD
08
EC
04
F6
FE
E8
EB
F8
07
F8
FF
F6
FE
02
02
E1
0D
F7
EF
02
F9
FF
03
0A
03
FC
0E
EE
FB
08
03
FE
07
10
05
FF
08
06
0B
F8
F6
F5
04
FA
F9
FD
FB
08
FA
05
00
FA
08
03
FD
0A
02
FD
08
EB
ED
05
05
EF
FD
F5
F2
FE
08
F5
00
17
F0
EC
F7
FC
02
F9
0A
08
05
FE
F5
0A
03
FD
F2
02
F0
FD
F9
F1
FA
0B
EB
E3
EB
FC
05
0C
07
FA
04
E7
E5
00
FA
F5
FD
09
F6
05
05
06
F8
FB
01
F2
02
07
FB
06
0A
CE
0A
F4
FD
FF
10
04
FE
1E
05
11
12
15
FF
DD
F7
12
12
10
FD
15
09
09
0F
E6
0A
FD
0F
03
0A
F8
10
25
13
0E
1A
FA
F0
07
F0
E7
30
FE
ED
1D
FE
1D
07
FC
02
1B
19
05
F4
08
05
10
FB
0E
EC
F8
EB
F2
F0
EC
F9
FE
EA
19
09
DD
02
21
D1
FA
07
F4
D1
FC
15
F8
00
E7
1F
FF
07
FB
FE
ED
06
EE
FE
09
01
0A
13
EE
02
08
FC
01
FA
0C
08
F6
0D
FF
02
E8
F3
F6
01
FA
FC
FC
06
00
FA
0D
04
00
FF
08
FB
0D
0F
12
01
F8
F4
19
06
F2
FE
01
03
0C
10
FC
0A
16
F4
F8
F1
FC
F4
08
0A
06
FD
FC
F6
05
06
04
F5
FD
03
F0
FF
E3
F5
F5
E7
F2
F2
F4
01
12
F7
FB
FB
E0
D5
FD
04
F8
FA
FA
FF
02
10
FD
FF
02
F9
FC
F3
08
FC
06
E8
0C
FB
0D
F1
FF
03
12
FB
F8
02
02
E9
06
FE
00
04
F2
FA
FE
03
0C
F9
F4
0D
0A
04
F8
DD
0D
29
EE
E3
0A
EE
FA
FA
03
F6
0A
07
05
00
0A
E4
E0
12
01
14
F5
E7
1C
0A
F7
EA
EB
08
14
11
F2
EF
01
10
F2
E7
10
FE
05
F1
0D
06
06
F4
FC
FF
F2
E5
04
E3
ED
19
F7
F6
08
10
FE
FB
F1
05
05
FC
FD
F7
06
01
07
EB
09
FC
02
01
07
07
03
F3
01
04
08
F0
FD
FC
06
05
F0
03
01
FF
08
00
F4
01
05
03
03
E9
0C
E4
E7
F0
FC
C2
E7
04
FA
0A
E4
19
04
FD
0E
06
06
00
07
0E
E7
14
07
06
F2
FE
06
F1
E6
34
E4
F6
15
09
F5
F0
0A
EF
FA
FA
00
05
15
EC
FB
01
F8
E5
0F
0C
FE
0B
F0
FC
15
FB
EF
FC
F4
F4
F8
03
0E
F9
07
FA
FF
FA
02
FB
0B
F2
04
01
FC
EF
0C
09
05
FF
08
04
F0
08
ED
FE
FF
F7
F6
05
12
FD
F5
EB
0D
F8
DD
D6
ED
1C
F8
13
13
EF
F1
05
01
F9
F3
FA
F3
04
00
1A
BA
02
1B
25
09
F1
E0
2C
0E
24
03
DD
23
F4
1F
F3
F8
08
EB
07
06
ED
F3
F4
FD
E7
E2
0C
04
0F
01
13
EF
F2
FF
0D
00
E8
F1
1D
09
15
12
EB
1C
FA
FE
02
03
00
EE
F8
02
FA
02
03
FE
FE
FD
FE
08
06
F4
FD
EB
0D
F4
FD
F7
FA
FC
F3
08
02
02
0E
06
F9
F5
10
01
00
F7
11
05
F6
05
FD
F3
F7
F9
F7
FF
0A
00
F1
EC
F1
F9
EB
0C
FA
FB
1D
FE
04
14
00
03
04
F0
F0
FD
0C
FE
03
F6
EA
FB
FA
01
FA
08
F4
F9
03
EF
FB
FC
04
FC
01
FD
FF
E8
0C
FB
06
FC
FF
0A
DD
FB
08
08
FB
EB
02
0A
F4
FD
FD
02
F6
05
06
FA
12
04
FD
E2
FF
00
F9
11
EF
10
14
DE
07
F4
FF
06
1E
1B
1B
04
00
0E
D0
19
F9
F0
FA
07
1C
F3
09
0D
0A
E7
EB
35
00
F4
F4
0F
0D
0A
EE
0A
06
07
07
F9
F2
10
EB
06
F8
FE
04
04
F0
02
06
FF
22
F7
12
FD
06
FA
04
DA
0B
03
0C
F4
0F
FD
F2
EE
06
0F
FD
F4
F3
02
FC
04
F7
FF
00
FC
0D
01
FE
14
EC
04
03
F2
FF
FB
FD
F7
FF
F2
00
F8
F9
F9
07
F9
05
01
F7
06
ED
0E
F2
FD
F8
E7
04
ED
10
02
02
03
ED
04
FA
FE
FB
FD
EB
E5
04
13
FC
05
F7
FA
06
E4
FA
07
06
0D
FD
09
F7
EF
04
04
FF
FA
FC
03
FF
08
E7
F9
F2
F9
FD
0A
05
F8
0A
FF
01
04
02
01
FF
FC
FC
00
04
04
06
07
10
F0
04
F8
F9
E2
FC
F8
07
FA
FF
FC
13
04
F5
0F
F9
04
F4
F9
0A
01
05
06
01
FD
F0
FF
16
FA
FE
1D
F8
E8
01
14
0A
C3
EE
04
FC
FE
F0
00
06
21
0A
0A
0E
00
E7
ED
F8
09
0F
04
F6
28
F1
02
30
D2
F9
18
FC
E6
02
04
05
F0
00
07
F8
F9
F5
11
FC
FA
FA
FC
0C
FA
03
01
F6
FB
02
01
F8
FC
FA
F1
09
F0
FD
F4
06
00
FC
FE
00
1A
02
02
F7
01
02
F8
08
E8
ED
FF
FE
FB
0A
02
FA
F0
FC
FF
04
F9
F8
04
F6
06
F7
EC
FF
17
0E
F3
EF
33
FA
F0
F8
FA
03
0F
F8
F6
F7
F7
FB
F7
FA
0B
F7
F9
06
17
1D
03
2D
16
FC
10
0A
F8
00
01
F6
02
F9
0B
FD
F4
04
0C
FF
04
04
E4
E8
F5
FA
F5
FA
03
F9
FE
FD
F7
FB
FC
05
FD
F4
06
06
01
02
F1
FB
02
FA
05
08
FD
F4
06
01
02
04
F1
F9
08
FD
04
0D
FF
F8
F3
16
FA
FE
EE
E8
FE
FB
01
01
08
FF
F3
04
F4
FC
07
03
EA
F2
03
0E
04
FC
F9
03
01
FE
08
0E
F3
F5
F1
FF
FD
09
02
FD
0E
F3
05
07
06
F9
E4
EF
FE
00
0A
02
01
FE
FE
02
05
03
EF
F2
0B
01
04
03
FD
FB
F6
0A
FB
F7
EB
E6
F9
F5
09
03
06
0A
12
DF
FB
0E
17
1E
F9
11
F6
FC
F6
F1
12
E8
06
07
06
08
EC
0E
05
02
F3
FE
ED
18
FE
04
01
F5
03
FA
E2
09
09
F3
FC
EE
1B
13
14
F7
E6
18
FB
F5
F0
19
03
EF
20
06
F0
0B
F9
12
01
E0
FD
08
F9
16
00
0C
FE
0B
DE
1D
F4
37
D1
DA
F3
02
1A
FF
03
0D
E6
C7
06
16
FA
FC
EF
E7
0C
00
FD
F5
09
04
F5
FA
F4
FD
EB
E8
0D
FC
FF
09
08
04
00
04
F4
ED
0C
E5
23
0F
0D
FE
E2
0E
1A
02
E2
11
EC
EE
DD
F7
0A
07
05
FF
FE
0B
25
EB
14
BB
1B
29
24
EE
E2
1A
16
12
06
31
F3
DA
2D
F6
F2
30
FB
F6
29
11
F9
01
12
0B
0D
0C
0C
09
DA
26
10
2A
CF
DE
ED
03
20
01
0D
15
E5
C3
FA
02
F8
FF
F4
E6
1C
FC
10
1A
18
F1
EB
0B
F2
03
0A
00
05
0E
FD
2B
11
F8
FE
F9
01
E9
12
00
0D
04
05
FD
E6
0F
04
F0
00
01
EF
FD
F4
FC
01
FC
06
F9
D4
F5
FA
E1
F9
01
08
1E
01
F1
F6
13
F0
F3
F9
0E
F2
F3
12
F1
F7
18
DD
F2
00
E6
EB
10
12
09
05
07
02
01
E2
22
06
3A
D2
E2
F6
FE
1B
00
FB
0B
E4
C6
00
0A
F2
F4
F2
E7
0A
FD
FF
EB
0A
03
F8
0D
FD
12
03
F8
F7
06
08
F0
07
0A
13
01
00
FD
0C
F9
0E
0C
FE
F7
EF
13
02
0C
FA
F9
09
03
F2
12
00
F1
0B
F9
01
F9
0F
F5
00
01
EA
DB
01
0A
FA
11
FE
E9
05
14
07
02
FC
09
03
00
0C
F2
E8
FB
0C
E9
F4
F2
FC
FF
01
01
EB
FA
FE
FD
03
F9
F6
04
FF
06
FB
07
F7
01
FF
F6
F3
04
05
FC
0D
FB
F4
06
01
00
FF
C5
E1
FF
1E
3A
09
2A
0C
0A
11
0B
06
EF
F6
01
D0
DF
06
0C
D0
01
44
E1
FD
E4
3E
0B
B5
17
ED
E8
21
FE
05
03
F4
DF
FC
E3
0A
08
E9
05
F1
F6
19
EA
F7
F9
08
CE
0B
F5
EA
08
F6
F8
C8
0B
0B
EA
F9
0F
F7
F9
FF
0E
07
12
F8
FB
04
04
06
05
F7
12
07
08
FC
05
FD
F6
07
00
01
09
FE
03
FC
FE
FE
01
09
FC
10
09
19
F5
FC
01
1F
02
15
F6
0C
FB
0E
13
FA
F0
09
15
EC
0A
14
14
EB
0C
F3
14
F1
FF
05
FA
0F
02
03
02
09
0A
F7
FD
02
F7
EA
E5
18
0F
FD
EF
0B
DE
05
ED
FE
E8
F4
01
FB
05
F7
02
0E
FB
E3
DE
00
0B
EB
F9
06
02
19
07
FD
00
01
F4
F7
FA
00
FC
02
0E
09
03
F9
FD
00
F9
FB
01
FF
F8
0B
01
03
09
FD
00
07
F7
EE
0B
05
08
E7
06
09
ED
FE
FE
07
FB
08
0A
09
08
FA
FC
FA
06
FE
F1
FD
F7
04
0F
0A
02
F3
08
06
FE
FE
E1
0A
05
E6
FD
01
E6
DD
F0
FE
FC
F4
14
10
02
FD
D9
0A
09
F0
06
EB
FA
FC
09
0A
0D
05
0E
F3
FE
00
01
FC
1C
F1
F7
F3
ED
EC
F6
08
0E
00
05
0F
03
FA
EF
00
09
0E
E7
02
F3
05
FC
0A
09
10
03
10
F5
F6
11
0D
FC
07
EA
FD
09
F8
16
FF
07
13
23
01
F5
00
0E
F5
F7
06
F7
12
ED
01
FF
F4
F7
F5
04
10
FA
03
E4
EC
F8
EF
1D
10
17
EB
ED
F0
11
EA
29
04
07
03
FA
DA
0B
04
24
F3
E1
E8
EE
05
FE
14
F4
E4
0C
FB
26
21
15
11
E9
F9
00
F6
F0
15
F0
0F
ED
FC
09
ED
D6
00
03
02
E4
16
EC
01
0A
03
08
F7
04
1F
FE
ED
FF
04
04
02
FB
FA
F5
0C
01
0B
00
FF
F5
08
03
0B
08
03
0D
FF
08
ED
F7
FE
06
08
0D
FD
04
06
02
04
FF
02
F4
06
F6
07
F8
FE
0D
17
FB
04
01
01
FF
FD
E2
FF
08
F4
01
F5
F6
FD
FA
02
02
FF
03
01
F9
09
00
06
0C
01
FD
F0
FD
F9
F6
0E
00
08
FB
07
04
FE
02
FB
05
09
F9
FF
EA
FB
0D
04
08
00
03
13
FE
10
FE
FD
F5
E6
F7
17
F4
FD
00
F9
F4
FE
09
F5
00
1C
00
04
06
EB
FB
EB
10
07
0F
15
F8
FF
01
FC
D6
0C
0E
FB
03
FF
04
09
00
F3
F0
0B
F5
1B
11
F9
F5
EC
E0
F5
E2
FD
B6
04
18
10
F9
01
FE
07
05
EC
F7
1F
F7
FA
F8
F8
F1
04
F0
CB
F5
02
E5
FF
F7
ED
FA
0D
06
F5
F6
00
F6
03
F3
12
08
F4
F9
04
F9
00
FB
18
16
E9
EF
CC
F3
03
0D
ED
02
ED
06
F5
19
10
20
F5
E4
F7
FF
D6
F8
F9
F8
E3
FF
04
D2
0D
12
F9
E7
04
0B
FD
11
FB
15
EA
E8
DE
D0
F8
F8
07
15
19
0B
D9
E0
D6
FA
0E
E9
06
ED
03
F4
09
F5
1E
03
F8
FF
04
0A
F4
11
F5
EB
EA
0A
DA
DE
FC
00
F3
26
EA
E7
EA
F8
FB
F3
10
F0
ED
EB
25
E4
E4
F4
06
FB
0D
13
F0
EB
EB
DB
24
03
15
23
09
EB
1A
12
16
01
E3
11
F1
09
1F
F4
F4
01
FA
12
E9
05
03
04
FA
FC
EC
EC
D7
D4
27
EB
07
19
27
EF
20
15
EF
1B
21
EA
ED
EA
53
4E
E9
19
1E
23
E9
0D
EE
E1
0B
27
17
22
06
10
05
02
F7
FE
FF
E9
EF
05
2F
20
EC
F4
2B
E2
EF
C7
FE
F5
EA
24
0C
F6
FF
4E
FB
E7
F6
00
E0
FF
0E
F5
03
03
F7
F2
E7
F4
01
2A
01
FD
0C
01
00
0A
F7
E9
03
00
F7
00
EA
F2
F3
F8
F3
FA
F4
E6
EA
05
0D
E2
0E
0C
FB
D4
D0
DB
03
52
ED
F0
F8
E9
21
0E
F5
F5
D7
E1
EA
FD
E1
ED
E9
E4
EE
01
EF
DF
05
FA
03
F3
FE
04
F0
E2
FA
EF
FB
25
EA
F6
0E
FA
07
01
F3
F0
13
DE
FE
07
F3
F2
F0
FB
F1
FB
F5
EA
FC
07
00
F7
F3
00
F4
F5
08
F0
01
FA
FB
03
FC
0F
E6
01
FD
FB
00
06
F2
04
F9
FD
02
00
E6
F4
E9
E6
FA
FF
00
FA
EE
03
EB
1D
0C
01
EC
F0
FE
01
F9
F0
FD
01
02
06
E9
F5
F3
15
E9
0D
04
FE
E3
05
FE
F0
02
EE
FC
FB
F6
F0
EA
F7
02
F9
F8
00
01
FA
00
FB
FB
02
F5
00
FD
F0
05
00
EE
03
FE
01
F2
02
E9
EB
01
07
FB
00
F1
01
F6
03
0A
FF
03
F4
09
F8
F5
02
F1
F6
F4
09
03
01
12
04
0A
03
0D
F6
06
11
0A
F5
03
F8
07
30
D2
03
44
14
30
25
03
AD
2F
1E
0B
FF
F2
EA
36
0C
40
35
0D
DB
36
07
16
1C
18
DD
22
3C
E8
FF
10
05
FF
FE
06
04
13
09
0F
FC
0D
12
F3
0F
EB
0C
05
13
01
34
02
FD
F6
FB
FB
FB
F8
05
11
09
F6
F5
01
04
F9
02
FE
02
14
10
00
00
07
03
02
09
F2
FF
F5
05
06
03
0A
01
04
02
0B
F6
F3
04
00
F1
05
EA
05
FA
ED
07
E3
F2
13
02
2F
0E
08
0C
03
1B
F7
04
BD
E8
14
07
0E
16
0F
0A
0C
16
0A
2E
DC
F3
E6
CA
36
03
FB
06
F1
DE
05
FC
10
F0
FB
0A
FC
13
FA
0A
EE
0A
F5
00
07
08
03
0F
06
11
E6
0F
F4
F0
08
0D
04
04
02
F4
F7
F7
0E
05
F2
F1
09
07
FE
01
05
FD
FD
F5
03
08
FD
06
F6
17
FD
F7
F3
01
F8
FE
03
0E
0A
F2
14
FE
0B
FD
0C
EE
F3
01
01
0A
0E
DF
0C
02
EE
E7
DD
05
F2
0D
ED
0B
11
01
E4
F6
E3
E4
00
0B
06
FF
FD
0D
E7
EC
02
02
FC
EB
FE
0B
01
FB
EE
08
EC
F9
05
FF
08
09
02
0D
0A
0B
FE
FA
EC
F4
05
11
FB
08
00
0C
FD
F9
03
02
FD
FD
08
01
00
08
FB
09
00
F8
FB
06
10
02
07
09
0B
FC
02
FA
03
01
FD
FC
F9
13
1F
F8
09
DD
E9
03
D0
FE
0B
0F
E8
0C
0A
FB
33
E1
11
00
FF
04
DE
10
0F
06
01
C4
CC
DE
F1
02
E0
FD
FE
00
F6
E4
0E
FD
FC
F0
F7
00
FC
F5
06
FD
03
FD
FF
13
FA
0A
FC
05
14
03
F2
FA
EC
EF
FF
F7
EE
F1
03
FE
00
FA
F7
FF
0D
F4
FE
00
06
05
FF
05
07
F0
F9
04
03
02
FD
F7
02
06
10
FD
F4
04
F3
F9
F4
F4
15
F4
FF
22
EB
ED
F4
FB
F2
03
00
02
0C
05
17
ED
DF
FC
FD
09
EA
09
F7
F7
FA
ED
FF
FA
F5
14
E8
FA
0B
FF
00
FD
F2
F8
12
F0
F8
FE
05
FF
EE
06
08
ED
09
ED
FC
09
FA
06
03
FA
FC
E9
FA
00
07
FD
E8
01
08
FF
F8
F9
FC
F1
0A
02
06
FF
F8
F8
01
05
04
F5
F9
F7
00
0A
E6
FE
00
FE
EA
F3
F5
FB
06
0F
FE
FF
F3
F3
0C
0B
F6
13
FE
02
0B
0C
E8
F1
01
F2
01
E9
19
FC
DC
05
1E
17
10
F4
05
1B
F0
F7
FB
04
1D
10
07
04
12
FD
0C
F5
0F
FC
09
09
09
DF
F3
FE
FD
FB
FC
11
05
F5
EF
F9
12
F7
E5
FB
03
EA
F5
0A
0A
05
FF
F9
F9
05
03
FB
0C
F3
01
03
FD
00
FE
04
0A
F5
04
00
0B
04
EF
07
02
00
F3
08
FC
F8
FB
FB
F3
04
06
13
F2
08
17
F9
14
F5
FF
F9
17
FE
F2
0D
F8
00
ED
1B
1C
00
F0
F3
FF
0E
EF
1C
19
F7
FA
04
00
04
09
02
F2
07
00
FE
00
EB
09
0E
FF
04
EC
0C
04
FE
07
F6
0C
02
F5
0E
FB
12
F6
09
EF
ED
FB
02
0A
F8
FF
04
F6
F3
0D
FC
FF
18
03
06
F5
FF
F8
FB
F5
F6
13
FE
00
06
F9
04
14
F9
02
05
E7
00
07
FE
05
12
ED
FE
F8
0B
08
DA
FB
16
1B
08
E9
04
09
EB
F9
07
1E
28
0B
05
F6
19
F9
09
F3
ED
03
E6
10
05
0B
04
04
08
F2
E4
13
FD
01
1D
0C
0A
01
FB
FF
02
F4
EB
0A
15
01
0C
F9
0A
02
F8
EB
FD
EE
EA
F2
0A
FC
F8
04
FB
F0
FB
01
F7
01
FE
FD
FA
F6
05
F1
FB
01
EC
FE
FF
05
17
08
04
0B
F6
03
F7
FF
FC
09
F2
04
0D
F3
F4
0F
0E
F0
1E
FA
E5
07
19
0D
04
19
E8
0A
21
10
11
FD
02
25
FC
F5
FA
0D
06
1E
07
16
03
FF
0F
F6
11
0C
F9
0B
09
F6
09
16
15
0A
F9
FD
09
FE
F0
FA
10
0B
07
F6
F4
F7
07
F2
F5
F1
FE
DF
0D
13
03
FB
00
F7
F7
07
F8
02
17
0A
04
F2
FF
00
01
00
00
11
07
03
10
F5
02
0D
F8
FB
F3
F9
F6
07
07
F6
03
F6
0F
0A
F7
11
08
FF
04
04
08
EE
0B
07
00
EC
03
1F
15
14
02
13
FC
F8
0F
08
FB
14
0C
0C
04
01
04
03
0C
04
F2
03
FF
04
18
04
0C
F6
03
04
03
F5
F4
0A
0F
FE
0C
02
00
04
FF
FE
F8
EE
F9
FE
09
09
01
EF
07
F1
F5
07
FD
F2
FA
02
00
05
EF
F6
F7
EA
EC
0A
05
03
06
FE
0A
05
FD
F4
EE
EC
E9
05
FD
04
FF
DE
EB
E7
F9
06
EE
0B
FE
0C
02
10
FC
EA
FD
E0
E5
19
0A
00
06
F5
0A
0B
03
FE
F7
EB
F4
04
FE
02
FF
FB
F4
E8
ED
12
F5
FB
F7
0F
10
14
F7
F3
F9
E9
F3
F8
11
05
EE
FC
F7
0D
05
F4
F3
F1
F3
EE
F9
F5
FB
F7
00
FC
F2
02
06
01
F6
FD
05
0C
F7
F5
01
F3
F1
0F
05
FF
04
02
FB
05
06
FA
F5
F3
F9
FE
07
08
00
EE
00
FB
0A
EF
09
15
13
04
11
F4
E9
FD
F9
FC
FB
07
E8
11
EE
05
FD
02
0D
1B
28
01
FD
F6
15
0C
F8
01
FF
F1
FD
FE
01
F7
F6
F6
FE
04
FF
F6
04
EA
F6
05
FE
0B
FD
00
04
06
01
EF
08
FA
F0
FB
06
FA
05
1B
FD
F7
FF
01
01
F8
01
FC
FE
12
F7
12
12
F6
00
F2
08
00
0A
08
00
0A
02
F6
E7
F2
EF
F8
FE
FC
05
0B
03
FA
13
F5
17
25
1F
F3
F7
29
13
02
01
D3
0E
D4
FE
0B
0D
0E
F6
FC
E9
0D
35
19
20
05
F3
0F
07
04
04
FB
FA
F6
0A
F4
E7
02
FD
00
0B
FD
00
ED
08
00
E3
0A
13
0E
1C
EF
F4
EE
F1
FB
00
0C
01
06
E7
02
DB
FA
F2
AB
FC
FD
01
D9
0F
F2
05
33
1D
EE
03
13
01
DD
F3
F3
0C
09
CD
10
10
F2
02
DC
0A
0E
00
0F
81
FB
FD
D2
1D
F8
18
DB
00
07
FD
F8
2F
05
FD
3F
42
C9
DF
05
2F
05
02
04
F7
01
15
CF
01
01
F0
15
B8
F0
FF
CE
F6
09
07
B2
EB
F4
1C
03
31
FE
FC
04
0D
EE
F4
F8
15
0B
E1
0D
FC
09
06
28
FE
0D
F2
10
21
F7
05
FA
F2
0F
E1
03
F1
00
F3
F7
F9
EF
0E
CA
DD
11
14
EE
CB
E5
EE
01
06
14
F2
2C
03
07
03
0E
4B
26
F9
0F
DA
01
06
1A
FF
0E
DE
EE
E1
01
FA
FA
05
1A
16
E5
D6
F8
2E
07
F5
03
E0
EF
07
FE
FB
FB
11
F6
03
16
F6
04
E1
F7
F3
FC
FA
10
DF
EF
F1
EB
B3
FF
1A
02
E9
0C
F3
09
0A
F8
E1
FE
04
05
E9
0B
0B
F9
FC
0C
0F
0B
E3
FB
F1
F8
04
F7
F6
F8
01
E6
E5
09
01
17
E0
E4
F0
14
FF
F6
03
1F
F9
0A
E5
FA
32
FA
FC
2F
04
01
0C
15
EE
0E
F8
0C
F1
06
FD
FA
03
EA
04
0D
DA
09
0E
F1
FA
F6
E5
F9
09
F4
02
F9
14
EF
04
15
11
F9
DB
02
F8
F3
0F
0F
EB
FD
03
FB
D3
10
05
0E
EE
FA
FD
FB
FC
06
F4
EA
01
FC
02
F3
01
F5
EB
E3
FE
FA
D7
FD
09
EC
E9
FE
F6
E3
ED
FB
00
FE
0A
FB
03
F5
0A
F9
EC
FF
FD
06
07
F7
00
D5
14
F2
D7
F5
16
21
E8
05
02
F2
ED
12
0B
E4
0F
D9
EB
F7
E8
F2
F5
0F
E5
FF
35
FD
FE
0F
09
F1
EF
02
03
F3
DD
F3
EE
FD
FB
DC
F9
FC
ED
0C
04
EA
E7
F9
FC
06
F5
EE
F1
19
E9
FA
EF
EF
E7
FA
FC
F2
FE
EE
0D
17
ED
0A
FA
0E
F6
0B
00
07
12
11
18
ED
F9
10
09
00
05
05
03
08
05
06
F8
EA
F6
10
03
09
11
E5
F7
2B
EE
0C
0A
40
0A
02
FF
09
42
02
0C
FD
FA
18
0F
F3
02
30
0B
EE
F8
14
20
F4
49
14
E0
06
F6
FF
09
03
E3
08
EC
E9
FB
06
0F
00
01
18
FB
01
F0
F2
F5
FA
16
F1
FC
F3
08
01
05
D4
F0
F5
02
0B
FD
08
03
EA
F5
05
0D
F7
EC
05
01
18
01
F2
00
EC
03
13
00
1E
EF
F5
00
FD
09
02
F1
F8
F6
00
F3
F9
F4
0D
F0
E3
FD
FD
00
07
00
07
17
3C
E3
F8
FA
D1
E4
09
FB
0D
0C
F8
13
FC
F8
0C
FE
D3
DB
FD
0A
08
FC
FE
FF
DB
FE
FB
04
ED
F3
07
0A
03
FA
F7
01
EB
00
08
0B
08
FE
FD
06
E3
0D
05
F1
EF
EA
15
F9
FC
FF
01
00
0B
05
E6
00
FB
F3
F7
FF
FE
F9
FE
07
FE
08
ED
EC
F9
07
03
FE
F4
EF
0A
09
07
FB
F1
F9
FC
EA
0B
15
FF
1E
F6
0B
01
FB
F4
06
FD
0D
F3
05
02
E7
E3
DD
ED
FD
FF
FD
E8
EC
F6
ED
F4
F7
01
05
F9
04
F2
00
14
11
0A
11
0E
F0
F0
F7
05
FE
02
FD
F2
12
F9
CA
00
FB
09
F6
08
F7
F5
14
12
03
14
0B
0B
00
F9
0D
04
FE
EE
EE
01
1F
F1
F3
FD
FA
05
13
06
18
DE
F4
FC
FF
F7
F5
FF
EE
0E
10
02
00
FE
06
EC
F1
FE
09
09
0A
E3
0A
E9
11
FA
18
F9
FB
03
10
FB
01
FF
F0
DA
EC
12
F1
18
E4
19
07
D0
0A
E0
0A
1E
14
11
1C
EF
02
17
27
0F
15
DD
FD
39
27
C0
2D
0C
19
18
38
19
C6
0D
DE
2B
E0
DC
EC
42
0C
FF
F9
E3
FD
FD
FE
F9
0A
EA
FE
01
ED
F0
FD
04
00
02
07
07
0A
EC
E9
02
0B
FE
0C
F2
F5
0B
06
11
FC
0C
03
F1
F8
FB
05
0A
07
EE
16
0D
00
08
00
FB
0B
FE
0D
F9
0A
F1
ED
0E
FE
F7
04
DF
F1
0C
03
05
FA
09
00
F4
09
12
F9
11
12
F8
00
F1
F9
EB
F9
04
EE
0D
E8
0A
01
0D
DC
13
FE
0C
02
04
EA
02
0B
00
02
02
05
0D
F3
03
F9
FE
F7
FF
F3
0B
E6
05
FD
0D
06
F9
0C
07
F1
FB
00
FB
00
FC
0D
04
0A
07
F4
00
0A
F7
F6
FB
EE
0E
F0
07
F3
FD
E8
0B
FF
F5
0E
0E
07
12
09
04
EF
FC
F2
F9
13
F1
F7
FD
D6
01
F9
02
FB
05
0D
06
F9
F8
F3
FC
FE
F6
FB
03
F9
09
09
04
01
F6
05
10
09
F9
FE
FB
01
04
06
FC
09
02
F9
04
0C
0A
F9
09
F2
FD
F3
F9
E0
DF
E2
FB
F1
FD
01
11
F9
05
02
02
F6
FB
00
05
04
F0
12
01
04
FE
0A
E8
FA
F5
21
14
CA
00
31
FD
F4
36
0F
E9
F1
20
05
FD
E6
12
FB
06
FF
07
F0
F4
02
0B
D9
33
05
FE
16
03
E9
0E
1A
EF
FF
02
E1
F9
14
E1
F0
FB
FB
F6
08
02
F7
EB
1D
00
F0
05
12
00
F8
FE
1D
FD
02
0B
FA
01
12
1E
E8
0F
F6
02
EA
09
00
11
01
11
ED
FC
F7
08
0B
FB
06
02
0B
DD
F9
03
10
F2
01
DD
01
FF
0F
1D
09
03
E9
09
0E
05
19
1E
FF
02
E6
0F
FF
10
F4
FC
09
09
ED
02
03
EC
DF
05
F9
F9
F0
06
D8
FB
0F
0A
29
F2
04
03
E6
08
F8
0E
04
F3
FC
FA
F7
FB
02
FB
F8
04
00
16
F9
E6
DE
F5
0E
04
0A
F1
03
0C
07
FB
01
03
FB
FF
F8
F7
13
FE
FA
07
FD
F5
FF
02
00
04
02
00
05
10
F8
0A
FC
0A
EC
F1
F4
05
08
00
F8
F8
FD
12
09
FB
15
FD
E4
0C
D4
BB
F7
16
FD
FD
00
E3
DE
FD
05
EE
1F
17
0E
F8
0C
E6
1A
E5
F2
14
10
10
14
04
29
F2
FF
E8
11
FF
E8
1E
18
FF
D7
FD
EB
05
F7
1C
E9
1F
0B
F9
02
FB
EE
08
F2
15
04
F7
10
18
0F
F5
1F
FE
09
13
F9
F9
04
F8
FB
F7
F2
FB
FF
05
08
10
01
09
1B
FC
F3
00
FE
02
FD
01
FB
FF
F9
01
F3
FB
E9
FC
FC
06
0F
E3
0E
FF
F3
2A
1E
08
ED
05
FF
F0
03
F0
03
C2
04
FD
1F
E0
FB
F7
FA
FE
0C
F9
E3
01
F5
F9
06
0B
EF
B3
09
F9
E8
17
E7
E6
FC
ED
39
ED
1F
06
00
1A
F8
F3
00
0F
0E
04
08
E5
02
04
FE
21
F7
FB
02
05
FF
FE
04
FF
06
FB
F2
0A
04
FE
FF
02
FF
FD
F9
12
FF
F6
FC
02
07
05
F1
FD
FF
FC
02
03
F8
00
FC
06
01
02
F9
05
03
06
FD
09
14
FE
F9
01
0F
F8
FF
F2
0B
F4
F3
00
FC
05
11
FA
06
F7
01
EC
05
22
02
05
FB
F8
05
05
02
07
E9
FE
FE
FD
F9
07
F4
FC
00
11
00
05
05
06
05
07
0A
F9
FE
07
FA
03
FB
0E
05
05
00
FD
08
0B
FD
FA
FA
05
FA
04
FE
0A
FA
00
FB
F7
FA
05
FB
FF
FC
00
FA
F7
00
FF
FC
12
FC
F0
E9
02
1D
0F
06
02
1E
08
0D
02
FA
04
10
F2
03
16
F1
FE
12
05
0F
0A
DD
01
1B
F4
FA
F8
06
11
F0
0C
03
FC
07
07
07
22
03
F3
E7
FE
00
0A
01
06
F0
0C
0C
16
E0
05
FF
10
F5
14
0C
F9
05
00
08
F0
ED
03
06
10
FF
F5
1A
FD
FB
01
F2
F9
0A
FB
02
04
F4
09
05
FE
F8
0A
07
08
08
0C
F8
FB
F2
02
F9
0B
EE
FD
EF
0F
FD
E6
E7
D7
F3
19
19
F4
EC
FD
19
05
13
07
02
EC
04
DA
05
D5
01
00
FF
F5
0D
F8
FD
EF
18
0A
21
D4
EA
2E
26
EE
D5
E7
E7
F0
F5
FF
C8
2D
E4
D6
E6
F3
AF
18
08
1F
15
FB
0C
22
19
CF
24
05
FB
3D
FE
04
FE
FF
F9
FA
FC
F2
F9
02
04
FD
FF
0A
00
FF
F3
0B
02
F2
FE
04
04
FF
ED
0C
00
F4
01
FF
00
F7
0D
16
F3
12
FD
14
0C
09
12
0D
F9
07
F7
F2
FD
F9
09
E2
FD
E9
F6
EC
EB
0D
10
0D
01
FE
01
FA
FD
F8
00
07
EE
F0
08
09
07
08
EF
F6
0B
1A
10
F5
FF
FF
FF
15
05
00
FD
07
0E
08
F8
F3
07
08
EC
10
FB
F8
FA
FF
FE
FE
F7
FD
FC
01
F7
FC
05
FD
FA
0E
FF
01
00
03
01
FF
02
FE
08
07
FD
07
01
F7
FF
07
09
FC
FD
00
EB
FA
01
E6
FD
0E
FA
FF
10
F5
F3
FC
02
F4
F9
0C
0B
F5
08
EF
0F
FB
FD
FD
00
01
FF
06
08
FE
00
0A
FE
F2
FB
F7
F2
FF
F9
F3
03
14
01
04
F7
FC
F0
04
13
06
F8
00
04
0E
FE
04
F7
FB
01
01
06
FC
FB
0E
FC
F6
E1
FE
F4
04
00
FA
00
00
05
0B
01
0A
FD
FF
00
FA
08
F7
FF
03
01
FD
FE
F5
F9
04
01
FA
EE
E9
0C
F5
04
0D
0D
1D
07
F5
F6
FB
F2
EC
F6
DB
F8
00
F4
E6
08
2B
F3
0A
FD
19
31
E9
09
09
E0
2D
FC
03
F6
F1
F1
F5
F2
FC
FA
FF
0B
00
FB
F1
0E
F7
FD
F6
FA
0D
01
01
FF
FE
09
02
17
FA
F2
F7
06
10
F3
FF
FE
F9
F6
FC
F5
F8
FA
F3
FC
01
07
04
FE
02
EA
F6
FB
FE
06
F6
02
05
FE
06
F3
E7
FE
FF
0C
F7
FF
1B
12
01
EA
0D
E1
F2
EB
00
01
03
F5
07
06
12
F1
FF
EF
08
F7
F0
F9
1A
0E
08
E8
F3
E3
FE
17
D8
F3
06
00
0B
ED
FC
FB
F4
EB
0F
13
FF
FB
09
FB
0E
F6
F5
10
FC
10
FC
08
F5
17
08
F8
EC
F4
02
08
EA
FE
01
FA
02
01
02
FA
07
03
FE
0A
06
F8
02
FF
F6
EA
F8
F9
F8
09
04
FB
FB
FA
08
F8
02
05
FB
FD
F8
05
15
FE
01
0B
0F
03
F8
F7
EE
F4
FA
0D
FD
F5
05
EA
F0
0B
0B
17
0A
00
E0
FF
12
F3
EE
FC
19
02
FB
EC
E7
EF
FE
DD
03
11
04
DF
2C
FF
FA
F6
20
D2
01
1A
F6
E9
02
13
F1
F6
00
14
E6
1F
19
FF
EC
07
04
FE
0A
05
0E
E6
EB
0C
EC
0E
E9
FC
03
FE
06
0B
15
25
F3
FD
FA
05
F9
00
02
01
02
ED
09
EB
01
08
07
01
06
0C
18
E9
EF
04
01
E0
FA
ED
0D
0A
01
FB
24
06
0C
ED
F8
F9
ED
04
0F
05
FF
FB
0A
F1
00
0A
F3
2D
D8
0A
E6
30
EC
E5
22
07
F0
15
E8
1D
D9
15
D0
D5
F4
14
00
F7
0E
0A
F2
08
2B
2D
E7
2A
18
EE
42
FD
FF
12
03
F3
F4
FC
01
12
FB
FD
03
FF
00
0D
ED
03
F7
EC
FF
FA
F9
F9
FE
F9
05
F6
F9
05
03
FD
FA
FE
06
FA
01
FC
EC
01
EA
FF
03
05
FC
07
13
06
10
F2
12
EF
E5
EC
ED
03
13
FB
FC
EB
DC
F1
F2
FE
FA
01
19
0A
09
01
03
00
05
03
EB
08
06
F8
F7
03
F9
0E
0A
0D
00
F0
F9
F5
08
EB
08
FD
0B
EC
FC
F7
F6
FF
FD
0B
03
EE
F8
07
10
0D
F6
FE
FA
02
F4
10
F5
17
05
FD
07
F6
04
F2
07
08
FF
0C
09
EF
11
04
09
FC
0A
04
F7
F2
F9
02
02
15
E6
10
F7
00
E9
16
EA
02
FE
FB
01
DF
07
F0
1B
03
FC
08
F3
F4
00
05
F3
02
14
16
FB
0B
F1
F3
FA
05
FE
FD
F0
02
FA
0E
F9
ED
03
EE
FE
F2
04
FC
1E
0B
FE
F1
F4
FC
00
F9
F9
FB
D5
F3
F8
22
03
0F
27
04
FE
F3
05
00
F0
E9
CB
00
04
02
07
FF
19
FB
FD
F4
43
33
09
18
FC
FC
20
07
07
FD
FB
02
E9
F8
04
DA
EF
FF
0F
0D
F9
EC
FA
FF
F8
F4
06
FA
04
FC
EC
FD
0A
02
FC
FD
F9
02
00
E5
26
F2
10
E3
F1
F3
CB
E7
FB
FF
D9
F2
2A
FF
22
11
03
F2
FE
06
DE
FA
F0
FC
DA
BE
01
DA
F7
FE
EB
0A
FE
EF
12
07
FC
0F
0D
06
03
F9
0B
0D
01
ED
EC
06
F4
04
01
0B
F7
09
F5
0F
FB
0C
12
03
03
F4
04
02
EB
03
E0
00
03
F8
04
F8
02
F7
EA
0D
16
EB
02
05
F7
FC
02
08
0E
0C
E7
F2
FA
00
04
EF
08
FB
F4
F9
03
02
E9
F7
04
F7
EF
EE
F4
F1
E1
EF
13
06
03
EF
F8
10
F3
FA
00
02
FD
F7
0F
EE
E2
F0
07
08
F3
00
14
F9
E9
FD
30
05
F0
1A
FC
03
07
0B
FF
FC
E1
F6
0C
00
0D
0B
F7
0B
11
FC
F5
14
E7
E5
0F
08
0B
1C
27
DE
E1
08
57
17
DD
EC
20
36
2C
12
DF
EA
CA
F2
37
4C
0D
12
F7
27
13
2B
E2
F2
E6
D4
05
0D
1A
07
22
01
D9
EC
08
FE
06
18
28
0B
00
03
FA
00
E0
FB
18
12
04
15
F4
13
F9
1A
FC
08
E2
D6
08
01
05
EC
16
F9
06
0A
D7
08
D9
07
F5
F1
02
F2
F7
0A
0A
07
F4
F7
05
03
F9
ED
09
07
06
1F
02
FD
F1
02
FA
CF
19
FD
23
13
C4
04
CC
F1
DF
E4
01
F6
19
08
18
2B
F3
E9
25
08
FA
E1
F4
13
17
1A
1A
41
05
ED
EF
E1
15
01
03
09
E3
07
E3
1C
E6
EE
FF
F3
0E
09
04
FF
06
D5
0E
00
F0
EB
E9
FB
F9
17
F8
10
01
FD
F0
06
EE
06
E9
03
F8
FF
F9
E7
02
03
EC
F5
E7
02
08
03
E5
06
E6
FD
FE
F8
F3
01
FE
FB
02
FF
02
06
02
E9
F1
09
06
10
DE
E6
E0
F4
F9
F2
E7
E8
0D
05
09
16
C3
D3
DE
EF
E4
FE
02
CB
0C
05
FF
19
11
F2
E0
0E
EF
F0
F5
01
1C
ED
FD
05
04
EC
F4
EA
F9
F8
FC
00
F6
F1
F7
06
02
F9
0C
D6
02
F1
FF
F8
F8
0F
EF
05
09
FB
FF
F2
0B
08
10
F5
02
FF
10
FD
FE
F7
EB
FB
06
05
07
02
FB
06
FB
00
F9
07
03
FA
03
FD
01
02
10
11
08
E2
12
18
F2
E6
06
FE
21
F7
FE
FB
09
0D
F7
F6
01
E8
F5
F5
0F
0D
F5
00
10
F5
00
23
F8
00
0E
05
F8
F7
FD
06
0D
F9
FD
03
07
FB
FB
01
E6
FB
FE
08
FD
02
FD
FD
F8
06
05
08
03
FA
00
07
FC
04
06
05
F0
F3
04
F6
00
08
00
07
FF
01
F4
FD
E6
03
FC
04
09
15
FF
F8
01
0A
04
0A
01
EF
04
FC
0A
12
FD
F7
EE
F2
FA
08
12
06
E6
FC
FF
17
FB
F6
E6
10
07
0E
0A
0D
0A
FE
E8
EF
11
FB
EF
06
FA
E3
22
F2
06
01
F0
EB
02
F0
05
01
FC
0B
FA
09
F8
09
E9
0C
00
F0
FF
09
01
01
FC
03
0A
FD
03
ED
05
0D
09
04
FE
02
FD
F3
FD
FF
ED
E6
FD
08
F2
EB
FC
FF
01
E2
03
08
ED
F8
00
0A
0F
04
FA
02
F0
EE
FA
12
06
F8
21
F7
39
F9
F3
F1
CE
DB
00
05
D4
DE
0D
FC
21
E2
FF
FA
E8
FD
F4
F9
0B
04
0E
CF
DF
D7
00
17
E7
03
FD
F4
04
F3
0A
F5
03
E8
EF
F6
F0
F3
03
F8
EF
FA
FF
01
F0
03
03
F2
0F
F8
00
01
F8
ED
FD
07
00
02
00
FE
04
0B
07
06
F9
F0
01
05
F6
FE
FB
FC
05
09
07
05
04
02
01
05
08
03
04
01
0B
04
02
FC
00
00
00
00
03
01
03
01
01
02
05
03
F7
00
00
03
00
00
0A
06
0B
02
07
03
04
0A
FD
0A
06
02
F5
F7
0B
FE
02
FA
03
10
00
07
FA
ED
07
03
FB
00
FA
02
02
05
FD
0A
04
FB
00
FD
FE
04
04
02
08
03
FB
FE
FB
05
F8
00
0D
05
08
0D
01
FB
06
07
01
0A
FA
FD
0D
0A
09
0B
00
FC
FA
03
04
04
0C
FD
06
0A
FC
02
01
F3
FE
07
FE
F2
FE
EB
08
23
01
04
FE
01
FD
09
FA
FA
FC
F8
FE
01
F6
00
02
F4
F4
07
F9
F3
01
02
02
08
FD
00
07
0A
07
FE
08
F9
06
03
FE
FD
02
02
04
08
FA
FD
00
01
08
00
02
FE
06
07
0A
05
00
00
01
06
F8
FE
09
06
0B
04
04
EA
03
00
FD
05
FE
F7
07
0A
06
07
08
02
05
03
03
02
06
FC
08
09
03
FA
FB
05
FB
02
FB
06
0A
FF
01
FB
0D
0B
03
F8
FB
01
FE
FF
05
07
F9
FE
0B
07
04
01
06
0C
FA
FC
F6
00
0A
02
03
FD
05
04
07
02
06
EE
05
07
FD
08
F8
04
04
04
FF
11
FC
F9
03
FD
FE
07
02
F8
07
05
FB
FF
FE
FD
01
06
05
05
E4
FB
F5
0B
F6
F4
08
FC
02
12
09
0B
DF
E6
F3
FD
FF
01
FE
F3
02
0A
0F
FA
03
03
F7
FB
06
FE
07
07
F3
F9
03
02
E2
F1
F4
0A
12
FE
FE
FF
E5
DE
F9
F9
E7
F6
02
E6
04
FF
01
03
F8
EF
F6
0A
08
F1
01
14
09
F5
F9
00
E7
F5
02
04
FC
FE
08
FF
00
03
01
F9
06
0C
20
F0
FB
06
0A
0B
F3
E8
F9
04
FE
21
FA
15
F2
F6
06
3C
02
FE
01
02
EF
16
07
08
E9
E1
01
03
0D
02
FD
F5
FE
09
09
FA
13
0C
FF
FD
01
06
F5
0A
16
01
0C
03
0A
E6
05
08
FD
E8
0E
0D
DB
F7
1E
2E
FE
F1
E6
E9
01
04
1D
F8
2C
06
08
19
DA
B8
36
03
2D
16
F0
EC
37
16
02
E4
09
B3
1B
1D
0D
0F
0E
24
23
2C
CD
2F
FD
08
04
1B
CD
FA
0D
F2
FC
09
08
05
DB
F9
F3
1B
EC
F8
0F
FB
01
13
03
06
EF
E0
F8
F4
01
07
00
ED
03
0C
FB
F1
FA
FA
FD
EE
FF
01
02
0A
ED
FA
FF
FC
EF
EA
04
0E
12
06
07
01
F0
E1
04
EA
F7
F7
00
DB
06
0F
FD
F9
06
FA
03
FF
EA
F7
FE
02
FF
08
08
14
F9
EC
F7
10
E9
FD
07
08
FD
0F
01
F4
0F
07
0F
FD
EE
0A
08
12
FF
FA
EF
F9
07
F1
FB
0B
0F
FC
02
F2
06
F6
03
01
00
06
0E
F0
E7
FD
F9
0A
07
F7
F4
FC
06
ED
EE
0A
06
FC
F2
EF
FA
21
06
07
FF
10
F5
F4
0F
F9
FB
01
08
F6
14
04
E9
F6
F8
11
FD
E7
0D
E7
FB
0E
04
02
F9
01
FE
F5
F6
FC
F8
04
FB
F1
FB
E9
FC
03
F4
04
F7
04
08
FA
F9
E9
F3
0D
08
FD
FC
09
08
FD
FA
05
0B
01
F0
00
F4
FC
0E
06
06
06
04
F0
0F
FD
FE
ED
F5
FC
FD
F2
09
01
DC
02
F4
0B
1B
ED
EB
FE
EC
FB
FD
F6
0C
11
F5
0E
29
11
FB
CC
11
FD
0D
22
F9
E7
0A
0E
11
FF
ED
10
1A
EC
F3
F6
0D
06
16
0D
FF
1E
F0
06
41
EA
07
F9
F5
FF
F8
F5
0F
04
F1
FE
03
FE
05
FD
06
09
FD
F0
EC
03
01
00
05
F5
EA
FB
01
FF
1A
16
EC
01
0F
F5
FD
F6
05
00
01
FA
04
F9
11
FF
09
FC
09
FE
09
F3
FE
05
F7
0B
00
03
FF
F8
EA
F8
03
F9
F4
DC
19
EB
ED
FB
03
04
09
10
06
02
13
0A
0F
03
01
FA
F7
01
E6
1D
EF
F7
F4
F0
FA
1A
F8
F1
0A
00
F2
FC
09
F1
FD
FF
FE
FC
0A
00
00
05
10
02
FC
03
09
FF
01
F6
F2
01
01
09
F3
13
00
FF
F8
02
18
FF
F6
01
04
FD
08
01
16
01
F9
FD
04
05
F0
02
FC
F4
03
02
FF
0A
0D
FA
12
03
0A
FC
FF
FF
09
0C
08
05
FC
28
F4
F2
11
2E
36
22
F0
D2
24
1F
05
02
E7
F0
10
20
24
2B
15
ED
27
17
14
15
11
22
20
1E
F0
FF
01
06
F9
0A
0A
1A
0D
0D
00
FB
26
1A
FF
0C
F6
0B
06
0D
00
28
07
F7
04
06
06
05
01
0A
08
08
F8
01
10
ED
06
FD
F8
F3
F7
F7
FE
F7
01
02
FE
03
F2
FF
FC
E3
04
01
FE
00
F4
FD
FE
FE
02
EE
F6
F3
F2
03
0B
03
F3
F9
14
F7
EB
F8
09
E7
FA
FD
0E
17
06
FC
F0
06
09
05
0B
00
1D
FA
06
03
FA
F1
0C
19
01
EE
F6
FA
00
FF
0D
F3
F9
FA
FC
F3
F7
0C
03
0A
FD
F9
01
F7
03
00
04
05
FD
FE
F9
02
F7
FD
FC
0D
FC
FD
05
FB
02
FE
EE
F1
F4
F6
F2
2B
F9
01
09
FE
02
03
FD
EF
FF
F7
F6
FD
EA
F5
FA
01
F9
FC
E6
F4
00
0C
01
D7
0D
0B
E2
ED
DD
E1
FC
59
F7
F4
ED
ED
0A
0C
E5
F2
DC
D2
EF
FF
DF
F2
FB
EE
F4
0F
D9
CD
05
09
FA
FA
FB
00
E4
F8
FB
EC
FB
2C
EC
F2
07
F8
09
FF
FB
EF
06
DF
01
00
F8
03
FD
FA
F1
03
E5
E5
0B
0A
FB
03
FC
F8
FA
FD
06
F5
FA
14
09
07
F2
00
03
FB
F8
F6
08
04
05
02
FD
10
10
FE
F6
FF
F3
F5
02
FE
FD
F8
EE
06
FA
0D
2E
0B
FF
14
1D
02
F9
06
EB
FE
F1
08
0E
17
00
F1
16
F8
04
10
00
F7
F9
F6
04
02
06
FC
00
F7
F0
F5
0B
F9
00
1D
15
12
F5
FB
F3
03
EB
01
FA
00
FF
02
FD
0F
FC
08
EE
F7
FF
EF
00
00
FF
02
FF
0C
F8
01
04
03
F7
05
FC
06
F6
F8
F0
04
01
F7
15
F6
07
FB
1A
05
09
03
FE
0D
F7
F9
00
FB
03
1C
FE
01
08
00
05
08
F7
EE
FC
ED
16
FA
E4
0E
FF
21
E0
FC
11
E8
1A
EF
FC
FE
0C
0A
18
FF
1C
FE
05
03
0B
DC
F3
F9
F9
17
0B
0A
FB
0E
FC
05
EA
FE
FB
00
14
22
F8
00
07
0F
F3
FF
F1
EF
09
04
0B
07
01
06
FE
03
FE
F5
06
FB
07
10
00
FF
F8
F4
00
00
F3
F0
FC
F9
08
04
FE
FF
05
02
F8
FC
FA
F7
03
01
F8
09
F1
FA
11
F4
05
0C
EA
0C
FD
04
EF
FF
01
04
FD
06
19
F4
02
F1
12
0F
F2
0B
00
FE
FC
02
01
FD
F9
FC
F9
00
05
FA
0A
FC
FB
17
08
02
FA
F6
FF
0A
F6
F3
F5
FD
F3
0F
03
0E
F8
0D
03
F2
F8
F7
04
0F
04
F8
FB
04
FF
F6
06
05
FF
09
01
03
F9
FB
FE
07
FF
FB
FE
07
F2
FE
F7
01
FB
06
F7
FA
EF
F8
0C
F4
07
F3
FB
17
FE
FF
08
03
F8
14
02
04
E7
01
F3
11
FE
F8
F9
F6
00
01
00
02
04
FF
FC
02
EE
FB
0A
F4
15
FB
04
F8
F9
F4
06
0A
02
0C
19
FD
F9
FB
FE
FB
03
05
FE
FA
F3
03
FD
FB
07
02
00
FD
0A
01
F2
16
F2
02
FD
03
01
03
08
00
03
0C
0B
F8
E8
02
F0
F6
FD
EC
FE
F6
0D
14
01
F6
FB
FD
02
EF
0D
05
0D
EB
F4
1C
E8
FA
E2
EE
D8
08
04
E6
F5
0A
0E
01
04
F1
0F
04
20
23
FA
F6
06
1C
08
F9
F4
F5
FA
0E
F1
01
18
F8
00
18
F2
E5
09
03
11
FD
1B
FD
05
1C
FD
F2
05
14
FB
06
07
F7
02
FF
05
03
FB
02
FF
03
E7
1A
D5
FA
06
F2
F6
07
FC
0B
F4
0A
FF
03
FB
07
04
FA
15
F7
F5
02
00
09
0C
09
F4
FF
00
00
FF
08
02
19
0B
1E
0F
21
2D
07
3C
E8
15
13
2B
FD
07
BA
F2
F9
D5
FC
D3
EA
33
F5
EC
BE
2D
11
2F
07
0D
DE
01
F5
E2
F6
F6
EC
DB
02
F4
0E
03
03
08
05
F2
1D
FD
0A
FE
12
FC
04
01
05
04
14
F5
05
E4
16
05
07
0A
FA
1D
0F
00
09
00
EE
FA
FE
FF
06
F4
01
01
02
F0
0B
08
F8
01
FA
F4
FE
FE
FA
05
0E
FE
F8
00
FA
0A
04
01
FB
F2
01
F2
F7
F3
F4
02
17
F7
06
F2
FE
F6
09
F9
E4
03
00
FB
FB
F3
00
06
04
03
03
F4
01
FB
ED
01
F4
09
EE
FB
F1
02
04
0D
0A
FB
F6
FA
00
0D
F6
FE
00
10
12
F6
F4
F6
02
06
F7
EF
FC
F2
F7
01
07
FE
F8
07
E8
07
03
03
00
FD
0F
FA
F7
02
FC
02
E8
01
F8
ED
FF
F0
14
0E
F2
FD
06
FE
F0
00
01
F1
E1
06
1D
F4
0C
FE
CD
FB
0C
FD
E9
15
0C
F9
F3
0E
F9
00
17
FB
EC
00
F5
F4
10
10
06
F0
12
15
FA
E6
46
F1
0A
0C
18
E7
FE
E2
F7
FE
01
F4
0C
FC
1F
ED
16
09
D8
FF
17
F5
F1
05
FF
04
F7
0A
EA
ED
03
0C
D3
1E
EA
0F
0C
F7
07
EB
02
E1
F8
FD
16
FF
F6
09
0E
12
EB
0D
01
EA
EA
11
0D
14
05
10
F3
E6
F7
F4
0C
0A
14
EA
F6
E7
EE
28
0E
49
09
F8
E5
17
15
E0
0E
DC
31
08
1B
1F
16
00
0F
EA
F5
D7
19
35
0C
12
E0
03
06
13
09
17
05
11
E7
D7
EC
27
11
FD
CD
1A
DA
10
E5
E3
E2
FD
1C
00
F5
F6
1E
1A
EA
E5
ED
E9
12
FC
03
F3
0D
F7
02
EC
04
09
F0
F3
ED
FF
F6
17
FC
E7
05
F4
FF
F3
07
F2
0B
E4
FB
FA
01
FF
F3
F5
F4
05
01
FF
FC
0A
F6
E2
FE
06
FF
E1
EA
FA
02
29
03
0B
1E
E8
DC
FC
05
08
EA
E6
FA
02
04
13
04
0F
07
12
0F
06
02
FA
02
11
0E
FC
F8
F5
1D
04
FC
E2
FF
F1
F1
EC
19
F8
EC
09
16
F7
00
00
EA
FA
FB
F7
0A
F4
F0
05
0E
FC
FE
E9
F7
08
F5
EA
F7
F5
05
03
11
FE
EF
FD
01
E7
03
F1
F3
F1
07
07
00
F0
F7
EF
F6
F9
DD
12
0A
F5
F6
CB
CF
11
0C
D1
E7
DC
05
30
24
02
06
E5
D6
E2
0A
FA
CE
09
DD
15
15
F6
F7
19
02
F9
10
1B
16
18
FE
3A
17
07
DE
E6
1E
26
F6
BC
03
FF
F2
0D
40
0E
D4
0E
02
2A
10
E1
E2
0A
03
CD
0A
FC
06
EF
05
FC
FA
F1
04
F8
F4
E7
EF
03
07
10
FD
EB
F7
F4
F7
F5
07
04
FD
E0
09
FE
F9
FB
04
FF
00
F4
00
0E
08
0A
0B
EA
03
FB
0A
F2
E6
FA
0A
17
02
FF
0F
E1
F2
F2
00
09
F3
F1
E2
15
04
01
0B
0F
0C
FA
06
17
00
FA
FC
0D
FE
00
F0
F9
11
0B
FB
EB
07
F4
FF
F6
0A
04
FF
03
06
FA
FC
EC
FB
FB
FF
E3
FA
F4
0B
F2
0E
F8
0D
FD
03
18
F9
08
09
FC
F9
FB
0D
F3
04
F6
F7
FD
F0
FB
F9
11
F5
F2
0A
F4
E9
00
0A
FE
06
F6
01
F7
07
EB
00
22
01
05
07
07
0D
FE
07
F5
1B
07
EE
ED
F4
FB
FE
15
FA
FC
17
09
01
0A
1A
10
00
E5
07
F8
08
FE
04
09
02
F2
F9
05
EB
09
F0
F2
01
EE
F8
00
07
FB
05
01
EF
EE
18
F8
EE
FC
F6
06
01
13
0A
F7
FE
08
00
08
0E
FB
05
00
06
03
10
F3
FA
EC
06
06
00
01
EC
01
FC
04
FF
FA
E6
FC
FC
F8
E5
1F
EF
F7
06
F6
01
24
10
DB
F2
15
15
F1
07
EE
FD
F8
FB
F5
15
1D
07
FD
F1
13
08
EC
10
13
1E
06
FF
FF
05
F9
F5
FC
F2
01
01
0B
19
F8
FB
FC
EB
ED
F1
0A
FB
FD
10
FF
2B
E5
19
EA
03
E2
F6
F8
F3
06
0F
20
09
F2
FC
ED
00
DC
F6
FB
07
FC
F4
00
09
00
FC
FD
FD
F5
E6
FD
FF
09
F8
06
F1
F4
EC
F7
F2
F3
08
1F
FA
0E
08
0A
FC
E8
F1
ED
F5
FF
02
FF
F8
2A
1D
F9
F3
06
0B
F9
FE
07
FD
12
E2
24
EF
13
F0
F7
F8
0D
03
F7
F2
FF
FB
CF
F9
11
05
F4
E1
09
DC
12
ED
F4
01
00
15
F8
04
F2
0B
11
E6
EB
ED
F0
F8
EB
03
03
F5
02
01
FA
01
FE
FC
07
01
15
FF
FE
F7
F6
00
0D
FD
05
FB
01
04
08
00
F7
06
05
FC
01
FA
01
0A
07
0D
0C
07
0D
13
01
00
FC
FE
1C
04
FB
00
0C
F8
F5
01
0B
FB
18
F1
F4
08
FE
FE
06
07
0B
FB
07
FF
FA
FC
06
06
0B
0B
F9
E6
05
0A
07
FC
FC
FB
FA
0C
03
FD
04
FC
FD
F8
03
09
FB
0B
07
FC
FA
FA
06
03
FC
FD
02
06
F8
00
FF
FF
01
F7
0C
FB
FD
FE
F7
00
02
FE
FE
02
06
06
01
FE
07
09
F1
FA
06
01
FF
E6
11
05
04
0D
EE
01
02
34
F5
FA
EA
00
0D
0A
02
F6
E2
F3
FC
06
08
F0
E5
F3
F8
07
F0
F8
1D
07
05
F8
FA
E9
F2
F7
F4
08
F4
EE
F8
FF
E8
1B
0B
EF
09
15
1E
CF
FF
18
FE
07
EE
F3
E2
00
1E
03
FE
06
E5
04
F9
F6
FF
02
08
FD
06
F4
07
FC
07
06
FF
FA
FB
FF
02
02
0A
FA
02
03
01
00
F7
FF
0B
FF
07
FA
FC
14
0B
F9
14
FD
00
0C
FF
F7
01
FD
07
10
FE
02
06
10
F9
0A
09
02
FD
F5
EF
FF
FB
ED
0D
0B
07
FE
F8
13
E2
F3
0B
02
0F
F4
EF
DF
0C
03
02
E3
0B
EC
F5
F4
01
EA
FD
0A
0A
FA
0E
0B
0C
FF
F0
08
F5
04
F7
07
09
E7
07
00
05
04
05
FA
11
F9
0A
FF
FB
E6
F5
F5
03
01
0C
F2
02
0A
09
F9
0A
F8
FE
11
F6
FD
07
F3
01
08
03
0A
E1
F6
11
FC
02
F2
F6
06
1C
09
F2
15
DE
EB
FE
FD
F8
ED
FE
EB
00
00
0A
F6
05
F8
03
01
00
FF
FD
FB
F5
FC
0A
F1
D4
E9
FE
FF
0F
11
FE
02
FE
E6
FC
FA
F8
F6
01
EB
FB
03
02
F5
04
FA
FF
20
0E
B5
11
06
1A
1E
F5
E8
21
FA
21
10
00
B5
0F
07
17
17
0E
23
13
2E
DD
09
DC
DA
28
10
F4
0B
F7
ED
F1
0F
FA
09
E3
F2
F8
05
22
1B
E5
05
10
F9
F5
00
F2
F3
E5
21
06
E0
F4
F9
13
0F
E9
FD
0E
0A
18
EE
F2
28
FF
F5
FB
EC
0E
0B
E2
E5
EF
06
07
15
FF
07
F7
E4
F4
0D
FB
E2
FC
DF
0A
0E
F3
08
0D
02
F1
0B
18
F7
0E
02
07
05
05
FB
07
F6
0A
FE
EE
F6
05
0B
FC
FB
07
FB
09
FA
05
FE
EE
F2
0B
10
FC
03
0E
F3
1A
08
F8
05
DE
EF
EC
06
ED
FF
EF
F2
0A
00
00
02
DC
E9
F2
14
FF
EF
F6
E6
0C
0F
F9
08
17
0D
00
04
FE
12
FD
01
EE
EF
02
FD
DE
E9
FD
F8
03
0B
F9
02
F7
D0
F4
FA
FA
F3
05
DC
FF
08
FA
04
03
00
ED
EF
FE
03
FF
E6
F0
FD
0E
01
04
F8
00
FB
0A
02
F5
FA
FD
F7
F7
09
ED
06
01
FE
02
F4
FD
06
0C
F6
0A
EC
00
0A
F1
E7
E9
F3
02
0C
F5
F7
FD
02
0C
01
EE
F0
00
EE
FF
F7
F7
F3
E9
F9
FE
FE
EC
E4
0B
01
05
FC
09
00
F3
2D
05
0D
F8
0E
02
03
FB
04
F5
F5
01
14
F9
FB
10
F8
F8
1C
02
01
08
0C
03
E4
04
0D
0A
D8
F4
FF
E5
D9
0A
DD
F8
0F
FE
02
09
FD
F6
12
EA
BE
0F
06
EC
01
C2
F5
03
0B
CE
F4
B6
DC
E7
09
03
F1
10
02
D2
EA
F8
DD
03
EB
F3
F4
02
DB
05
0B
F0
EC
00
ED
F8
ED
0C
ED
F0
01
DF
10
E2
C7
14
09
F2
18
08
01
32
4D
16
3C
00
DB
11
22
00
22
FF
09
3D
55
FF
3F
11
C1
27
15
DE
11
54
F7
5F
64
04
F8
04
F9
F0
00
D7
06
FE
FA
F6
FD
FA
FA
05
F4
FF
03
F3
05
F5
01
F0
05
E8
FA
FE
06
FF
FF
E8
F4
FB
FA
FA
F7
11
F7
CF
F8
F0
F1
03
FE
F3
EF
E7
E8
0B
FD
FE
F7
02
EF
F9
0F
F2
F6
ED
FB
FF
F9
EA
CB
11
09
F6
02
F1
01
43
00
06
0A
17
06
F6
1E
F9
16
FE
F1
F4
09
FA
0F
F5
03
04
F6
07
0C
06
F6
1A
36
02
05
02
06
EE
07
18
FA
EC
FF
26
FB
FD
FD
FA
F0
02
05
FA
1A
0E
05
F0
10
08
FB
08
F5
0C
18
19
03
F0
EF
01
F1
02
42
0B
15
59
2F
C4
03
FF
0D
19
22
C6
10
37
D1
C4
FE
47
E5
3F
E3
25
44
E5
03
00
1E
F7
EC
11
FE
10
E4
14
EE
F1
10
0A
F4
23
05
F2
EB
FC
0B
05
0B
14
FF
04
06
03
11
E9
0D
1E
E9
1F
11
1B
16
D8
01
01
04
EA
F8
FC
08
FF
EC
00
06
01
0E
F3
0D
E6
E1
09
04
F6
01
03
F3
0C
02
FB
0C
FB
E5
F1
05
FE
D3
05
03
CC
E6
E5
19
D3
F9
FE
FE
03
0E
F9
1B
03
D1
14
0C
C4
04
00
0F
27
F5
CE
E9
B5
DB
F8
FD
3B
FF
09
F4
DF
E9
05
06
02
E8
EF
F7
14
E0
FD
F1
E8
E9
11
0B
07
06
FD
FF
1E
03
E4
02
04
CE
04
07
FD
09
00
00
01
F8
10
05
16
F9
FA
F6
0F
02
0F
F3
EF
05
EF
F8
11
08
FA
F8
E8
F7
F7
06
FE
FA
03
EC
FB
F2
F7
01
E6
F3
BF
ED
17
22
0C
10
F6
F6
FA
FF
F6
DB
F8
06
F2
39
E3
22
E3
E3
E8
FB
D8
E4
0D
14
16
07
04
F2
F0
F9
05
F6
00
EA
FA
FB
0E
E9
11
E5
02
EF
FE
E7
07
10
05
FD
FE
09
F1
06
F1
EA
F3
FB
EC
F6
F2
F6
F2
08
F8
F6
FE
F3
F4
F6
F3
00
FE
00
F8
02
03
F8
02
00
FE
00
02
00
03
0B
FE
FC
02
01
01
F3
FD
00
F1
06
F5
F5
FA
E9
03
FF
02
00
03
09
F5
EA
04
FF
08
06
03
F8
F8
09
06
FA
EC
FD
F4
05
F6
F3
F8
F5
FC
F4
03
FA
03
FE
EA
EF
08
F6
FB
06
FD
01
09
F2
FF
06
FE
F6
FA
0D
11
0C
0C
FE
FB
09
F9
03
F7
F8
F8
0B
F8
F0
10
12
03
00
F6
04
09
01
F3
0C
F0
F9
F9
0D
15
06
08
FB
15
08
16
11
00
0E
F5
FB
F8
08
ED
F1
0E
0E
0E
01
0B
11
11
F7
1F
06
E9
31
F0
03
F9
0C
00
0B
0E
F2
0E
05
21
22
02
0B
F7
F4
EC
08
02
11
FE
0C
12
1C
FD
F3
FE
FB
15
14
FD
13
F4
E9
FB
06
FA
FE
03
EF
1D
05
FE
15
0E
04
F4
F0
FF
02
F1
FF
F9
FF
0D
09
F8
FA
FE
F7
F0
06
0E
FC
F5
F9
F8
FC
02
F7
06
FB
FD
12
FD
07
FD
02
0B
F0
04
F7
16
F7
0A
12
00
DC
02
FE
21
D6
FA
00
01
EF
0E
FF
FA
02
1C
11
12
FB
0D
E8
DD
02
06
05
23
01
F9
FC
0C
FB
00
F4
1C
0A
12
08
FA
F7
0B
05
09
F4
01
16
FC
FF
FA
F8
FB
F7
F9
FC
02
13
FB
FD
10
FC
07
05
02
EF
0A
FB
FA
FF
04
07
15
07
F9
F8
01
F0
12
06
08
04
EB
FF
F1
10
FC
EE
EA
FE
04
FE
03
EC
00
18
E5
F0
0A
E2
F4
15
FC
F7
FA
F6
16
08
F9
D8
F1
E4
02
F8
EA
E5
18
0A
E3
00
E6
ED
10
FC
F9
01
08
09
F7
F4
FD
02
13
FA
09
FD
04
05
00
FD
01
F5
02
0A
08
FE
05
FB
FD
F8
F9
FB
F2
FE
F5
00
FD
F6
F8
07
F9
F2
09
FB
FA
FD
05
12
0F
FA
FB
05
EE
F3
08
00
FB
01
DC
FA
10
0B
D7
F8
E2
FD
FE
0C
FD
DE
FB
F1
05
FF
0F
01
01
09
F9
F8
FA
D7
F4
17
E5
E6
F8
D8
0C
0A
07
00
0D
20
08
1C
E4
E9
01
06
31
FF
F7
0F
F6
FC
0B
F8
0B
FA
14
02
01
07
0D
F3
FC
FA
03
02
06
0B
06
FC
03
04
F6
EC
F4
FD
EC
06
FC
F8
09
05
F5
12
06
FC
F3
EB
00
12
FE
EC
08
02
07
01
08
03
F7
F9
04
03
19
E2
04
10
F9
FB
06
FD
F0
F9
F2
BB
C6
05
F9
20
09
F5
0F
16
01
39
F1
12
13
00
23
31
EE
04
11
31
D8
FB
E9
F9
1C
05
F9
0B
F3
F3
00
07
F0
0F
00
F6
F1
F0
02
F2
02
FA
15
F1
FF
01
07
04
FD
01
F7
FB
13
EF
16
06
F0
E9
FF
03
F0
05
06
01
FD
FD
F0
F2
FF
EE
FC
FF
01
00
03
FE
10
0A
01
F5
01
01
08
03
09
F6
FD
04
12
05
FF
EE
03
1A
0C
C9
0E
17
F7
F8
06
00
F3
11
F8
09
EB
04
FF
F8
1E
15
04
08
04
19
EE
0B
23
03
04
17
FB
D6
15
EB
02
03
02
EB
08
F8
01
FA
FC
F8
FE
02
12
FB
07
FC
FC
00
00
00
FE
FC
06
F5
F0
07
FC
06
F7
FA
04
F7
05
00
02
E2
FB
EE
FB
F8
04
04
09
05
06
FF
02
E1
F4
08
FD
FC
FA
09
04
01
FE
F5
F9
FD
F8
1A
04
EF
0D
FD
0E
E6
0F
FD
07
FD
1A
F1
0A
F4
F3
EB
0E
07
00
F8
F3
1C
FF
05
03
11
FF
F5
06
EF
09
22
DB
E6
F9
0D
F5
E6
FF
EB
F9
F9
02
01
FA
0A
04
FD
FC
EB
F6
F0
F1
0D
EC
F7
F4
02
FD
0C
F7
02
00
04
FD
EF
06
04
F6
ED
00
FC
02
FA
FB
FF
12
E9
F1
04
FB
EF
07
03
FA
08
F1
02
F9
0D
F2
03
E9
F5
00
FD
0A
E4
03
0A
F5
F6
FF
EC
F7
13
F4
00
09
F7
0D
03
FF
EB
03
EB
FD
FF
F7
EE
1B
05
EC
FB
EB
0F
12
04
15
F8
06
0B
F2
EE
FE
EF
FB
FE
02
06
FD
E6
F9
07
FB
EB
FF
0F
FA
F7
F6
FF
FE
02
F1
FD
ED
FE
FB
F7
08
ED
0A
02
F9
00
E2
F9
0A
0F
F2
F3
05
00
04
05
E1
E7
E7
E5
F9
05
01
EC
01
F0
17
E8
EF
05
21
FC
F2
12
09
F5
F5
F9
F3
EC
FB
E5
F9
19
F2
03
07
DD
0A
F5
0D
E7
FC
F6
FA
21
EB
EA
E5
FF
FC
F6
FE
0D
03
00
FC
02
01
0C
F1
0D
F5
FF
FF
F6
F6
FF
09
FE
F9
0A
F9
DF
F8
F8
F9
F2
00
F8
F4
02
07
EB
F8
FC
06
EA
18
03
E0
15
F7
F7
03
0F
F7
F8
03
0A
FB
07
DD
CF
EF
E4
1E
24
E0
F2
0D
FE
E5
F0
09
F7
3A
01
0A
0E
EB
EF
F7
E9
FC
09
F0
C7
28
2A
17
FB
F0
F2
0D
00
40
26
E6
F9
06
3E
FF
22
EE
F3
EE
00
E9
01
09
FF
FD
19
14
F5
E1
F4
FB
FC
F1
E7
EA
F9
2A
F7
F1
14
F7
DC
FF
0D
FD
EE
F9
F6
05
18
EE
01
01
F5
F7
00
1F
FD
03
FD
E1
FD
FD
0B
F2
EF
10
06
FE
0D
F2
11
EE
E7
05
0B
F2
03
07
F0
FA
00
09
E5
1A
FE
00
01
F9
06
FC
F2
F6
01
07
FD
0E
09
F9
F3
FA
E7
12
FB
07
FB
FA
0C
0A
1B
EB
FB
E9
F0
F2
02
02
F9
FB
1B
FA
03
EF
FE
F2
02
FE
0F
F0
FA
FB
F5
06
FB
F2
EF
0A
D5
FB
FE
06
F3
F2
F3
0B
FE
F2
0F
FD
05
FE
05
F7
FE
F6
F9
EF
08
FE
F6
EC
FD
F3
FE
08
0D
F9
00
FD
F5
F9
02
01
F7
00
FC
06
F9
FB
FD
02
05
FF
F7
11
02
EF
F4
0E
FD
FE
08
E4
EC
FB
03
E9
01
FA
DD
02
F1
07
FE
F9
FF
03
0E
FD
ED
F0
F3
0C
F5
FC
F6
F7
08
02
F8
F5
09
FF
05
03
FE
F1
F7
0F
F6
FB
10
F8
FB
02
08
FD
F5
EF
04
FC
0F
00
F0
F8
03
03
07
F8
FE
04
08
FA
05
F4
F7
F8
07
F7
01
13
0E
FE
FD
0C
07
FB
FB
F0
F9
07
03
06
FF
F2
08
FD
09
FB
F5
0D
F5
E8
04
28
FB
08
FB
F1
ED
14
05
FD
07
E9
F0
04
FC
08
0C
F3
0F
0C
16
EE
04
E6
F0
10
07
03
FB
FD
07
12
03
05
02
F9
FA
15
0E
EF
F6
15
F5
F9
05
F4
FD
04
16
01
F7
F6
21
09
09
F6
FB
F6
07
FB
05
00
FC
0F
F5
F0
06
F0
F5
FB
04
F3
02
0E
0A
F8
00
FA
FB
F9
FA
06
FA
FF
FE
03
F0
FE
03
FB
FD
F5
07
08
01
EB
F6
17
FA
30
05
F1
F2
0D
06
EC
01
E6
00
01
EC
0A
FA
EE
08
04
05
F1
00
F4
F7
0B
F4
0F
0C
FA
07
02
FA
01
FC
F0
F9
08
01
F5
F5
09
F5
00
F9
F6
FD
00
0B
FF
FD
EC
0E
0B
F2
F9
04
F5
05
08
05
FA
00
F0
08
F8
06
EB
FB
EB
F9
F5
03
13
FF
FB
08
F4
F7
FA
FC
F9
E9
F1
00
FA
EA
01
E2
FC
FA
FE
06
F8
00
FD
F4
15
05
06
F8
E6
F6
07
FD
FB
05
12
FB
FF
F7
FC
F7
03
EC
17
01
F8
18
08
E6
FD
03
0A
03
00
FD
F3
00
F9
F2
09
0C
EF
08
0B
01
F8
1A
FF
E9
EC
0C
FC
05
0A
FE
ED
F9
0F
F6
F5
0C
09
05
F6
FB
FB
0B
0A
F9
EC
03
F4
03
ED
04
FF
00
1E
08
FE
0B
FF
F9
F5
F0
F6
F3
FE
08
0D
0B
F4
FA
05
F9
FF
F9
F6
FD
1A
F5
2E
E9
FE
E9
FA
EC
17
00
11
09
0C
FB
1D
F7
10
FB
02
EF
2C
16
FD
05
EA
F7
04
F8
10
02
17
EF
EB
0E
FA
FA
08
19
FD
00
18
0D
F8
16
FB
E4
EF
38
02
0D
00
FD
FF
F7
DB
F1
08
00
FD
FA
EF
00
F8
09
F2
F6
FC
FF
05
11
F2
FA
04
FC
07
FD
EC
FA
F6
F6
02
FA
0A
ED
F5
03
09
00
F9
0E
FF
04
F6
06
0A
FC
EB
04
05
FA
08
0F
F4
E9
05
00
F7
10
02
FE
00
F7
10
F2
F7
E9
17
FA
00
FE
01
FF
EB
05
07
F4
1A
F6
F6
0A
01
00
F3
23
F7
FB
0C
01
FC
16
03
06
F0
08
FA
03
04
FC
F5
FB
F5
FB
09
E1
FA
FA
03
F3
F3
F6
05
07
F3
F9
11
FD
00
F7
EE
06
05
09
03
0B
DC
01
FA
00
02
FB
07
F6
F4
0C
03
F2
F3
E0
FE
E6
F6
0D
23
40
EA
F6
25
1B
D2
E7
F0
1B
11
0F
10
14
E0
F2
F8
1D
14
F2
FF
CF
23
10
17
14
0F
D5
1B
FE
DC
FD
14
F2
02
EE
16
E9
06
19
EE
03
02
07
F6
17
02
DE
09
10
0C
15
00
1C
DE
19
FD
0C
EB
E3
19
0C
F6
F6
02
E6
16
F5
F4
DC
05
F4
06
FD
F6
F8
00
D9
F4
0A
05
F9
F7
22
FD
E9
EB
EF
F8
F6
0B
07
FB
0F
07
FF
1A
09
08
FF
12
F3
21
0F
25
06
13
F9
22
10
D4
0B
EF
EE
04
19
F5
EC
F3
EE
25
09
FC
21
01
FD
F1
0D
01
DE
06
0B
FC
EF
F6
0A
05
F8
F9
08
02
CE
FB
18
F7
06
03
11
E3
EE
F2
F4
F2
0E
15
F9
EC
EE
FE
F9
F2
E2
02
F8
F2
FB
15
F6
F8
F7
0A
05
ED
D0
1A
F9
1B
00
00
09
0F
08
EF
EC
DC
DA
F8
FF
FE
DF
06
F0
1B
FB
03
06
02
14
04
13
22
05
03
FD
FF
ED
11
1F
20
00
F8
E7
09
1E
02
FD
F8
0C
F7
0A
07
F7
03
07
E9
E6
0B
F9
FC
0B
F1
04
05
E9
EF
09
FD
E3
08
18
08
03
EB
FE
0A
04
E1
F1
E8
E6
FD
FD
EE
0D
FC
FD
08
19
11
01
F4
F6
08
02
F8
06
F8
FE
04
0C
FA
01
FD
01
02
09
03
F9
FF
10
0F
F8
FE
05
FD
FA
FF
05
FE
FC
F6
11
03
FA
F7
F5
08
01
FA
06
02
FB
F0
EC
00
F7
F3
0C
FC
F6
06
FF
00
F6
0F
FB
03
F6
02
06
FD
F0
EC
F5
FB
27
F5
ED
1D
FB
0D
FF
FB
EF
F7
E6
F9
00
F6
F6
E9
FA
FB
F5
F7
F6
FD
F7
F9
28
E5
00
18
37
24
20
FA
E0
0F
06
00
04
F2
F9
23
31
24
0E
1A
F4
3D
13
24
FA
1F
14
31
23
07
F4
F8
02
0C
F7
0D
07
15
09
0F
0B
0D
0E
0A
07
F7
0D
0D
15
F3
24
FE
EC
EF
03
FB
0A
09
0F
10
10
FC
04
FC
ED
02
F9
E3
EC
F5
DF
FC
62
FA
F6
09
F3
08
11
F8
F0
FB
DB
FC
FE
E3
FA
F9
F5
E9
0A
D9
D0
FA
08
01
03
E6
02
1B
0A
01
01
0D
F7
0F
04
F6
0A
FF
01
00
05
11
0C
0A
02
10
09
FD
F9
06
03
19
11
F6
F9
F5
EC
07
03
18
FA
F7
0A
FF
04
F6
02
F9
06
F0
FD
00
04
F5
FD
00
FC
EF
F6
FE
08
FC
EA
F8
13
05
FA
FE
F0
01
FE
ED
F3
EE
F0
F7
39
F3
EA
1D
EE
09
03
F8
FF
F6
E4
F3
02
EF
F9
FE
FB
02
FD
E7
E0
02
00
FE
0D
0B
19
07
FC
FA
0E
0D
EA
FD
0B
F5
03
E9
0D
04
F8
0C
F5
01
E8
02
05
FF
F3
FB
07
F5
FE
08
ED
FA
FD
08
F6
FB
04
E1
F8
F8
F0
11
03
E8
02
0F
FE
F5
FB
F0
F5
EE
03
F9
01
F7
0A
06
FE
06
00
00
FA
FC
01
03
F5
01
09
F5
04
05
FC
F0
F4
04
03
17
F0
F4
0B
E8
F2
FA
00
F0
08
E6
02
F8
0F
05
06
FD
02
03
0D
11
4C
08
EF
37
01
FD
07
ED
FC
FD
FA
B9
4A
11
0D
07
08
25
C1
04
E3
35
22
01
F0
FD
F1
0D
FD
FB
F2
09
E8
03
00
F7
FC
FA
EA
10
FB
11
EB
01
07
FF
08
F9
02
F3
09
05
FB
FF
24
06
F7
0C
06
FF
04
0B
F6
06
EE
FE
09
F2
07
02
19
0D
10
FE
0A
20
ED
F4
07
ED
EC
F1
0C
FB
09
D6
1E
10
03
FE
13
F7
FD
FC
09
04
16
F2
01
F3
03
09
F5
ED
05
F4
07
F5
16
FF
07
07
EE
01
E9
FC
E9
04
F7
FD
04
FE
11
F6
06
F4
EB
00
FE
FA
03
CE
FC
0C
F6
FA
02
FD
00
19
01
F4
01
EA
EA
E7
06
04
F7
FF
01
07
08
F5
02
01
01
0D
F6
0A
F3
01
01
E5
FF
F7
10
E7
F9
08
F9
2A
ED
F8
FB
D8
DD
F3
0C
FB
FC
E7
00
FA
F8
FF
02
08
05
00
09
FB
0B
FE
F0
FB
FE
00
F6
F9
03
F4
FA
08
02
0A
08
FC
05
02
FC
F6
FB
04
03
FA
FE
0A
FF
00
03
00
EB
FE
F3
11
07
0C
09
0D
E8
FC
03
07
02
FA
01
03
01
F4
FE
03
F4
03
F1
07
12
03
00
F0
13
F6
EC
06
0D
08
F0
06
FF
F7
FC
06
EC
EE
FE
03
0E
FC
02
FF
F7
10
F7
09
0A
08
06
F6
01
0B
FD
09
07
0D
F9
05
ED
08
F4
F8
16
FB
06
0D
12
F6
FC
F5
0F
09
FD
FD
E1
E8
F6
E6
15
FF
F2
00
F3
09
08
F9
02
F4
F6
05
F7
14
04
F9
02
D0
FE
07
04
EE
F8
EE
12
05
0E
15
16
D1
E2
EE
F6
FE
F7
04
E6
12
0C
0B
FA
FE
1B
04
F2
02
03
13
FB
F9
13
F7
08
F7
E8
F3
08
26
F9
06
1E
EA
D1
EB
0A
0B
EB
FD
DF
FF
06
13
EE
02
1E
EB
02
13
0A
04
FE
FE
02
FC
04
FD
FC
FC
01
08
0C
0A
E8
FF
FA
00
F6
FA
01
0B
F8
0E
EF
ED
F6
FF
FE
01
15
0E
FE
13
F7
19
F2
18
F3
FA
FD
0D
FE
F9
FA
02
00
F3
0F
07
FD
FA
04
02
FE
FF
F9
08
09
02
FF
03
0E
03
09
FF
FD
02
04
04
FA
F6
FF
07
18
F8
08
00
FF
03
FB
01
03
0C
F7
05
FD
F7
FD
11
0C
07
FB
10
DF
1D
D7
0C
26
2E
17
F9
12
F8
ED
FD
05
03
DD
0D
C7
D9
05
07
28
1B
E3
DB
1B
2C
CF
F0
12
05
00
FD
E9
E5
13
00
D7
F3
1C
0C
F2
1A
1C
FF
FB
21
D8
DC
1B
EE
C4
04
18
F2
EE
F8
24
C6
26
12
00
DF
FC
F5
03
05
FB
14
F5
F8
00
FD
00
F8
F0
02
F7
03
06
FC
FB
07
00
01
FD
FD
FF
FE
F4
0C
F4
06
FE
0F
08
0A
E9
12
19
0A
EB
CC
05
C3
F0
F7
0D
E1
F0
15
0A
16
F4
0C
06
DA
EE
1A
F8
1C
E7
16
F6
D0
F0
F8
29
31
16
FB
05
CC
FD
FF
03
10
EE
D6
E2
10
2B
DE
0B
0B
0C
01
34
FF
F0
EF
07
01
E6
E6
E8
27
34
09
F9
F6
10
F4
F5
F1
05
FF
F7
02
FC
FC
FC
F2
0E
F7
07
F0
EE
FB
E6
FC
08
04
FA
01
EE
00
F9
FB
EF
06
05
1A
05
07
FF
01
FF
FF
FA
07
EC
F9
FE
07
06
FF
F5
09
F2
FF
02
00
00
F0
FE
F4
0B
F0
07
08
02
F1
FD
05
08
10
08
F9
F1
0F
EA
0F
05
FB
00
EA
EF
FC
0C
EC
FC
F3
FC
FA
00
FF
10
F4
04
F6
FD
F3
F4
0F
01
F6
07
FC
02
01
FD
FD
FE
01
FA
EB
FF
F6
FA
07
07
F8
FA
F9
EE
02
FB
00
F4
FF
08
00
FF
FC
F6
F7
01
07
EE
02
04
F6
F0
F8
FB
FF
0B
FD
04
06
FF
0F
03
E3
E2
07
F9
06
F4
EE
07
0D
FC
02
04
EB
F8
F6
ED
F1
EB
23
18
08
0C
05
FC
F1
F9
F4
EF
3A
0D
02
14
F8
0A
E9
FF
F9
E8
F7
E3
22
00
ED
F5
F7
F5
F6
E6
01
F5
FF
06
FC
03
FB
06
F6
E4
FA
10
FB
0E
EA
0C
F1
FD
0E
03
0E
03
FC
07
F4
03
0D
F6
FC
F5
16
FE
04
FE
FC
F8
ED
EE
F3
F0
F8
01
08
F4
01
02
FB
FB
E4
E9
E9
01
02
07
06
03
04
FB
F6
FD
DF
FE
06
0C
0A
2A
09
FD
12
11
03
26
BC
FD
21
03
E7
10
00
F7
1F
26
ED
FA
0B
D8
29
07
DE
E7
EB
B2
3B
11
D8
07
F1
04
ED
FE
08
04
0A
FE
F7
FB
15
00
E5
0A
EF
FF
EB
EE
F9
F1
F8
05
FD
02
13
F2
08
E1
FD
07
F2
09
06
EC
F4
0C
ED
E9
FC
FA
F7
FD
F9
F7
F6
FA
F7
03
E7
EB
17
F8
12
04
E9
07
00
EA
F0
06
DB
EB
10
07
03
EA
0A
FA
FD
F3
E6
F5
F6
EF
04
07
E0
EA
F6
F1
FD
F1
25
04
FE
0C
01
0D
ED
1B
E1
F3
F9
F5
15
05
ED
01
FA
E3
00
F7
07
09
04
ED
FA
02
10
FC
F9
E9
EC
EB
04
02
03
FD
EC
EF
18
02
F0
FC
F1
00
FD
02
F4
F6
02
03
02
0A
EE
0B
0D
E6
01
FB
FE
04
F1
0E
08
0A
F7
FE
07
03
04
F4
09
F8
0B
05
0B
01
0B
0B
03
FF
F7
0C
01
07
03
07
FB
EE
F0
E8
11
03
0D
FC
0D
FC
F5
F0
07
06
0A
F3
10
F4
F0
04
0A
05
ED
03
00
F8
FD
F5
05
04
F3
FC
FE
F5
F7
FB
01
02
FD
10
04
06
04
EF
FB
0A
02
F3
F9
FB
09
02
07
07
0B
FF
F9
FD
0E
08
00
13
23
F9
20
04
09
E8
02
0E
E6
FA
09
FD
D0
FA
22
1E
F9
FC
D8
07
FD
F4
17
06
2F
02
09
0E
F1
0C
06
FC
04
07
F6
00
00
FB
F3
FF
22
E5
01
FB
01
EB
EE
00
08
FD
12
F0
07
0A
EC
F8
D6
06
10
FF
07
E0
FC
0B
ED
F5
06
12
E4
F1
06
F9
FF
0D
04
04
FD
18
FA
F6
FF
05
06
E7
FE
F9
09
04
1D
F8
03
FE
05
04
0B
01
F4
FE
03
F0
FF
01
05
00
F6
11
10
FE
F7
03
F6
00
03
FC
07
00
07
F8
FF
0A
FE
06
07
08
F6
03
FB
FB
10
F9
FF
EC
F8
E8
14
05
06
FE
01
00
F5
FB
02
05
F0
FB
0A
EB
F5
00
05
0A
F2
FF
F1
FA
FF
F2
09
FE
F5
FF
05
F6
03
03
0B
03
00
0D
07
FD
F9
FF
FD
00
FE
F9
F9
FB
05
FB
00
FD
02
FD
02
F6
F7
F9
FE
15
1D
F6
E4
0C
FA
20
F4
FD
08
E7
12
F3
F9
03
03
F9
E7
02
17
EC
F7
12
F9
02
FD
F6
F2
E4
11
05
FF
E2
C5
DC
08
32
FB
FE
F1
FB
04
F9
F6
E2
D2
00
EB
02
F1
FE
E9
F6
14
E2
F8
03
FA
FC
FC
F6
F1
F8
12
D8
00
FB
08
16
E4
F6
0E
EE
08
F1
FA
F6
00
DE
EA
0D
F7
0B
FC
FC
14
05
08
10
08
04
FD
2B
06
1E
1F
2B
4E
23
04
C7
09
0B
F4
10
E4
F7
53
53
28
00
2E
D1
3B
0A
3B
14
44
0A
4F
29
1A
D9
ED
DC
0D
F2
E1
15
B5
F1
05
23
E6
00
16
EE
E3
18
E0
00
CB
40
CE
F9
E1
EF
1C
F8
EF
0B
DD
D4
F3
06
F8
E6
ED
EE
E6
FA
0A
E9
F1
17
E1
F5
0A
EA
12
FC
E9
DF
FF
F2
F7
18
E4
0A
11
F7
E8
0E
D6
E1
FA
12
F3
F0
E6
00
09
EA
0A
EA
0E
FF
19
05
F2
04
13
FD
FA
EE
0B
05
15
F8
FE
05
1F
E6
03
ED
F9
02
F8
F8
F0
ED
0C
F8
FB
FF
D8
F9
06
08
00
1C
F7
FC
04
05
FA
07
CF
21
F6
15
03
ED
F6
FC
FC
0E
0A
F7
EC
05
0C
01
F3
F9
00
06
03
09
FF
FB
E1
F4
10
F7
11
F8
0D
05
F6
E2
01
08
FE
05
FB
F5
01
F5
05
F7
05
FB
08
F6
08
00
F8
02
ED
F7
03
EC
F1
F3
02
04
FD
01
02
06
00
F3
FD
FB
F9
E9
FD
F9
02
FF
03
F6
0D
0B
05
EF
05
03
00
07
03
FC
07
0B
F2
F8
04
03
0E
FA
FF
FC
E8
EF
F3
0B
F4
F4
08
F3
00
0E
00
00
0E
F8
00
F3
FE
06
FF
F9
F4
F3
02
EF
F1
FD
00
FC
FF
F8
05
07
05
FC
FD
02
F4
EB
FA
F6
FD
05
FE
FE
FD
FA
06
F4
16
1E
FF
03
F2
F8
10
FE
FB
F6
09
03
03
07
FD
00
FC
ED
FD
07
0D
F2
0A
FE
05
04
FF
FD
1E
09
0B
16
F0
B5
FB
03
ED
00
F9
16
F0
00
E4
FB
0E
E8
08
06
24
24
EF
12
22
44
E0
F0
0E
FB
03
17
FA
03
0E
FD
F4
25
FF
F6
03
03
F7
E8
0A
F7
08
F5
11
E8
07
09
00
07
00
17
EA
E3
FC
FA
F8
0C
05
FE
FA
06
F3
F1
1F
0E
FD
06
E7
FB
05
F1
F3
FB
FF
FC
02
0B
F9
08
F8
F4
EE
FA
FE
E7
09
F6
03
F8
03
F4
06
FB
0B
F1
03
FE
0C
0B
EC
07
12
05
EB
EE
03
F9
0F
F9
0A
08
DC
F3
F8
13
F8
06
06
F8
0A
0D
FE
F1
13
F7
FA
FB
F5
0A
06
FB
F0
F6
02
E4
F2
E4
01
06
F3
03
FD
02
06
F0
FB
01
F1
F5
00
F2
02
06
F9
05
08
00
EE
E8
06
EA
03
0A
1B
FE
04
00
12
FF
0D
07
01
F4
F6
F7
02
07
03
09
03
F9
00
02
13
F1
F9
08
FC
EA
03
09
FB
17
FE
E8
F6
00
09
E5
01
09
FB
F7
0A
DC
FC
08
0C
E4
0A
FD
FA
FD
12
00
ED
1A
00
01
F9
07
02
F6
05
0D
03
09
04
FC
02
01
0E
04
03
0B
FB
08
04
0D
FF
06
FE
F8
FD
00
0A
FF
07
F9
01
FC
FE
F8
09
3E
21
01
FE
D2
E0
E3
F2
07
01
02
07
1B
0B
0B
17
51
D2
00
20
14
CD
07
F5
14
D8
E2
4E
E5
F4
3A
E1
E3
06
0B
12
02
F1
01
0D
FF
D6
D9
F3
FD
0F
FC
EF
D5
F7
D6
F0
0E
06
0B
FE
F9
11
11
CE
03
05
E9
F3
EC
F8
F7
00
07
F9
FF
FE
04
EF
EE
F6
F9
09
01
F3
0F
FA
EB
03
07
F4
01
FB
F1
10
0C
08
04
00
14
02
F7
FD
09
0D
04
06
03
FF
F6
06
0F
0D
EB
F6
07
FB
EF
1B
16
E0
EC
FD
02
07
F2
10
02
F5
0A
E4
01
06
00
08
FB
DD
F1
12
01
1B
ED
EC
F3
02
08
00
0D
FD
02
04
12
FA
01
F9
0A
09
FA
ED
04
05
F1
0E
F9
06
F2
06
F7
03
02
FA
00
03
EE
05
06
FC
0C
FF
FF
0C
06
04
06
EF
06
F9
07
FD
03
01
FE
0C
FC
11
F0
08
0D
F6
03
FB
07
02
08
01
08
FD
FF
EF
01
F0
FA
04
00
F7
F7
04
F3
0A
02
0A
F2
03
F4
FC
F2
FF
12
00
07
FC
FF
03
F2
07
01
EE
15
11
FD
E6
EF
0C
0B
09
0A
07
04
F8
FC
0A
03
03
FD
F7
04
11
EC
07
20
FC
11
F4
05
05
EC
0A
06
FF
18
0D
FA
02
FE
09
01
06
FC
FC
0E
FD
FB
08
F7
FF
F6
04
F6
FD
FB
E9
0B
00
00
EF
F1
FC
14
05
0A
08
0C
FA
10
E3
04
05
ED
01
08
F5
F9
09
F0
0F
0A
F4
03
01
FD
06
FA
F6
FA
F9
11
EA
F7
0F
12
01
01
01
F8
0A
15
EE
E5
18
FD
01
15
27
15
FE
F4
1E
11
15
11
06
0B
E3
0E
E8
13
E1
10
02
10
F8
1B
EC
0F
FB
0F
08
F7
F3
FF
F9
0E
FF
16
FB
31
24
E5
03
07
F3
0B
22
FF
03
08
00
FA
00
03
F3
07
01
F7
F0
FF
02
13
F4
FF
FD
16
07
00
FA
F1
E7
F7
F4
FD
05
FE
06
F1
0C
EC
FD
F9
F1
14
FD
14
EF
01
0D
FA
06
0F
1A
04
FF
EA
0D
0B
1F
03
F7
FB
D8
EF
18
0C
12
00
FF
F3
EC
DB
0C
15
FA
01
F1
F2
FC
14
11
F1
DC
FE
0D
2B
F1
F5
DE
2E
1F
05
F0
F2
EB
EB
ED
04
FD
FF
01
DA
0B
E9
FC
23
00
0B
F0
05
01
F3
01
F0
FB
F7
05
FE
FD
FE
0E
05
0C
FB
05
F4
F4
FD
0F
F0
FE
0F
FC
F0
15
00
05
0E
FA
23
EF
E6
F4
0A
F9
C0
19
30
F7
0E
1D
FA
07
00
FA
F0
21
20
F9
EF
E6
DF
F8
07
0D
04
EA
07
2E
FC
0A
4D
CE
06
FE
F8
0E
0E
FE
EF
09
0B
06
05
03
F9
E7
10
F9
F9
0D
12
FB
05
FB
18
FF
01
20
FF
F2
09
0B
E5
0D
FD
03
EB
0A
06
0A
07
0F
01
0A
04
05
06
FF
F6
01
FA
05
02
03
0D
FA
0D
FB
FD
F7
F8
02
FD
FC
E5
05
06
07
00
DA
FF
F9
F2
08
13
FA
04
F8
1D
07
00
EF
FA
0D
09
FF
08
FC
FE
06
03
EC
FF
E2
F9
03
FB
13
F8
06
13
17
00
13
19
F1
F5
13
0D
03
ED
07
F2
0D
18
04
FD
F5
F8
01
00
05
12
F6
FB
05
05
01
E6
11
F9
FB
0C
04
FA
04
F3
FA
03
01
04
F8
FD
FE
02
FE
FB
02
FD
02
F6
FA
FA
10
FA
FE
F8
01
0B
05
FB
0B
F5
13
01
ED
EC
0C
F8
06
0C
09
F9
FC
F9
F2
0A
09
0F
02
08
04
00
F8
FC
09
0D
E6
FC
13
FA
FB
EB
FF
03
F3
0A
01
04
03
FA
FB
FA
0A
04
00
F9
0C
F4
00
F1
FA
FA
03
FB
FD
01
04
00
02
0B
FE
1A
F5
03
0D
05
15
01
F2
2F
F4
FB
FB
29
FB
03
F2
FC
11
0D
EF
11
FD
F5
FC
FC
0B
F3
02
FA
03
1F
0B
EF
0B
10
FA
DA
F1
F6
F0
D2
FF
FB
F7
2A
EE
04
12
F7
F3
DC
00
CA
02
E8
10
0F
C3
FD
1A
F8
02
FB
D0
E8
FE
10
03
09
17
02
F6
F2
0B
E8
08
F8
EF
03
FC
F3
00
FE
00
F5
F9
05
00
F2
29
03
F9
FE
F6
0D
16
F9
FB
F9
F2
2B
1B
F8
13
37
0A
1A
2A
E7
02
E5
F4
FA
1E
FB
2C
4F
F6
FC
02
FC
5F
F8
FB
0B
1F
14
62
28
09
EB
E5
E6
F4
F9
0A
D9
FD
1D
EF
04
00
1C
34
19
DC
C0
0B
DF
1A
0D
13
03
97
E8
0E
F5
1A
E8
C5
17
08
FF
20
F9
00
EF
BB
EE
11
CE
00
EA
FF
0F
01
E8
DB
F0
F3
CA
16
13
04
0C
10
FC
08
0C
C8
0C
F5
BB
EE
01
F8
00
19
00
19
10
E5
00
0E
2D
09
F7
F4
FC
1D
0E
05
02
06
F7
00
F5
0C
05
F9
F6
FA
FF
0E
FB
15
08
F6
E8
F9
FA
0B
EB
0F
FD
FA
2F
10
FE
0B
09
E3
DE
F7
EA
10
F4
12
13
AE
01
1F
E9
FB
F5
CC
00
02
09
FB
0C
F5
0C
B8
11
00
ED
06
EC
0F
08
F2
E5
F6
0E
FF
10
05
F8
0D
F6
24
12
04
09
F3
1B
02
C2
08
FF
F9
FF
09
0E
FF
EF
F0
FB
FB
01
FE
03
02
08
05
06
05
0D
FE
F8
F4
02
02
07
FB
01
FE
F9
FF
00
FC
F8
0A
10
F7
EC
12
D5
C7
E1
13
F1
FA
1D
F6
E9
0C
07
EF
16
0D
F8
F7
F9
D7
19
0E
F6
04
0F
0E
1C
D9
FF
FB
11
14
0E
00
0F
E9
F5
06
02
DA
EC
18
06
F0
13
0C
E2
18
21
13
EE
0F
06
10
F5
1B
F0
F8
02
19
EE
07
F5
E7
01
FC
19
08
FE
02
02
FA
F5
01
F7
01
03
FE
0F
FC
00
E8
FB
02
F2
FF
00
0D
0E
00
0E
07
0A
FF
01
F6
0F
03
2C
0F
FF
1B
EC
02
02
FC
ED
F5
0B
F7
E6
F6
FB
E7
10
FE
09
07
07
21
07
C7
0B
F2
F7
17
CE
21
FC
FA
D0
06
2A
E9
1A
00
F7
0B
21
05
07
30
3A
02
0F
EA
F5
F3
DE
17
DE
DB
DC
35
EA
0C
21
CC
01
FC
FD
03
FB
FB
02
0F
FB
F8
F4
06
09
06
08
FC
03
F3
F5
03
0D
F9
FB
F5
FF
F7
FC
02
EF
FF
F5
0A
E3
03
07
FC
EC
F4
F2
0D
FE
04
E5
EC
05
06
F9
FB
FA
01
0F
0A
2C
EE
0B
E7
DE
F5
F8
ED
ED
F9
F5
0D
FD
02
FE
F8
04
11
F1
ED
F7
08
FC
02
EA
1D
D2
0B
F2
FE
DB
F7
26
0A
FD
06
18
FF
12
F1
1F
FC
09
0F
F9
0C
F8
00
0C
E7
F0
06
00
EF
E4
00
FC
15
FB
FA
0F
D6
E8
FB
09
F7
EE
E7
DF
FB
02
01
F6
FB
FF
06
FC
07
1A
F1
04
F7
07
FE
07
E8
ED
FA
FB
FB
0D
05
F7
DB
E0
EF
07
F6
FE
FB
CE
F9
03
F9
F9
05
F8
FE
00
FF
02
01
FD
F1
FE
FE
F5
F2
F3
ED
FB
FF
09
F3
FE
FA
E0
F7
FB
F7
F5
F8
F6
0C
0E
01
FF
08
11
FC
FA
0D
D8
F6
0A
F3
FF
FF
FE
FD
E9
F8
07
22
C9
00
FF
E9
F0
FD
1B
18
07
CD
E9
FB
0A
FE
04
11
F8
FC
2E
F6
1F
10
01
3D
1C
F4
01
FF
07
03
FC
F5
02
08
1A
05
13
1E
DB
01
F6
1E
0B
05
F4
13
F9
DB
F8
04
06
01
F8
01
FB
EC
07
08
FB
04
0D
01
01
DB
11
00
FC
12
1F
FF
E8
02
03
0E
09
02
FB
FC
0F
06
FD
02
FB
FE
F7
07
06
E4
02
FF
FC
E5
E9
07
FF
0D
F8
FC
09
DC
EF
F7
08
04
EF
EC
EF
FC
05
02
FF
09
02
FF
EF
FC
06
F2
0B
E7
04
FE
08
E5
F1
FA
0F
09
0E
F8
04
E9
E9
FE
F5
FA
FB
02
E3
04
0A
FE
0D
F9
FE
FF
EE
01
04
11
05
E7
00
FB
F9
F9
FC
EB
02
08
0F
F9
04
FB
DF
01
FD
FC
F6
F7
F3
04
F0
F7
E3
FF
01
02
15
DD
1D
05
CF
D2
F7
20
F3
F6
1E
EB
F5
09
1B
F4
31
26
0C
E1
DF
DC
02
1A
FB
F0
24
1D
09
E1
10
11
0E
25
E3
00
0E
19
FC
D8
FE
DA
D6
F4
ED
E3
20
08
CA
F9
3A
17
01
07
0E
0F
F2
22
E6
DB
06
27
06
DC
02
FE
07
FC
05
01
0B
0A
F6
11
FE
01
0D
09
F5
F7
08
F2
FB
05
05
02
F9
FE
08
FC
13
FC
0B
F4
03
10
0F
0F
D6
F2
12
1E
EC
37
0C
0A
F8
01
13
01
E3
EC
F3
D3
04
12
32
F0
F4
FA
0B
F8
09
2F
0A
FA
F4
E9
11
03
02
11
F1
08
22
E3
E0
25
0A
16
E4
0C
E6
00
F7
04
EB
F8
0B
29
06
EB
08
05
FD
FC
ED
E0
FD
16
F8
FF
FF
FE
EA
04
03
F7
FE
F3
0A
06
06
0B
12
04
0E
F7
F7
04
05
F6
FE
F8
FE
1D
05
FE
F3
FB
06
01
FC
07
08
FE
02
0E
07
F7
F8
F8
FC
09
FB
F9
0E
04
01
06
06
F7
EC
05
05
11
08
07
0B
E7
08
02
07
01
04
F8
F7
E4
F5
F7
FD
F9
0D
F6
07
E8
F9
FA
10
10
F6
04
F2
EF
FC
FE
11
09
04
E9
01
E4
E7
0B
FF
F1
04
04
F6
F4
FD
04
04
04
09
FB
FA
FC
F7
0C
F7
08
05
FE
FC
FA
0A
00
01
FD
FE
FC
04
FB
FD
03
02
FB
