EC
08
0A
F7
0E
13
11
01
09
F2
EC
08
16
FF
12
D6
07
ED
FE
0F
0F
00
17
F3
09
EA
E6
00
01
F8
EE
FA
FC
1B
F9
EC
EE
E4
03
0A
01
00
F4
F4
0E
FD
F7
22
05
1E
FB
0E
FD
F5
F7
FA
FB
E5
FF
1F
00
EE
10
19
2E
F3
E9
01
F5
DC
13
E9
DF
0A
16
F0
01
F3
27
28
0A
F4
EB
FA
FC
FA
0A
02
FA
19
EF
00
02
F5
08
11
E9
08
EE
24
F5
F0
F5
F7
13
EF
00
FA
FB
01
16
D5
FA
17
C4
F4
FC
00
D8
00
FF
08
F3
22
E1
07
F8
F1
12
F6
07
1F
02
0A
FD
06
09
02
0E
0B
FC
FA
EB
17
EC
10
F4
FB
F4
F4
03
1A
F4
0E
0A
EB
06
EA
00
0B
FF
0A
FF
0C
FE
18
03
F7
1D
00
FB
FF
09
F6
F8
07
FD
EC
F3
03
FA
F5
DF
05
FA
03
04
FD
F5
FC
F1
0A
00
EA
D8
12
E0
E0
1A
E8
F1
FB
0F
F4
08
EE
2E
19
02
EF
E2
16
FE
F1
11
02
F9
0F
EE
F8
0E
F1
F5
17
F5
00
F4
12
FC
03
F6
F2
02
FB
FC
E9
21
F8
09
D1
F6
25
C9
F7
F9
02
DE
02
00
02
F0
44
EE
F7
E4
F6
29
E1
DF
20
E7
22
09
1C
F5
FD
0C
F6
FB
DE
E3
38
E5
FD
E8
FC
FA
FA
03
2E
F9
1E
18
05
08
DA
2A
20
E0
F2
DA
2A
FB
2E
E2
FA
1E
F6
0B
F5
E3
E3
04
2D
02
D9
FF
E9
F2
07
D8
FC
F5
0F
F7
FA
E6
F3
DF
DC
03
FE
E9
FF
F4
31
E8
06
1A
03
EE
0C
03
F0
F1
01
FC
11
FA
07
F6
15
0F
16
FF
04
06
FA
09
F9
04
F5
0C
00
FA
F6
03
0E
02
FD
09
0A
F4
F0
0F
05
00
2D
0A
E8
07
01
07
0D
F6
FB
0A
FC
0B
ED
03
F0
F9
0D
17
EF
F5
15
EF
F7
FE
04
EE
EA
08
E9
F8
EC
10
2A
F7
F9
ED
05
F0
F0
05
19
F4
1F
0B
16
01
E7
1A
11
07
05
E1
2B
F9
1F
F9
FE
F7
F2
0B
F6
EC
EF
FC
15
03
0E
FD
F0
F5
FE
DF
FD
FF
09
FF
17
E5
EE
FC
D5
05
F0
EB
E8
EE
43
E0
10
24
E7
D5
00
0E
FC
EE
30
F5
16
FE
05
EC
08
11
0B
FB
F6
FB
0B
18
EB
06
09
F4
10
CA
06
07
ED
F4
05
12
08
F7
E6
11
F3
F6
2D
02
E3
27
FC
05
11
F1
EE
F7
E6
0E
CF
15
F5
08
1A
08
F3
13
F8
0D
E1
00
E4
03
F9
FC
F3
FB
FE
1A
D0
19
15
03
0D
F3
E9
1B
E4
F1
04
EF
13
FC
0D
E8
DB
1E
0A
0B
F2
FC
FC
0F
09
EA
11
EA
01
03
1C
01
07
01
11
FA
00
0F
0C
15
FA
E8
09
04
38
F8
F6
F1
15
06
F4
FE
05
FC
FE
FF
08
F5
12
F5
F4
00
01
EC
0F
02
F7
FD
01
F7
F7
01
FF
F2
0E
FF
05
FF
00
13
F7
FC
FF
01
FC
00
04
F5
01
03
F3
F4
F9
F5
F4
06
09
FE
EB
04
00
F4
F7
F2
FC
FC
FA
FE
FB
05
F4
F1
F2
0B
02
0C
0B
07
08
0B
12
FC
18
F7
F8
01
06
EF
02
00
F5
FD
0D
FC
FA
0F
08
F1
10
00
01
03
FE
0F
F2
01
00
01
FA
09
05
FE
FD
FD
F7
F5
FF
F0
F0
05
0C
F8
E9
FB
00
F3
F6
FC
09
FB
F3
05
F6
FE
F5
EA
FB
05
FA
11
0D
0E
07
05
08
FE
0E
F9
04
FB
0C
F3
FD
04
07
F5
10
FF
FD
09
0F
F2
02
01
E9
FF
01
05
F5
0C
05
03
00
FE
0C
04
06
FB
02
06
07
FE
FC
04
06
07
EE
F4
08
F9
FF
FE
07
F7
FF
01
F4
FC
02
F3
00
09
FC
0F
FE
05
0B
01
0D
F9
12
F4
F7
03
00
E2
06
07
F8
FF
08
F6
FA
05
09
F6
11
FF
03
F6
F6
16
F4
FB
FC
FC
01
F7
05
FF
FB
FD
FE
F5
F9
FF
F4
FA
FF
FE
F8
0A
FE
EE
FF
F9
0A
F2
FB
06
F7
0A
F1
EC
F5
00
FF
17
13
0D
18
FE
12
03
11
FB
FA
03
07
EC
FC
02
FB
F6
0C
FA
FC
09
13
F3
09
05
04
F4
F4
06
EC
00
08
00
FE
00
F0
16
F6
F2
02
09
FA
14
FD
FF
09
06
00
06
02
F9
FD
0D
0E
ED
F0
0C
F5
FC
FE
F1
FC
FE
05
11
1F
0A
18
FC
08
07
18
01
10
03
08
EA
F5
0C
15
F6
09
00
04
11
17
F6
F6
01
00
F8
06
F4
FE
FF
0E
FF
09
FE
F5
1D
FE
F9
0B
16
07
1C
05
01
11
0D
03
F5
06
04
14
0F
07
FB
F3
0B
F3
F2
05
FF
FF
07
00
0B
01
02
08
FE
08
01
07
FE
FF
FB
02
EA
F1
04
07
FC
02
F4
FD
06
10
F8
0C
FF
01
FA
F8
08
F1
F8
FB
FF
0A
F7
03
03
FF
F8
00
03
F3
0F
FF
FA
03
FE
0A
03
06
FD
06
F1
0D
EF
07
09
F8
0B
F9
F7
03
F6
04
0A
1B
FA
17
F3
00
05
15
09
0D
FC
02
ED
ED
08
16
F9
0A
FE
03
10
21
F4
04
03
0A
FB
02
F6
F0
F5
04
F1
03
FE
E8
25
02
FD
04
19
F7
23
0A
00
0F
08
10
F0
02
06
08
03
08
F0
F7
19
F1
F6
09
00
07
E9
05
01
21
E9
24
EB
EF
11
17
FF
16
12
09
F5
FC
11
2B
F3
06
07
06
08
15
F5
E6
EB
1B
02
0C
CE
06
F3
0A
EF
FA
03
E2
3A
0A
07
0C
26
05
2E
0A
FE
12
0C
0C
E3
03
10
20
FF
FC
00
EF
12
F5
F6
0C
07
0F
01
C2
04
FF
02
FB
FD
1A
01
FC
09
00
FE
07
FF
FE
03
02
FC
05
1C
FF
FD
F9
0B
09
FC
F9
E0
05
F8
02
06
FF
FF
FE
E7
01
F5
F6
08
14
01
00
01
05
F2
02
FA
F6
FC
1F
F4
09
F9
00
F4
F2
FB
08
FB
02
FA
04
FB
BB
02
06
08
F8
FE
13
07
FD
07
05
09
17
FD
F9
FD
F6
FB
00
FA
FC
FE
ED
23
04
FC
F8
D4
08
F7
03
F6
01
F3
02
FE
F8
FC
07
FE
FE
FE
00
08
04
FC
0B
F8
01
02
24
10
13
F4
02
F8
00
FE
07
FB
03
F1
00
FC
D0
06
04
06
03
06
09
03
00
07
FF
11
1A
F3
00
F3
ED
00
FA
CA
FF
01
F1
24
FA
FA
F6
E7
09
FF
02
FE
0E
FC
F9
17
FA
F1
1B
FA
DB
FD
FD
00
FF
FB
01
F6
FE
02
1B
26
06
FB
03
00
09
F9
0B
0A
08
FC
F9
04
9F
08
02
07
FD
FA
1C
05
FC
07
05
02
15
00
02
FF
FD
F9
06
25
07
FE
FD
2C
01
03
F4
C0
FE
F9
0D
01
0E
FF
FB
DD
FA
F5
F2
03
12
08
04
0F
01
FB
08
02
EF
F7
2D
F0
20
E6
09
F2
F0
00
0E
FD
00
FF
FC
FB
AF
FA
05
05
FF
FC
02
0B
01
0C
0C
1A
21
06
FF
F7
FA
FF
03
F6
07
FC
F7
39
FF
FE
FC
BF
08
FC
01
FE
06
F5
FB
F9
FE
FD
FE
F9
00
07
F6
08
05
11
05
FD
01
FA
2A
1A
21
FC
01
FC
05
F8
05
FF
05
FE
06
01
BA
00
09
04
FC
04
ED
0B
04
06
07
1D
35
F1
02
F4
ED
04
FC
B3
F9
06
F0
3D
FE
FB
F1
CD
0B
F8
FE
04
14
FD
FA
24
00
F3
12
F1
D8
02
FA
04
02
06
F8
F4
FC
06
31
44
0E
FF
F8
FB
0B
FD
00
FF
04
03
FA
04
B0
07
FF
03
FA
FB
1A
03
FD
09
00
F7
16
03
02
03
F5
FE
FF
1A
FD
FE
FF
2D
FC
05
F5
CD
FA
F2
05
FC
06
FC
FC
E9
FD
F4
F4
03
10
07
FB
07
00
FD
03
02
EF
FD
22
F8
13
EF
0C
F5
F6
FE
0C
F9
03
FE
FC
05
B5
FF
FC
01
02
F7
07
01
02
0C
04
0E
1F
04
FE
FA
FB
FB
01
F0
03
00
F6
34
FE
FA
FE
CB
01
FE
04
01
03
F7
F9
FD
FF
FD
03
FF
F7
01
FA
06
01
0A
FE
F7
F8
F8
33
19
1E
FE
04
F7
06
F7
06
FE
02
02
08
FF
BE
00
09
03
FE
FC
FD
06
0A
0D
05
14
1F
F6
03
F9
EC
FF
01
C4
FE
FF
F3
35
FB
FE
F8
D4
04
FB
07
05
0A
FE
00
21
04
F3
0C
FB
D8
03
FC
02
00
0F
F9
F3
F9
00
30
41
09
0E
FD
F8
09
FA
04
01
05
FE
04
FB
02
FD
FD
00
06
FB
17
F9
10
F9
F6
09
0B
F6
0D
FF
01
E6
03
F6
FF
05
09
09
02
FA
08
06
01
F5
F9
FD
FD
01
0D
FD
FC
01
FA
00
F7
07
FD
D6
FE
F9
F2
FE
F6
ED
09
FC
FA
EB
02
01
F2
F3
D9
FA
FF
FF
F1
F0
FD
04
0A
FF
13
EF
16
FD
01
F0
02
05
FB
ED
05
FF
F9
FE
FC
FB
02
FF
07
09
02
F6
10
FF
08
01
FE
FB
F6
FB
FF
01
03
00
F6
FD
03
06
F9
E7
F9
02
FD
0A
F2
17
07
00
03
F7
01
03
F2
03
E4
F5
FF
04
01
05
F7
03
0C
05
11
F7
F2
02
01
EB
07
F5
FB
00
FB
09
F4
0F
FB
04
04
F1
FF
00
07
0A
04
F8
0C
0C
01
FB
F8
FF
EE
0A
10
FE
04
FF
08
0B
00
10
08
11
08
0B
00
29
05
FF
01
FF
FE
0A
08
10
F0
FB
07
00
11
FF
03
F9
FE
FC
0B
FE
28
F1
0E
E6
F2
12
0F
EA
0C
F8
04
DA
0C
E8
05
03
10
0B
03
FA
13
14
00
F3
FA
05
09
07
09
F8
08
FB
F2
F8
F4
06
F9
C1
00
FD
F2
FF
E2
F0
11
FB
FB
E0
FE
FD
F1
F7
C6
FA
F5
FC
E2
F4
04
FB
13
01
28
EE
1B
F5
F8
E2
FB
03
FB
F4
01
FA
F7
E2
01
F9
FD
FF
0F
03
03
FA
15
07
06
01
FE
01
FA
F8
FC
FC
08
FB
F4
FE
FC
0F
02
D6
00
07
01
02
F0
2C
04
01
FF
F5
FC
04
EE
01
E6
FE
FB
08
F6
02
EF
F9
05
0C
2F
EF
D4
02
FF
D8
F9
E2
EC
15
00
0F
F7
0C
FE
05
07
00
F5
FB
0E
0D
18
FA
1A
1F
09
F5
F7
F1
DF
0A
0F
00
07
04
05
07
FE
1D
13
22
22
05
11
4C
03
FE
03
0B
00
05
19
10
F6
F2
0F
08
15
FC
0A
02
02
F9
FD
F8
1E
F7
06
E9
F6
0C
08
F0
0A
FC
05
E3
06
EA
05
FF
09
FA
06
F2
03
01
FD
F0
FF
07
0E
00
00
FC
03
FB
F7
FB
F8
08
00
C9
FB
02
01
01
E9
F8
0E
ED
FC
E3
04
00
F7
F5
D7
F9
F9
FD
E8
F8
07
FF
0E
FF
12
F4
08
F9
F7
DD
F8
FD
02
FA
06
F4
F5
E2
07
F1
FF
FA
07
03
03
FF
06
FD
FF
0A
00
05
02
F3
F5
F8
00
F3
F8
07
FF
0B
06
E4
F8
04
10
FE
F7
26
08
F7
FF
F6
02
04
FB
09
F0
F8
F7
04
03
FC
FB
FE
01
07
25
F5
DC
F9
02
E7
00
EA
F9
0F
FF
0F
F0
0D
02
08
01
F3
FD
FF
03
13
12
FF
19
1D
FE
03
FD
F0
E3
0A
00
FE
04
05
FF
02
02
1E
0E
22
0D
07
0C
44
FA
01
FD
0E
05
0C
13
12
F7
FB
0E
0B
14
0F
F6
F7
04
FE
0F
FA
04
0B
F3
F5
05
FE
F4
FB
0F
0D
FE
EE
F5
F4
F6
01
F5
04
01
10
F0
F9
FC
F6
05
06
FB
06
01
FB
02
01
FF
00
02
03
17
FF
F9
FF
00
FB
F0
FD
02
FF
FE
02
F5
06
08
F6
FB
FC
F1
05
E3
14
F8
01
F6
03
0A
F2
07
0C
F9
F3
03
F9
FC
0C
1D
F9
F9
F0
F6
F9
FB
FB
05
0A
FD
E9
FA
00
05
FC
0F
03
04
F8
14
04
00
F0
FE
08
01
F4
14
09
FD
FF
FD
FF
EC
F8
04
FD
FC
08
F5
07
03
00
03
0A
FA
09
EC
FC
03
06
F1
05
02
F7
F5
FE
F7
02
FA
01
16
01
05
F7
FD
06
FF
F6
F9
FC
04
05
0E
E1
F6
04
05
03
FE
00
08
FD
FD
03
05
ED
01
17
FB
EF
00
05
F5
00
0B
04
F1
F7
FD
FE
FD
05
FD
F9
01
FA
11
02
FE
08
FD
FA
09
0F
F3
05
06
18
07
03
F0
F5
03
01
F8
02
F5
13
0A
FE
FE
FA
F9
06
F5
FD
FF
13
F3
04
FD
FF
F5
01
06
0F
F0
FE
02
0D
06
01
F7
03
09
FF
FD
F6
08
18
E8
FB
06
FE
00
F9
E9
F8
19
F7
08
FC
F1
FD
F7
0F
F6
F3
FE
F2
EB
0E
15
08
12
EB
00
FC
E1
05
09
0D
07
D3
E3
F8
F7
EF
ED
00
06
FA
E9
02
F5
EA
16
F6
02
00
10
FF
0B
18
06
FA
F6
0C
45
F9
FB
FC
00
01
F2
09
0D
F6
FF
02
E5
0F
21
EE
05
FC
FA
FF
EA
FF
FD
EB
F7
F5
FE
00
0F
FD
1A
FA
06
02
EE
12
10
F8
EA
D9
F4
FA
00
FA
FC
FF
FE
E7
F7
02
EA
E3
10
FA
FC
F7
01
03
0F
F6
08
02
FB
06
24
01
07
08
F0
EE
F8
FD
06
F3
F9
09
F3
09
13
FB
FD
03
00
01
EA
E3
0C
2E
0E
0F
14
0C
04
0E
ED
FA
FF
03
0D
13
D1
FA
F8
3B
09
09
04
10
FD
03
0A
22
1D
F8
08
0C
E8
02
10
F0
E0
F6
F8
E6
FB
05
09
FD
D6
05
F8
05
02
12
FF
0A
FF
FD
F2
FD
0A
E3
F1
18
10
F9
0A
07
01
E1
0D
45
02
07
0C
1E
00
03
DE
FE
0B
FC
1C
15
CE
0C
19
39
F9
01
F9
0C
E3
FD
F9
28
08
F7
18
FF
E4
04
17
03
DA
FC
EC
0D
0A
FF
FE
16
02
0F
FE
F3
14
16
E5
E9
1A
07
F8
E6
EC
FC
E6
12
1C
04
EB
02
FC
05
02
21
F2
EF
02
15
02
FF
09
0E
FD
01
04
FC
F0
14
10
0B
E8
F8
F7
02
EF
FC
F6
09
F1
FA
FC
EF
F6
F1
02
06
F0
00
EE
1F
19
F7
EF
1F
1B
FC
04
F9
14
04
E0
E8
13
0D
08
EC
E2
09
FF
02
0D
00
EA
05
F5
19
EF
0C
01
04
F8
FE
0A
08
13
EF
02
FD
F2
06
14
01
FF
E3
FD
06
E4
00
EC
F9
09
05
05
F9
03
06
03
06
FD
03
09
FE
02
E0
FA
F9
F2
05
FA
01
00
04
D3
F6
08
F9
F4
06
F0
F7
F1
FF
FB
F7
07
05
FA
EF
02
31
E6
1D
0D
21
D9
09
2E
06
1F
FF
03
01
F5
EC
FA
06
00
F6
FD
12
06
FE
07
F9
04
13
04
EB
FD
17
EF
1B
F4
24
1B
F7
1F
E5
FA
F6
EB
FF
FD
E8
00
05
0D
F8
F5
00
F5
FE
D6
0B
F9
EC
06
F9
F9
FE
F6
EF
F8
F6
04
08
03
F4
22
FA
13
FD
EE
F6
00
06
F9
E9
06
00
10
F5
00
F7
1D
03
11
02
EE
FC
FA
FF
09
0A
FB
0B
07
F2
E7
F3
0C
15
FF
02
FF
FD
E9
FC
FA
F7
37
FC
F1
01
04
04
04
01
00
00
F9
FC
F8
F2
F9
06
06
2A
FA
12
FF
0A
F2
FC
1C
03
15
06
02
F8
EB
D9
FC
0F
04
F7
FC
09
08
08
17
F5
36
0C
0F
ED
FA
16
F7
0E
FA
13
0F
F6
08
05
FC
F2
01
04
FB
F9
05
EC
30
01
E9
00
FE
FA
EF
05
F1
E0
0E
09
E1
FD
F4
FE
F6
F1
F2
F7
F3
D6
2D
EC
FF
F2
D6
FE
FE
0A
02
F8
1D
01
0F
FD
FE
F5
39
F6
18
FF
0B
F0
04
0C
EA
FD
04
F4
02
DA
E3
FB
E3
26
FE
24
0F
F3
D9
2B
F8
F0
4F
08
FF
F9
01
04
10
FE
F2
F2
E5
05
F8
EE
10
26
FC
F6
F4
F0
F9
E3
15
00
CB
F6
D8
F7
FA
07
04
24
2F
FE
17
F2
0E
EC
03
F3
01
04
E2
EF
19
1F
0C
D4
F9
E2
07
D6
EE
FF
E3
EF
F5
25
05
EE
E9
16
F4
0F
D4
F5
40
F5
01
12
1F
0E
0A
EC
E4
E1
31
02
21
0D
05
EE
02
FC
F8
EE
0E
FF
FB
04
E6
F9
11
0E
F8
18
F5
06
F8
F1
F9
F1
FB
FC
F4
FD
F0
F7
0A
10
FF
ED
F6
04
0B
E6
EF
FD
FD
01
EF
16
05
EE
F1
04
FC
0E
0E
FE
16
ED
FC
FE
01
FF
FC
F2
E4
02
20
FC
FF
00
08
E8
F2
DF
06
F1
FE
13
D9
FB
F3
10
09
07
F5
1C
18
0B
01
EB
09
04
F3
EC
F6
01
DE
F3
11
0C
04
DC
FE
E3
0D
DF
FE
08
0A
F0
FB
27
02
E2
04
08
F8
1F
CE
F1
30
F2
F7
FD
0E
13
FC
F4
FF
EA
35
FC
FE
F1
F8
37
F9
09
08
27
E7
21
18
F5
27
1A
FB
F5
F6
D4
F5
0D
FB
0C
02
10
DF
04
00
FE
E7
0E
26
F1
06
1A
FF
F5
F5
21
11
06
15
E3
0B
18
F3
04
1E
F6
E7
F1
0E
ED
EE
03
F2
F6
DE
11
F0
DB
1C
E5
03
FF
DB
EC
EC
F7
0A
0D
FB
05
00
F8
F6
EA
0A
13
F7
03
F2
EF
0F
FD
ED
11
04
02
09
06
01
FF
0C
FE
0A
02
FB
17
FC
FB
FB
FD
EE
02
0D
F3
EE
F8
FB
F1
F1
FA
FE
FA
FF
FF
F0
07
0C
FA
05
06
06
FA
E8
F8
FB
0E
02
F4
01
F7
00
0B
F0
F6
01
12
F7
EF
05
0B
01
0A
01
F6
14
0A
FC
FF
FC
05
08
0B
FD
03
F7
14
0F
F6
F8
01
04
FB
01
F6
FB
FE
0C
03
F4
F7
F3
07
01
04
F3
FA
F9
03
F2
0D
FF
00
05
EE
03
FA
F0
FB
03
FD
05
F6
04
F9
F2
01
CF
FD
F7
26
0A
F6
F8
FF
07
0D
14
FB
08
0F
F1
D4
F8
07
03
01
06
FE
F8
1B
DF
FD
F8
ED
F7
FB
05
04
09
F9
28
21
FF
F9
FF
11
17
F6
F7
FD
FA
05
F9
08
F9
F8
FA
08
F0
FD
0F
02
01
FA
05
FD
12
F5
17
FF
05
06
0E
FD
F7
F2
0C
2B
FD
FF
F4
F7
0A
F9
F8
24
FD
00
08
0D
06
04
09
10
27
05
01
13
EF
FF
FF
FF
F3
FF
0A
E9
EF
EE
07
10
E5
F7
03
FF
01
F7
FC
FF
15
FC
01
07
11
F6
D5
04
FE
01
02
F7
02
FC
08
0B
ED
F1
00
18
F3
E7
0D
0E
05
FD
0A
F3
11
0A
0D
0D
FC
FA
13
FF
F4
03
04
14
0F
F3
00
F8
04
EC
05
F5
EE
FE
10
00
F7
FD
F9
11
F8
FB
E9
F9
01
06
F7
0F
06
02
F8
DB
0B
02
ED
F9
FC
FF
12
F6
0B
FC
EC
00
C2
04
F7
2A
06
F3
06
F2
01
10
10
F2
11
0D
F9
D9
FA
02
0C
F9
0C
00
F8
1B
EE
F4
00
F5
F3
F0
0C
01
FA
F7
2D
1E
01
FA
FB
16
13
F4
F4
01
0B
03
FF
0C
F1
F8
FB
FA
EF
04
16
F6
02
F2
0F
01
18
03
17
04
05
12
03
EB
FA
01
FB
29
F9
FA
F8
FF
08
F4
F2
27
FD
F2
00
0F
02
FD
05
15
2E
06
02
13
F1
03
F9
FA
FC
FE
FC
E0
F4
F2
0B
0C
EB
F4
0F
01
FD
FF
F8
FB
14
F6
FE
0D
0A
F9
DD
00
03
F8
FC
FE
09
03
05
04
01
06
FE
05
F6
F7
07
0F
05
F7
F9
02
12
00
04
15
FD
F4
01
03
F3
FB
09
10
18
00
FF
E4
FC
F1
FE
F7
EA
FE
0C
00
F3
F9
00
1C
FF
F4
EF
F9
FE
00
FC
06
11
FB
FC
EC
03
F8
E8
02
F7
FD
0A
FA
07
05
F1
02
DD
0B
F2
10
FF
F4
0C
FA
FD
05
0C
F1
10
06
FA
EB
02
05
02
05
FB
00
01
FE
FA
00
00
DF
F2
EE
04
08
F7
FC
17
0B
FB
F9
F9
19
0A
EF
F7
02
F2
00
04
02
FE
FD
F4
F5
EC
FF
04
FE
F4
02
05
F7
01
F7
F2
EB
0F
E7
0C
F6
05
FE
F8
F5
FA
FD
02
FD
10
F8
FB
08
0C
FF
06
F9
12
FE
F1
E8
07
FC
08
00
FC
FF
15
F7
18
03
04
F7
03
FF
02
0E
F1
FB
F3
04
0A
07
F3
F5
F7
04
01
FF
F2
FE
F7
FC
11
FD
01
00
FF
0D
FB
E4
11
DF
1A
F3
05
02
0C
F2
01
02
05
01
14
FC
FB
0A
F1
F7
05
EE
14
04
00
F7
06
00
FE
07
08
F5
13
FB
11
FA
FA
F1
FB
07
03
FB
FF
EC
05
0F
FE
F7
ED
F9
F1
FE
01
FE
FB
0B
F5
F9
05
FB
01
01
01
0C
FC
F5
09
ED
0A
FE
F7
01
24
09
05
FC
06
02
FC
FB
FF
03
EA
EF
03
E2
10
F6
0A
FE
05
FD
FD
FE
03
FF
04
01
FE
FF
E9
00
F9
F9
08
FC
0A
FE
06
03
01
FF
FB
F1
F9
01
F9
01
0A
05
F9
09
F7
0D
FF
FD
05
08
F4
DD
08
E8
15
F7
08
FB
FC
EF
FA
03
FB
02
14
F3
F8
FC
F9
0F
0F
F9
FF
10
04
F2
0C
FC
0A
09
03
FA
19
F6
11
FE
FF
EF
FE
11
05
08
F7
04
FE
00
FC
01
F0
04
F0
00
F4
09
04
05
FB
00
0B
FD
10
0E
04
23
F2
E3
05
E0
1E
F4
02
FC
11
EB
EF
04
FC
07
18
FC
F7
07
E1
08
00
E9
FD
06
1C
06
02
04
01
11
0C
F7
15
FC
0C
FA
E7
F0
02
0E
08
F4
02
01
10
04
FE
F9
EF
01
F0
FE
F4
11
08
05
FD
FC
00
F6
06
0A
FB
15
F9
FB
00
F5
07
00
FC
04
1F
04
FA
04
07
0C
F4
FE
FE
09
DE
06
FD
E9
08
FB
24
03
FF
00
01
0D
FA
05
02
08
FE
FC
E4
FA
FE
F9
0B
E6
0F
16
0A
F6
0B
FD
FD
FF
F2
09
F0
0F
0A
01
02
05
F3
FE
05
00
03
05
03
F7
0C
F7
0D
FB
02
FB
0B
E5
F9
F6
FD
04
06
F3
F3
EF
F5
0B
03
F1
F8
03
02
F3
0A
FE
07
00
01
FC
04
03
09
F9
01
FD
FE
00
06
00
04
0D
01
F6
FB
FF
FA
14
F3
FF
F4
0D
07
FE
00
FF
06
F9
08
05
06
1E
FB
F8
0B
EE
0C
FB
F5
F9
12
EF
EF
FD
FE
05
0F
F8
F1
FB
E9
0D
06
E5
FA
FE
16
06
02
FE
FD
02
03
09
01
04
0F
F4
F7
FB
FA
FD
08
F4
FF
0A
0C
FD
FA
F9
F3
12
F5
01
F6
14
06
F9
07
03
FF
FA
08
FA
08
00
FB
03
02
F5
FB
03
F4
F4
12
FE
F4
FF
00
12
FB
F4
F3
06
E6
06
00
EA
02
05
19
01
01
00
01
FF
EF
10
FC
07
08
F6
FA
FB
FB
F6
FF
E6
03
11
03
FD
01
05
0B
03
F7
0E
FF
0D
05
F1
13
01
FC
FA
00
FB
FC
F2
15
13
F2
F1
F7
FD
FC
EF
E7
EF
F8
F2
02
FC
F6
FE
F7
E5
07
FE
F4
02
F0
08
F4
FF
09
FB
FD
FB
00
13
08
08
FF
F9
FE
FB
FD
F1
F4
FC
F1
01
F7
00
D9
F5
1D
09
F6
FC
FD
EE
0D
FA
02
F4
F4
FF
F4
FF
07
EC
12
FF
EF
04
04
FA
05
F4
F3
EC
F8
0E
0B
00
EE
0E
F3
DE
F8
03
FE
03
EB
FB
F1
ED
FE
F8
06
FA
03
0A
08
EB
EE
01
E4
1C
F8
01
03
F9
E4
22
F8
F0
13
F4
12
1A
F2
F7
FF
FF
F9
FD
07
05
FD
02
EF
0D
2C
1C
F4
D2
F2
F8
0B
EC
07
F4
03
FD
FB
06
EF
F7
14
05
F6
FE
E4
01
FE
F2
0B
FA
0A
F7
F5
FC
03
1C
20
ED
FF
EB
0B
FF
F1
0A
02
12
04
02
EB
1B
05
FE
22
F1
E8
E7
EB
FC
FD
17
0B
FD
04
FB
05
08
03
19
0C
07
FD
1B
04
02
EB
EA
0C
EF
0C
01
FD
FC
F6
DA
01
FD
03
07
09
F6
F6
F7
FB
04
F3
1B
19
F6
08
00
FD
10
01
1D
05
FD
17
F1
F5
F7
F3
06
ED
E4
02
0D
F8
F3
05
FD
02
00
F6
F6
16
02
11
F7
FC
05
EB
F2
FD
EB
21
32
23
06
F2
F0
0A
F4
06
EF
09
01
09
F7
DC
FF
F2
CD
0A
0C
F3
02
F3
F3
F1
0B
24
EE
05
ED
ED
12
F8
12
EB
00
1E
EA
F8
FC
F9
01
E4
F9
E4
03
EC
F9
51
27
0A
05
FF
ED
0D
F5
03
ED
E7
0C
EC
F4
0E
FB
0D
06
0B
F6
16
FC
F5
EE
FE
E7
01
05
0C
0C
F7
08
F0
CF
F8
FE
03
F5
FC
FA
06
EA
06
F8
0C
F7
00
F2
FD
D3
E4
00
FF
0C
F5
19
06
FD
D6
21
F4
0C
F9
FF
3A
1E
FF
05
07
09
07
07
09
FC
0C
06
07
01
20
17
05
01
FE
00
FC
F5
F1
01
01
0F
03
02
0C
F7
E9
0B
04
2B
07
F0
04
00
FF
FF
05
00
F6
FC
EF
0C
FB
06
08
04
F7
04
DC
0E
07
F3
10
FA
F6
16
06
0A
1A
01
D8
DE
07
F2
F8
08
16
10
F9
FD
15
15
FD
07
2F
10
15
20
0F
0B
D9
E3
26
F2
04
14
13
08
0C
F0
DF
F8
F9
18
08
F4
FE
FF
00
F9
10
08
0F
F5
EE
07
F0
21
FB
39
03
03
04
F5
08
F6
00
0A
EF
FC
E8
ED
18
FB
0E
E1
0A
F0
E8
EB
20
FC
02
FB
0E
1B
E8
FF
08
00
0B
0E
20
0F
FC
EE
13
F0
FD
FF
02
FE
09
FF
E5
05
F4
EA
FA
F9
FD
F6
F3
F5
03
FD
17
FF
FD
F1
F1
0E
00
0D
ED
FE
11
F8
FE
07
01
10
EA
08
F6
EB
FD
ED
31
14
0B
F9
F0
F0
16
05
FB
F7
01
0B
F2
FE
17
FA
09
F3
F9
F0
F7
05
FE
02
02
F3
FF
DE
16
01
EA
FD
04
02
02
E5
FB
04
F8
02
F8
FE
01
2E
02
10
FC
FA
02
F3
05
0A
04
FC
F7
FC
ED
EB
FA
03
F6
FC
02
01
0A
06
0B
12
F9
03
FF
04
06
07
07
F5
01
FD
FC
FB
17
F4
F8
F9
00
04
06
F7
F5
EF
F5
B5
E2
05
FB
05
01
FC
09
FC
08
00
03
EC
FE
FF
FE
50
F9
0A
03
FD
03
ED
FE
F2
05
01
FF
F9
F2
00
03
F8
FC
01
00
FD
FB
03
29
07
E6
F5
03
01
0E
03
FC
F8
FA
F9
FF
04
15
05
0D
00
09
F5
08
FC
FF
FA
F6
05
B9
03
03
F9
00
F2
01
08
00
0A
0B
F6
04
01
F7
EB
FE
F6
09
03
F7
01
10
F4
01
F3
0B
04
07
04
05
F3
F5
09
05
02
F5
02
18
F4
08
F8
FD
07
0E
F9
FA
FF
09
00
FF
F7
FB
F2
02
F6
02
05
FA
01
04
EE
FB
BB
31
FE
EF
F8
FB
14
06
F5
FF
00
F9
00
FE
01
FB
4C
00
09
04
02
0C
ED
07
02
08
07
F0
FC
FE
F8
FC
FD
F2
03
F2
07
FC
FF
03
0D
D9
FD
FC
06
02
02
04
F4
FD
FD
02
FF
F9
04
FC
04
08
F7
F3
FB
05
F3
F8
EE
FD
FE
FB
F8
FC
02
0B
13
FD
0B
F8
F7
03
06
07
29
F1
FC
04
00
06
F5
F9
F4
01
05
00
F4
0B
06
FF
F9
F3
0B
F8
FD
FE
FC
04
F8
F5
E9
F6
FF
FC
02
FA
04
FC
F7
06
02
0A
08
06
03
09
EA
FE
FB
02
02
FF
47
BC
02
FD
03
FF
F5
01
05
F7
0F
FE
05
FD
FF
00
AB
01
ED
0A
06
F9
04
03
F2
F6
F2
08
F8
F6
0B
01
08
00
FF
FF
F8
F5
F6
FD
EF
34
00
F9
05
F8
01
08
F6
FE
0A
01
F7
EA
F7
01
FE
06
01
02
00
06
07
F6
E7
25
FA
FC
FA
FF
08
00
03
03
0B
FF
09
FB
03
FC
1C
FB
F9
07
00
0D
F9
00
00
FD
0E
08
F6
03
09
FE
00
FE
08
FE
FA
FD
FB
F0
07
EF
E9
02
FD
FE
FF
01
FC
FA
05
01
FA
DD
FE
09
0F
FE
F3
FD
F8
06
07
00
46
2C
F4
02
F7
01
05
0A
0D
03
09
FB
0E
00
FA
FD
D6
F7
FF
0A
FE
0A
FB
FC
F7
FF
FF
08
F8
14
04
FC
FA
F4
FD
FB
F5
01
F9
C1
F8
0B
EC
FF
F8
EF
FA
01
FF
F8
0A
F8
09
FB
03
03
01
05
EF
F4
F9
FE
03
FF
53
FD
F9
F7
0B
01
FC
FF
F9
04
08
E8
0B
09
01
F8
AC
0F
F9
09
FF
04
FD
FC
F0
FE
F8
F3
FC
F5
00
FB
08
FF
EA
FC
FF
F6
F5
DB
FF
28
1A
06
FF
FB
00
04
FC
05
07
FB
09
14
FD
FB
0C
18
17
F9
1A
07
FE
10
0C
07
1A
FE
0A
FF
EC
0F
06
00
1D
F6
02
F1
F5
17
0D
F9
E7
09
FC
06
FF
FA
F7
E8
FA
01
F0
FE
05
00
27
0D
FE
12
06
0A
15
0F
03
FD
F8
04
0F
E0
02
0E
F6
F3
0E
12
0F
09
F6
EF
08
1F
1A
F7
02
FB
F4
04
1C
05
2A
0B
19
FE
F3
13
03
04
1E
EE
01
F3
F5
1A
13
05
E2
23
F1
0B
F0
F6
F4
E1
09
FB
00
FC
EE
FB
3A
14
FE
06
01
10
0A
11
0A
01
F8
05
18
E9
FE
25
00
E1
16
18
0F
F4
EB
E9
02
06
19
06
02
09
F5
04
13
FE
15
0C
17
04
F4
08
03
03
1C
FC
0B
FC
02
15
0E
0D
E8
11
F2
08
FE
09
E9
F2
0D
FF
F0
FC
F9
03
24
1A
07
12
06
FF
00
07
0D
0A
F4
FE
11
00
03
1C
F5
E8
00
18
08
FE
16
1B
11
EE
12
03
DF
F6
FE
CB
FE
FF
10
02
E6
F9
EE
F7
EE
FD
F7
0C
E9
34
F3
08
F6
F8
F9
F0
0A
F0
12
F6
FA
1F
FB
F6
0F
F5
F7
F5
F3
FA
06
F3
FF
F1
F4
FE
EB
08
DF
0A
E5
03
03
01
E1
06
F4
E1
F9
F4
05
4A
08
ED
1C
12
DB
F5
05
C1
F7
FB
1D
1B
C2
F4
E6
E7
F5
FF
EC
1B
F5
43
F5
19
EF
E8
EF
F4
18
F1
FE
F1
F6
2F
F2
ED
1C
F6
F7
01
F0
DD
00
FB
EC
FE
0D
F4
EB
FF
E4
1C
EA
02
F3
00
DA
0D
EF
DC
08
F5
01
28
F4
01
12
12
01
F7
0D
EA
F3
F1
09
2A
D2
F6
F3
F3
F2
FE
02
02
F7
34
F7
09
FD
E7
ED
FD
0C
EE
F6
01
F3
19
FF
F0
1C
F1
EE
FA
0D
E6
00
00
EF
FF
04
F7
FD
04
E8
10
F2
FA
FF
FC
D9
0A
EF
FE
0D
FD
04
F3
F3
1B
EA
F1
03
0A
FB
F9
F2
01
EE
F9
FB
04
06
0F
FD
0F
07
0A
EF
12
07
02
02
05
06
E6
08
FB
0B
E6
01
1F
FC
01
FD
09
F6
EF
FD
FE
0A
FF
FA
ED
F5
09
F7
0F
F4
01
FA
03
04
F3
18
0C
ED
25
F4
02
13
07
FA
35
E4
FE
05
01
0D
FC
EC
10
F8
02
D7
0D
0D
06
EE
FC
04
10
E2
21
F6
ED
F5
00
18
EB
19
F6
14
D2
01
27
0D
FE
01
0B
FF
EA
02
E2
F7
19
F9
ED
EE
F8
FD
0D
EE
FD
F7
01
F0
0B
10
01
F0
31
0F
F6
FF
02
F2
20
E8
E9
10
0C
1C
0E
EE
06
FB
06
EC
0B
FC
FA
F9
F5
0B
F8
F1
12
06
F2
FD
F6
0C
06
11
F6
06
F6
04
0F
01
F6
04
02
05
EE
0A
EC
01
F4
F9
F2
E8
FF
07
0A
F2
F3
01
F5
F5
0B
0B
F7
F1
1E
29
FF
F0
10
09
F3
F7
0C
09
16
FB
11
FF
F1
F6
18
0C
01
E5
01
05
FF
F9
0B
FF
FC
0B
0F
F8
08
06
14
EE
05
0D
1E
02
13
DF
F5
04
FD
11
FA
FC
01
0B
E7
00
FA
FF
F2
01
F0
05
F2
0B
EE
F8
00
09
06
01
0E
22
F6
0D
01
0C
FF
EF
03
06
20
00
07
F1
F6
00
13
F6
FC
EE
0F
06
FD
FD
FA
00
0E
01
10
F2
01
F5
06
F8
F3
0D
0C
0F
09
D6
EB
05
F7
F7
F6
F7
01
0A
CA
02
17
ED
F6
FF
F1
F8
FC
10
F8
F6
0B
03
00
04
1E
F8
F7
14
05
00
0D
F9
05
F4
04
ED
F8
F9
04
07
07
F0
FB
EA
0C
F4
02
F6
01
FE
25
E7
05
FE
07
EE
06
FD
F5
05
F1
0B
FB
F3
F0
1B
F9
F5
02
FE
F7
00
E2
0B
07
F7
07
07
F7
FF
00
06
F6
06
01
0C
14
0A
0A
0A
18
00
E0
05
06
19
FE
03
EA
FD
FC
05
0A
00
FF
07
10
18
F9
F7
0A
F9
F0
02
FB
03
EF
08
EB
16
0F
05
02
F3
EE
04
E9
26
0C
FD
06
F6
E1
10
15
F5
30
0C
DA
EB
10
F7
12
F4
E7
0F
ED
17
FA
E9
E1
05
03
43
F6
D7
F2
DB
FF
0E
1F
10
0B
0C
10
0E
FA
DE
39
10
0C
10
E1
0A
00
FD
FF
00
EE
32
F0
04
EB
2D
2E
E3
01
00
14
FE
F8
00
08
F6
05
11
E0
08
17
F9
41
04
CB
F2
FA
F2
0A
00
D1
20
FA
05
F4
E4
CA
FA
F0
48
E6
CB
0D
F4
FB
11
23
10
20
0E
16
00
F9
E9
43
08
03
FF
E9
15
00
FE
00
06
F6
20
08
00
FB
0F
2B
DC
F2
1B
2A
01
11
DB
FA
F5
02
14
F7
03
0B
01
14
FD
EF
FA
F2
FF
F3
04
DE
21
FF
F0
EA
FD
E3
08
FC
C1
FB
04
1D
14
FD
F3
FD
FA
F1
05
FA
FF
03
0F
E8
EA
F8
E4
00
F1
EE
FB
FB
FE
0E
E1
0B
03
03
DA
E8
1B
0F
ED
D3
00
1F
F3
FD
01
FD
F3
13
F4
FD
0F
DB
06
2D
12
FF
00
0A
0B
FF
F9
15
08
12
04
1E
ED
02
B5
12
30
28
14
FF
EE
F2
F7
E6
F3
F6
03
13
21
D4
EA
05
F2
0A
EC
EE
F4
E6
F3
08
D4
02
00
FF
E6
CC
2F
11
E7
A3
F3
1C
0F
F2
02
0B
E2
F1
00
F6
FF
F5
12
20
1C
0F
F8
07
07
EB
F1
F4
22
0C
08
15
D6
07
FA
0F
26
F8
FE
11
FD
E7
00
F3
EF
FE
F8
0A
13
EA
F7
04
01
F8
F3
F2
FC
E6
EF
F4
EE
FA
FE
FF
04
EB
21
FE
E1
CA
F6
0A
1D
F4
F4
08
EE
EE
06
04
02
1E
06
05
00
05
FA
07
FD
EA
FD
F5
03
0B
0A
05
F3
10
08
FE
05
10
15
03
03
00
04
08
0E
EF
FC
EF
0C
06
FE
03
EB
EC
FD
00
F9
08
0C
0A
FB
07
F5
00
E9
04
03
EB
0F
F9
05
04
04
FA
F1
FC
07
FE
07
02
F3
04
FB
F9
EF
F3
00
F5
0B
FF
08
EC
F8
0B
EA
08
0F
0B
13
EB
F5
0B
05
FB
02
F9
E3
FA
FB
EA
FD
F0
09
1C
F5
13
FA
F3
F9
FC
DF
06
07
0A
05
06
03
FF
FB
11
FD
F1
F9
10
04
12
05
00
09
F0
10
05
03
01
FF
0B
FA
EB
E8
F6
FD
F5
EC
02
00
00
F2
03
E2
07
FD
EB
EF
02
10
0F
FD
1A
F9
02
EE
EE
E5
F4
01
07
F5
11
F3
0A
09
03
FF
02
EC
17
04
14
01
09
03
FD
07
00
04
09
F5
EE
03
0D
F7
0C
1F
F5
01
01
F5
E2
FF
0A
06
E6
04
00
04
0D
F1
04
F5
02
F5
DD
0E
FF
F4
F8
02
F2
FB
0C
12
0D
07
FC
EA
F9
FD
F5
FF
E8
03
12
F4
11
EF
EA
F6
FB
F5
08
04
0C
FF
08
05
04
F6
15
FA
E7
FA
0E
FC
0E
0A
F9
11
EE
09
16
05
F7
F6
08
F4
EC
FC
FC
00
F4
F6
02
02
F5
DE
02
E0
10
09
FD
FF
ED
F0
F4
F3
14
FB
FF
E3
EB
E1
FE
0E
F2
F8
09
18
19
F8
EE
05
F6
F2
06
08
03
FD
0D
21
02
1F
2E
DB
FE
EC
0C
03
0C
01
0B
1F
E5
00
1F
02
E7
02
09
FE
CA
11
F3
07
01
E5
0F
F1
05
ED
DF
16
03
F2
EB
E2
06
1C
F8
EE
20
F6
14
DE
F6
CE
15
0B
1E
F1
E8
23
05
29
02
09
F8
F3
11
F7
F7
E7
E9
14
07
0E
EA
EE
11
EB
ED
01
FE
DE
18
26
F8
E9
F8
1E
D1
09
0D
0C
F7
32
07
04
0D
02
03
F4
08
0B
EC
54
E7
F1
EA
16
FF
08
FF
14
0F
F8
0A
03
09
EB
06
02
F3
F6
FF
04
09
F7
F7
FA
F8
FB
F6
05
FF
FE
FB
00
FC
FB
16
FE
FE
FE
0D
FC
FB
03
00
FC
EE
01
14
FD
FE
FE
08
FA
E8
18
FD
F5
FC
EF
FF
00
04
F8
FA
0D
06
FF
FB
FA
00
08
E9
02
0F
F1
04
F6
FE
D4
15
0D
08
F2
E0
2F
03
01
02
FD
F5
15
FB
09
EA
F0
F2
0C
00
19
07
E5
0D
FA
05
F6
EF
F7
01
09
FC
FC
17
14
E9
0E
00
FA
F7
38
05
F9
F8
FB
07
FE
0D
FD
F5
4A
F1
F6
F4
E4
13
1E
06
F0
04
EC
05
E0
FB
E5
0B
01
22
E9
CC
32
F1
1D
0B
07
F7
08
08
FA
E4
D3
EC
0C
00
FA
E2
ED
1A
F0
F0
FE
E8
E9
07
06
FC
F9
0A
2B
E3
0C
ED
03
1B
31
14
FD
00
0C
FC
F9
0E
09
09
51
E5
FB
F3
FE
FD
01
F9
07
FF
07
0F
0A
F1
F0
FF
FF
EE
04
05
FE
03
F0
F8
04
F8
01
FB
02
02
14
F9
FC
F6
FB
FB
15
FB
0D
FD
F4
05
05
01
FA
00
07
0A
F6
08
FF
FB
05
FB
07
F6
01
F9
FC
04
00
0E
F9
FC
00
F7
01
F0
FF
FA
02
FA
06
FA
03
12
01
FB
EB
03
F9
F4
0D
0D
07
FB
E9
F9
01
F8
FD
F6
02
01
10
EB
00
F7
EF
FC
16
FE
11
0B
F9
00
0D
F9
F9
FF
09
21
03
09
00
F7
00
0B
16
FD
FC
FF
FF
EE
01
13
FA
F9
03
FE
0A
EB
FD
FF
F4
F1
00
FF
FB
02
00
13
F5
08
04
FA
1B
09
00
F4
EB
F3
FF
06
02
00
0E
FD
EC
F4
03
FC
F9
0C
11
FD
EE
08
06
00
F1
FB
FB
01
F9
15
13
03
FF
F5
F5
F9
0B
03
00
FB
08
FB
02
03
0A
FB
10
00
FA
FF
EE
04
2A
FB
F8
07
0D
00
09
F4
FE
02
01
0A
F7
F4
FA
07
16
F5
03
00
0A
00
FB
02
11
0C
F9
FF
0A
F7
07
F9
FD
F2
F7
01
F0
04
03
06
F9
F2
FB
01
FE
FB
02
EF
F0
09
0B
FC
F4
1A
F4
01
12
04
07
F0
06
03
E8
0E
42
05
FB
FC
0B
05
06
DF
FF
FD
FD
10
EF
E8
0E
12
20
F0
03
FC
FD
F5
FC
05
30
FB
FA
04
03
EA
07
04
0F
F2
FC
FF
0F
09
07
FD
04
FE
F4
05
F4
FB
13
F9
F9
08
02
07
DC
0B
F0
08
07
09
00
EA
03
FE
F7
FD
35
09
FF
F4
02
16
01
FD
01
F9
01
FD
F0
F5
07
0A
05
EB
FD
F3
FE
FC
FE
06
30
F6
F7
05
EB
F9
07
FE
05
FE
03
01
14
09
F4
F6
1A
1E
F4
05
F2
01
10
FE
09
03
04
03
E7
EF
09
07
FA
FB
FF
F7
FD
F6
0A
F6
E1
02
F0
02
E5
FE
01
15
10
06
FE
F1
F9
0F
05
03
F4
F7
06
02
02
FF
FF
00
E3
03
02
03
11
15
0E
FA
F3
0B
FC
FD
F9
00
F5
FF
09
09
0E
01
0E
F5
EF
03
07
F0
02
FE
1E
05
0F
F7
FA
F9
05
0F
07
09
FD
00
05
09
F8
07
D8
FC
06
02
0B
11
02
FB
FC
0E
02
FD
16
F5
07
FF
05
F2
07
F6
F4
0E
FC
04
17
04
20
0C
F4
04
FC
F4
ED
FB
FF
0A
F2
FD
19
FD
0E
E9
EF
F6
FF
F5
FF
FA
12
1E
0B
FB
0C
01
0E
07
02
08
F5
06
28
0E
FD
07
D5
F8
F8
E6
05
05
02
14
FE
F1
08
04
1F
F2
FF
F0
0C
E4
06
03
03
FC
06
0B
0B
ED
21
11
F8
FC
03
F6
F5
FD
FD
FE
EF
F8
08
F8
FE
F5
00
EC
FB
FF
05
F6
FC
18
04
F0
14
07
0C
F8
FB
FC
06
05
E1
04
F0
0C
FE
E7
19
07
F3
13
FE
FC
07
FB
0F
00
FA
E9
FC
01
04
04
03
18
02
FB
FF
F5
F8
04
E4
FF
E8
01
FA
F9
09
01
06
00
02
00
13
11
FF
05
05
06
FD
03
04
F9
FC
04
00
F8
0F
FC
F5
09
04
05
09
06
F2
FC
F5
F6
06
E6
16
02
F5
15
F6
F6
03
EF
17
08
FA
F7
F8
EE
FF
0E
FD
0E
FD
05
06
02
07
F6
F2
FB
F0
05
02
06
05
FC
01
0A
03
F8
0C
14
0E
FC
05
11
F0
00
00
0E
03
05
F4
04
0F
03
F5
00
ED
03
FE
02
0A
FA
09
F6
0D
FC
0C
04
F4
09
05
05
FA
E7
03
01
F8
07
02
EC
0C
06
F6
FA
03
FD
01
03
07
EC
04
FB
0A
F3
08
07
0D
04
FF
05
01
F9
04
FE
FA
0C
FE
0C
FF
05
FB
00
04
FB
F2
00
FF
FF
FB
F4
E9
06
FB
02
EF
02
F6
03
FA
E5
14
01
F8
0B
02
01
0F
F0
0C
03
FB
F4
FE
F0
03
07
02
13
07
FD
02
00
05
FF
F1
03
EA
05
FE
03
FE
00
00
01
00
00
0F
0F
05
FC
07
09
08
00
09
FE
FC
0B
F7
00
17
FB
F3
06
F1
FF
01
02
07
06
04
F2
03
F6
10
08
FC
09
F9
FE
FE
F0
13
05
F7
08
FB
E0
0B
09
FA
0B
FC
FF
00
01
10
F6
01
FA
F8
0E
FF
0E
01
FB
FC
03
FC
FD
05
09
0F
F7
04
0A
F6
FD
F5
09
FB
09
F2
0A
11
F9
06
F5
DE
FD
FA
08
21
02
16
E1
0E
1B
04
0E
02
FF
07
03
F7
E4
04
FF
F4
11
09
E5
12
0B
F4
F7
F6
02
F5
05
00
E7
1D
FC
15
F3
01
04
0A
06
EE
00
01
F5
F8
F9
FA
F3
FC
12
FA
06
F9
F6
03
01
F5
00
FF
F3
09
E4
E0
FA
FA
05
0E
0E
09
F8
FA
F3
05
F6
FD
FE
02
03
FB
E8
01
0A
FD
05
00
F3
01
FA
FE
14
03
02
01
01
01
F4
0B
09
FD
04
FB
00
FC
FE
FA
02
04
01
02
00
F6
01
0D
00
0D
00
FF
FE
F7
FF
EC
FC
10
FE
F8
FA
F3
07
FD
09
13
0A
05
EC
FF
12
0D
06
07
01
F7
0E
F2
E9
07
03
00
0D
02
E8
0B
FC
FF
09
F9
0B
F7
FF
04
EE
0C
01
10
15
FC
05
04
FB
F6
FD
FB
FA
FB
00
FE
F1
07
FD
FE
FF
F1
FC
FA
01
F4
03
0F
FE
09
F2
ED
02
F8
02
24
11
13
D7
FD
2B
EC
07
0E
F0
01
09
F9
EA
03
00
04
0F
0E
E5
0A
04
F7
03
F3
0C
F4
04
FD
EC
28
FB
1E
FD
F9
0C
08
07
E6
F9
04
FD
EA
FB
E9
EE
0A
0D
F4
FF
FB
F2
FE
02
F7
00
FC
F5
0C
E3
EA
EA
FF
00
FF
05
01
01
F0
05
0F
F4
01
FA
FE
05
F8
FA
FC
FE
06
EF
F8
06
FE
F3
F4
0D
01
F1
08
FC
F7
E8
15
FA
F5
F6
FC
F8
04
06
01
02
02
FC
03
04
00
FD
FD
05
F4
FF
F8
06
03
02
FF
07
07
00
07
FE
FF
FB
ED
FF
10
03
0A
01
F5
FB
F4
EC
1C
F6
05
0D
03
E9
F2
04
1E
FF
FC
00
F6
FB
F7
14
E6
F1
FF
FD
06
E3
3E
06
F5
EE
02
F8
0D
FA
F0
03
03
07
FE
FF
FD
04
05
F1
EF
FF
F6
0A
04
FC
E9
03
19
05
F8
F7
EB
F0
0E
F9
0E
1B
08
F1
05
FD
04
F7
0F
07
0A
0E
FE
F3
FA
03
18
FA
09
E8
F7
F2
FF
FE
FB
0F
FA
FB
19
08
2E
05
12
04
FF
FF
F1
FC
EE
04
07
06
FA
F3
F4
0A
F9
FA
07
0C
F5
FC
FD
0D
FB
F1
0F
F9
FA
E6
FA
E6
13
F1
F7
FE
F3
F8
01
08
12
FE
FD
08
06
F8
EB
23
FE
FB
EE
F2
05
0F
F5
FD
FB
FA
32
FF
F8
02
F9
04
FB
F3
00
0F
00
0A
F9
0C
F4
FF
02
04
07
08
04
F6
F6
13
08
FB
12
FA
04
05
10
0F
F6
04
05
F4
0C
15
FE
03
0E
F5
17
0C
FD
00
12
F0
FC
FD
F9
EB
F0
10
FF
FD
EF
01
FD
12
FC
F6
ED
03
19
E6
FD
07
F6
F1
2E
FD
FE
F9
EF
16
04
FF
EE
FD
06
0E
0F
0B
11
E6
0A
0E
0B
FB
03
0B
0E
F3
F4
1D
FA
0D
00
08
F8
31
E1
1A
20
F4
19
F5
F5
F2
06
F3
FB
00
F9
05
F9
E2
F3
F1
FB
12
FB
08
FF
03
F9
0C
DD
DC
FB
F2
0B
E7
53
0F
FE
EE
F6
18
0D
F2
DF
0C
F1
09
02
F8
02
02
14
FA
13
02
E9
00
02
FC
E6
0F
03
13
F9
10
EA
15
00
EF
01
02
F3
FB
13
03
FE
01
FC
06
00
08
10
10
02
F9
02
FB
F4
01
01
0F
FF
F7
06
15
09
F5
08
03
13
F3
F6
01
03
00
F0
01
F6
FA
F8
E0
04
FE
F3
FF
F3
FC
01
FB
01
F0
F8
05
F8
F2
FC
F6
F1
00
02
F2
13
EF
EE
F1
DD
13
07
0F
1B
0B
F0
0D
07
F1
FF
23
07
07
FE
E6
F6
0A
FD
04
02
F7
35
0A
03
08
FE
17
F6
F5
F0
16
FD
ED
E7
0A
F8
F4
07
EC
0C
12
FF
F8
EF
05
FD
00
0C
F6
F8
04
07
FC
FA
FE
FA
00
05
0D
F0
04
07
F8
F5
09
FD
00
15
F7
FF
08
00
FD
EF
0E
08
06
FD
01
FA
0C
01
07
01
05
1E
FC
FD
0D
F3
01
0A
07
FB
05
F0
03
03
05
F8
FB
17
F6
FF
15
06
F6
06
16
F4
0D
08
00
F5
FC
FD
00
FF
06
FE
08
07
13
06
FC
F9
F7
00
0A
FD
FD
F5
03
02
FB
00
FB
07
01
FB
FD
08
F9
FB
F1
FD
FE
01
05
FC
F6
04
09
F8
FF
01
F9
FC
FC
07
F9
04
FF
0A
04
F7
0A
FB
00
FD
01
D1
04
F1
02
FD
FD
09
0A
FE
04
E3
0A
FE
FD
0D
FE
0C
F9
06
FB
0F
0C
FB
07
FB
14
04
FA
01
FB
08
00
FB
04
09
F1
FE
DD
06
09
F8
12
11
F4
02
0B
FF
0B
02
00
FB
EA
08
FF
0A
01
0B
03
F3
13
F8
FD
04
07
C4
FD
FA
06
FC
F8
0C
12
FF
03
DA
F1
03
FB
00
08
12
06
0A
02
07
06
FF
FC
04
0B
01
FE
0A
00
07
EA
00
04
02
F7
FD
E5
04
09
03
10
08
FB
FC
09
03
08
0A
FF
01
EF
02
08
04
04
FE
0A
FD
16
00
05
03
03
DB
FC
0B
03
FA
FB
0A
0B
FC
F9
E7
FB
02
F3
F3
07
10
02
FA
F8
04
0C
FC
FC
08
0C
04
F9
02
00
0E
F3
03
FF
01
F6
FF
E2
09
0C
01
13
0B
F3
07
03
FF
0B
02
FC
F8
EA
09
FC
0D
FD
08
02
F4
12
FE
01
FF
FD
BD
11
00
03
FE
0C
08
12
04
02
D9
F4
FD
FA
05
01
1A
02
05
FE
17
0D
FF
03
0A
26
03
FE
04
03
11
04
05
08
01
F0
FD
D5
22
1D
FF
20
1F
F5
04
FC
02
1E
06
05
FE
D7
05
07
10
FC
03
06
ED
1D
03
09
03
FD
A0
16
F4
05
00
0D
07
1F
02
F8
C5
EA
FF
F4
FA
0D
1C
0A
02
05
09
FB
00
F8
0D
1C
05
03
05
02
11
EF
0B
05
06
E9
00
DA
11
1A
FE
16
1C
FA
FE
01
02
0F
02
00
01
DF
04
07
09
FE
F6
0E
F5
1F
08
0A
07
05
C0
14
FF
06
06
0F
0C
16
FB
F4
CE
F4
FA
F6
F2
09
08
FD
07
F9
02
06
FF
F9
FD
09
03
F9
FB
05
0D
FA
05
07
05
FE
06
E8
FF
0C
FC
16
0D
FB
FD
06
02
07
02
FA
F9
EA
02
FD
15
03
FD
01
F8
08
06
05
02
03
D9
0E
FB
06
FF
07
05
0E
F7
09
EB
00
F8
F8
FF
FB
0E
01
08
07
0A
02
FF
08
03
19
09
FA
FE
04
15
06
0A
08
05
F7
04
E2
0C
1C
F9
1C
0D
F8
FF
FE
F4
1B
02
F6
FB
E2
05
03
17
FA
06
07
EC
12
0F
03
09
03
C3
18
FE
00
05
01
0E
12
FD
FD
D9
F1
FC
F3
01
04
10
FE
FC
08
07
03
FF
02
07
12
FF
FE
FC
00
15
FE
07
0A
07
F0
0B
F0
04
1D
FF
17
13
04
08
02
FD
0D
FC
FB
FC
E3
00
0F
11
FF
04
0D
F6
13
0F
04
04
0C
CF
14
05
FC
04
09
0E
10
FF
F6
E2
F2
F9
F8
04
04
FD
04
F0
FC
FB
FC
FF
F4
FD
01
04
FA
FA
01
F0
F4
01
07
01
FB
F4
01
00
F3
09
01
03
FC
08
0D
FE
06
01
07
F7
F1
FE
00
FA
01
FA
08
F8
FF
F8
FC
0B
F9
09
0C
0A
04
0C
0B
0E
FA
00
08
07
09
08
00
09
F8
F7
09
F8
FC
01
FD
FD
F1
FE
FA
FA
FA
01
0D
EC
F4
F8
12
03
FC
F9
03
FF
F0
01
F5
FF
FC
08
12
F8
00
F9
05
F6
EB
F7
06
FC
09
FD
08
F8
F9
F2
FB
11
F6
02
00
05
F7
15
08
0F
F9
FB
09
03
10
05
FE
FD
FD
F7
10
00
FA
F9
01
FE
EB
00
03
FE
FC
01
0C
EC
FF
FA
FC
FF
FD
F3
06
07
F1
04
F9
09
FF
09
06
F5
F7
EB
0D
FF
FB
F2
0D
F7
00
F2
02
0A
F9
FB
FD
0C
FE
02
08
09
ED
14
06
10
FA
FA
08
01
05
00
02
FE
01
FB
F8
F5
FA
FE
06
06
FF
05
F3
FF
F9
F9
FC
F5
F0
FF
16
0A
F6
0C
05
00
E5
00
FF
F5
04
04
27
03
FF
F8
FD
F6
F3
03
FB
00
1A
F9
03
FD
01
FC
01
0A
FB
FC
06
08
0D
08
F7
0D
F2
00
FD
FF
09
06
F9
05
F1
F7
FC
FF
F6
04
05
02
09
04
F8
EC
F6
12
07
07
F6
F5
2F
F4
F9
2A
05
FD
E1
F5
F2
F4
01
FF
3A
F9
05
F8
FB
F2
E2
FC
FE
01
34
FE
00
05
FB
02
01
11
FC
01
F8
FB
06
23
E7
08
EB
FE
FD
FD
16
01
FD
FD
04
FD
FE
FF
F8
FC
FF
FB
FE
01
02
EC
F9
10
08
02
F9
F1
12
FB
F5
19
01
02
E1
F8
FF
00
02
08
30
02
FB
EE
0C
ED
F6
F7
05
F9
27
F7
FA
0C
FC
FD
03
09
FE
FC
FA
00
EC
1F
EB
02
F1
FB
01
FF
14
05
02
FB
0F
FA
F7
F8
FC
F8
03
0D
03
05
F3
02
01
FD
F3
FE
F5
FC
0B
0B
FB
0C
02
03
F7
FD
F8
FF
FD
00
1D
04
FF
FA
F5
FC
F9
05
F3
FB
18
F8
04
05
FE
FD
05
03
FB
FE
FE
FF
11
FD
F1
09
F5
03
F5
FF
04
00
FE
00
EA
FB
F7
F5
F5
04
FB
0C
0E
06
F8
F6
FD
19
F7
0D
02
F7
1D
F8
FA
25
FF
07
EF
F3
F6
F2
06
00
3D
06
05
02
F1
F6
EE
FF
0C
F2
2F
FD
FE
00
FF
FA
02
02
F2
FF
F1
F9
09
0E
E3
F9
F4
01
FC
F7
0B
02
00
F7
FA
F9
FC
00
00
03
F6
02
07
FF
01
F4
FF
1C
FC
05
FA
F2
0A
F9
F9
22
00
01
F3
F9
FE
FF
FE
05
34
09
05
04
00
FC
F3
F6
13
F3
24
FE
00
02
08
FB
00
F8
FC
05
FA
03
FB
10
E1
F8
F4
FF
FD
FB
04
FE
00
FD
02
0D
F8
02
06
0B
00
02
01
04
F9
F8
02
F6
F9
FD
07
FF
F8
F7
06
05
FA
12
00
F6
0B
FC
06
FF
04
03
05
F5
FE
00
FE
FA
07
FC
02
FC
FD
07
F7
FC
FC
07
04
04
F4
0A
04
01
FF
0B
FB
FA
F7
FF
0E
FD
01
F9
FC
0D
F7
FC
FA
11
00
08
0E
03
F9
F6
05
00
FA
05
FA
0E
F3
F2
0F
05
F1
23
01
F7
FD
FC
09
05
00
01
10
EE
02
0F
F5
00
07
FF
FF
F6
FF
0E
FB
F0
04
02
F5
F6
0E
0C
00
01
02
09
F8
09
F2
F5
13
00
F2
F6
FC
08
F9
F7
F9
06
02
FE
06
FD
F6
03
01
03
08
0F
13
0A
F9
FB
08
02
FB
1A
FC
F4
04
FC
04
FC
07
03
11
F5
03
FE
F0
FE
FF
05
01
FD
02
FD
F4
F9
02
05
FE
F8
0C
05
F9
05
FF
0E
FC
08
FA
F3
11
03
FA
04
FE
13
F9
FA
0E
09
05
FA
04
0D
FB
F2
02
02
FD
04
03
00
FA
FB
FB
01
FA
18
F9
FA
0B
FC
0D
FD
02
03
FF
EF
F7
FF
F7
FE
0B
FC
06
FA
02
04
F3
F5
FE
08
09
05
F8
0E
02
FE
03
0A
F6
FD
EF
05
0C
01
05
F2
06
0E
F6
F0
F9
19
00
05
1A
17
00
F6
0B
07
FE
F8
ED
1A
FB
FD
FD
03
EC
30
FE
FB
00
02
03
FF
FB
06
10
E2
03
10
F4
00
FF
03
03
F3
FD
0D
FB
E4
08
04
FD
FD
04
03
03
FE
FD
06
FE
0A
EF
F5
13
0A
F5
F5
07
08
FF
FF
EF
1E
0A
FB
19
08
FB
FB
FC
09
01
FE
07
1C
FB
FD
0C
FD
F2
2C
00
F8
F5
FE
03
FE
06
0A
19
F4
06
0A
ED
FE
F6
03
04
F7
F9
05
F7
E9
0E
03
07
FB
09
06
02
01
FE
06
FB
0E
F0
EC
0A
04
EE
FE
F8
11
F9
FD
12
07
04
F3
03
0C
F1
F8
07
00
FC
FE
01
FD
FD
F5
F7
FE
F9
11
FC
FC
16
FF
04
FD
02
01
01
F6
FC
FF
01
FD
06
FC
03
FB
00
04
F1
FC
FA
02
0A
07
F5
0B
F7
FB
07
08
F5
FE
F8
0A
13
05
07
F3
04
19
01
F4
04
19
05
FE
16
17
FC
F3
12
08
F8
F0
EE
17
04
F6
FC
FE
F3
25
FA
00
0B
FE
02
FD
03
07
0C
E8
01
0A
FC
00
FF
09
06
F7
04
0D
F5
EA
03
03
01
FD
F4
0C
08
FC
FC
01
FD
03
EF
00
14
01
FD
ED
10
0B
05
09
F5
1C
03
FA
19
02
F8
FB
01
0B
04
E7
FB
17
02
FF
13
FA
F0
27
02
F5
F5
FB
FE
FD
04
06
0C
F9
06
0C
F0
FE
F5
09
06
F8
00
0C
F7
E9
05
FE
05
FF
FE
08
08
02
02
07
F8
04
F8
F5
07
05
F7
FA
00
04
FE
06
FA
F8
01
0C
02
F2
03
FD
FF
12
DE
12
01
FE
FC
F5
FA
F6
FD
02
F4
09
07
F4
05
C8
0F
FF
FC
F8
F5
FC
03
09
F9
FB
17
0B
ED
ED
FD
FD
05
EF
00
FF
0E
F9
0A
F9
FE
FD
03
FD
F8
00
F8
0B
00
FB
F6
03
1C
03
03
0D
F7
0B
00
FE
02
FB
03
15
C8
09
05
F6
FF
FA
FB
E5
FD
01
F1
0C
07
F6
09
DB
0E
FE
F8
03
F9
F8
03
08
FE
F4
19
12
DD
E9
F7
02
F6
E7
F8
00
07
FB
04
F5
F4
F3
0B
00
EB
F9
F8
04
FD
F3
04
09
1D
09
00
02
FA
03
00
03
03
FE
04
01
D0
07
06
05
F9
00
03
FF
01
03
F5
02
06
F1
0E
EE
00
F8
F9
F8
F8
F6
FE
0B
01
FB
06
10
ED
F4
F6
FE
08
EE
FD
FD
08
FA
05
FE
FC
F3
08
02
F1
F8
09
FA
FE
F8
02
0A
FB
09
F9
07
FD
16
F6
FE
08
FF
08
03
09
FE
01
08
FB
F7
FE
D3
FB
FC
F0
0B
FB
FB
FB
FC
01
FA
03
FA
FC
05
02
10
FD
0D
FB
1A
E8
F7
FF
02
FA
E8
ED
02
F9
FB
07
05
F3
F8
05
04
F9
FB
FA
07
F5
F7
F9
0D
21
06
FE
02
FC
11
D9
F8
FF
F6
01
F6
04
FA
0D
06
03
FE
FF
AA
FB
F9
E9
09
FF
F3
F6
32
01
F5
0A
EF
ED
F9
01
16
F8
0A
F2
1A
D7
F9
01
FB
FD
E6
E6
03
F9
FF
09
14
FE
F1
07
FF
F5
F6
F4
09
F8
F9
F5
09
10
09
08
06
05
06
E8
FC
FD
F7
03
EB
F7
05
10
0C
02
06
09
DF
00
FD
F4
02
02
F5
02
2E
FD
F6
03
FC
F0
EF
F9
0B
02
07
F3
17
E2
FF
F4
F8
06
F8
00
07
F5
04
08
0E
FE
F6
00
01
F1
EE
FD
FA
FB
FC
FC
04
E5
09
EE
03
05
12
EC
FA
06
00
06
EB
27
0B
FE
05
00
FE
FF
F0
F9
04
F6
FC
F9
FC
F1
08
FA
FD
01
FE
0F
FB
F7
11
FC
20
F6
0B
ED
04
04
00
FB
08
FF
FF
05
FA
F5
0D
FF
03
FF
FB
F6
00
FF
0D
FB
FB
FD
03
FA
05
FE
02
05
12
E7
01
06
F8
0C
D6
18
10
06
05
07
06
05
E4
FB
F9
FC
F1
F7
F9
F4
3A
F8
FB
FB
F3
0A
F2
FA
15
02
20
EF
09
DB
FB
04
FB
F4
08
0C
FE
03
FA
FA
16
FA
00
FB
FC
F6
01
F4
11
F9
01
FC
06
F3
06
08
0F
10
02
F8
03
01
F9
07
DC
09
13
0B
01
07
0C
0B
06
F9
00
FC
DE
FB
FD
FB
48
F9
FB
FD
FC
0E
F4
F4
08
02
1B
F2
10
F0
0A
FB
FD
FC
05
12
FF
FF
04
01
0A
FB
FA
FC
FB
F0
FB
FD
FE
02
FA
01
F3
01
06
EF
0F
01
0A
FC
08
02
0B
10
FB
FD
0E
FB
FC
FF
FF
02
02
06
F0
03
F7
F6
FB
01
02
0A
FB
F6
09
F9
EB
E8
03
12
F8
07
FD
00
F7
02
00
FB
05
07
01
0B
FD
03
04
FF
FE
FF
FD
F9
01
01
02
04
06
05
03
03
FA
04
01
EC
08
F6
1D
02
E7
08
FA
F8
0D
07
FF
FD
F3
F8
F4
02
F3
FC
FC
F1
0A
ED
FE
F5
FD
08
04
00
01
0A
FF
F3
FA
02
F9
03
03
06
F5
10
07
F2
FF
0A
08
03
F3
FF
02
F1
0D
0C
F8
14
01
F5
FB
FA
02
F7
FB
01
FE
0F
F4
02
01
08
09
09
03
02
06
FB
08
06
03
F8
FE
FF
E9
0B
FF
02
02
11
F0
11
ED
01
06
FC
F5
FF
02
F6
FD
0C
F2
01
05
FB
F4
1A
00
FB
0A
FA
F9
05
05
01
F9
FF
08
F9
0A
EB
03
06
00
F6
F4
00
01
EB
06
FA
10
FE
0B
FB
14
13
05
03
15
FD
FA
FF
F2
02
00
0F
ED
06
F7
F1
FA
01
08
04
F6
07
06
F9
E8
E6
04
10
02
02
FA
FD
F2
04
FF
FC
01
00
04
05
F8
01
06
02
F9
FC
07
F0
01
08
FD
06
02
07
0B
00
F5
07
FB
FB
FF
EB
28
08
DA
0D
FE
05
FE
01
00
FB
F5
F1
F4
08
E5
F7
FE
E7
10
EE
0E
ED
02
08
02
06
07
0C
FF
E2
06
FA
EC
06
FD
F8
F2
25
04
F3
04
FE
0D
02
ED
03
01
F5
12
06
FB
1C
03
FF
F8
FB
03
F6
F9
F5
FC
13
F1
04
0A
04
0F
13
08
07
0B
EF
0A
09
F5
FB
02
00
E5
10
FC
FC
FA
19
FC
14
EF
FB
07
FA
F2
FB
03
F6
05
05
E7
02
FE
F5
F3
22
01
00
16
FD
FE
FE
06
03
EF
FD
05
ED
0E
EA
FF
08
03
FE
FA
00
FF
F3
FD
08
00
FA
06
F7
0B
09
FE
02
0F
02
F7
00
F7
F7
FB
0D
EE
05
02
F2
02
FC
04
04
FE
0C
07
FB
F1
F5
01
0C
04
01
FA
FE
F7
FD
FD
05
02
07
08
01
FC
01
05
02
FB
FD
0E
FB
00
06
FA
07
05
FF
04
FE
FF
09
02
0D
F3
F3
14
FE
E7
01
FD
FC
F0
01
F8
01
08
ED
F6
0C
EF
F7
00
F3
09
FE
03
EB
10
01
FF
05
04
0C
FD
EA
08
FB
EF
04
FC
F2
FB
1E
FD
06
09
F0
03
F9
F3
05
F8
03
0E
05
06
0D
FC
FD
FA
FD
F8
FC
FB
F3
FB
12
FB
0D
FD
FA
13
12
05
02
0C
FE
01
10
F9
F3
06
08
EE
0F
F9
04
FB
13
FB
13
F8
EE
0E
FA
F6
FC
FE
01
07
0A
ED
00
FF
EC
FA
15
FE
0B
10
FB
F3
FF
05
02
EB
FC
03
F7
12
FC
FF
08
02
05
02
FE
04
FC
00
F1
F2
0C
12
13
07
04
00
08
02
0C
02
FC
0A
FF
05
FE
FE
06
F6
FD
F9
FE
01
FC
00
FA
FF
FC
08
F9
07
0A
FF
0A
F9
00
00
F7
E9
03
02
FD
FF
F9
FD
04
07
0B
04
FC
0E
07
F0
F5
05
F2
FF
FB
01
03
FC
F8
EE
EB
10
0B
0F
02
0E
15
FF
FF
04
01
F9
03
04
FC
0A
FB
FB
10
FA
01
F1
00
06
06
00
ED
0C
FF
E7
F3
F8
23
F2
08
FE
FB
FC
03
F8
FF
FB
0A
05
0A
F7
06
02
08
06
02
00
F1
FE
04
FF
FA
FC
03
15
F9
03
05
04
18
02
E3
FB
01
EF
02
FD
01
FE
05
05
03
FD
F7
F9
07
F9
ED
FD
F9
FE
02
04
FE
FD
01
FD
0F
0A
14
F9
E3
FA
08
01
00
04
0D
01
19
08
02
00
FE
01
0A
F6
06
FB
F8
EF
0B
F5
0A
F4
F7
02
EB
03
FD
F4
F9
F9
07
EE
10
1C
09
07
03
FA
0A
00
0A
FE
FA
FE
FA
02
09
00
13
FE
FB
FE
06
06
F8
01
F3
05
FE
07
F9
FF
02
05
05
F7
05
02
F1
EF
0B
FA
07
F6
FA
00
F7
00
0E
FD
FF
0B
04
F0
EB
FF
F2
01
F0
00
09
01
F8
EA
E5
0D
1E
23
F0
23
27
F5
00
07
FC
F6
08
01
F7
04
FD
F5
2F
F5
05
E8
F9
03
0C
F8
E5
16
FB
E5
E3
F5
32
02
09
F5
FF
F3
FB
F4
02
F1
07
04
0B
EC
F7
08
04
F5
00
04
E9
FF
FF
03
01
07
11
1D
FC
05
04
0C
1F
01
EC
11
09
E0
16
01
04
ED
01
08
00
04
EC
F8
05
F9
E6
FD
F0
00
02
05
F6
0F
FB
00
0E
21
14
FC
D7
FA
02
F0
02
F9
07
0E
33
FB
FF
03
F4
FC
04
F0
00
F8
EE
F1
0E
F3
13
F1
ED
06
F0
02
FF
05
FF
FF
0F
FD
10
1B
07
07
FA
04
FE
04
03
F8
FE
F6
04
02
FC
00
0E
03
FC
08
02
05
F8
FE
EE
03
01
01
FF
00
01
FF
00
F6
FF
FD
F4
F8
FF
FD
06
FB
0A
FE
F9
05
0B
07
FA
05
FC
F8
F4
FA
F1
F9
F7
02
08
01
02
EF
E9
09
18
15
F3
24
1C
F5
FF
03
04
F5
0D
FB
FC
02
FD
F4
30
F5
0B
EF
FB
F2
06
F4
EB
17
FB
F3
ED
FA
30
00
FC
F2
03
F7
F5
EE
FE
F4
08
01
07
EE
FB
09
07
02
F6
FC
F4
01
FC
07
0E
00
0D
16
FF
0B
07
00
18
FC
F0
11
02
E6
0D
FA
06
FB
F6
05
05
08
F2
FA
02
01
EA
08
F5
06
03
01
F4
0B
F2
03
16
18
06
F9
E0
FA
FB
F7
03
FC
FC
0C
1E
FE
FD
FE
FA
FC
04
F1
02
EC
F3
FA
07
F6
12
F2
F2
02
F5
FF
01
FE
F9
00
06
F6
0B
F7
03
0B
FB
06
02
E5
04
FD
F3
05
03
FC
FD
FE
00
02
F7
05
EC
06
F8
05
04
F7
FD
FB
04
02
F8
FE
00
00
F7
07
FC
05
FA
09
FA
00
11
FF
FC
FF
01
13
02
FC
FE
00
FF
05
05
FE
FA
03
FA
FB
F4
00
06
EF
0D
F5
00
0B
FD
05
00
D3
FE
01
F3
FF
05
FC
02
FF
01
FF
FA
03
E2
02
F2
FC
FD
FB
FF
FD
05
06
06
03
FB
08
F9
07
F9
08
F0
0C
04
08
12
05
FD
FA
FE
15
F9
F5
08
05
05
0F
02
FB
FC
FC
F8
F8
F7
00
FB
FA
0A
FB
F9
03
05
0A
01
DF
F4
03
F5
F9
02
FD
FF
01
FC
01
F5
FD
E7
02
EB
04
FD
FD
FE
02
07
04
10
01
F9
03
FF
05
FC
08
F3
05
03
07
0D
0B
FE
F5
F9
10
FC
FB
07
02
07
0B
F9
F7
FB
00
FC
F5
F6
FB
0D
FA
01
FD
03
0E
FF
F8
FD
E5
FC
FD
03
F9
FF
FE
08
F9
F1
01
FB
FF
EB
FF
FA
F8
FE
FA
FB
FD
F6
FC
03
0D
07
01
FE
0C
FC
0D
F8
04
FC
05
13
02
FB
FE
00
0E
F6
01
05
03
06
07
04
02
FA
0B
F4
F7
F5
01
0D
ED
05
F7
04
0C
03
FB
F4
D3
FB
07
11
E7
06
01
03
FA
F6
FD
F4
FA
E0
06
FA
EF
FF
FA
F4
FB
03
02
10
1E
01
02
00
1D
04
15
EE
0E
FD
0E
1B
0E
F5
04
07
12
F5
FC
0D
05
0A
11
FE
F9
04
04
F3
F4
F7
F8
FF
F2
07
FE
FE
01
04
F8
F0
DB
FA
05
03
ED
05
01
06
FE
F6
05
F2
01
DE
05
F9
FE
FC
F3
F9
FA
09
03
12
05
05
01
02
11
FA
11
F8
08
05
0B
14
11
F6
04
03
0C
F7
F9
0D
00
0F
0E
F9
F3
FD
FF
07
F9
F9
FE
0B
0A
EE
04
06
05
08
F2
05
FA
FD
04
1B
0A
07
05
09
FC
F6
FC
F5
F5
F8
02
09
F9
00
02
FC
FD
EA
05
FB
14
09
01
02
08
00
13
FC
01
0E
02
06
02
00
02
08
FF
F6
05
09
02
0C
08
00
01
07
0A
F9
F0
F5
F8
13
03
EC
F8
13
01
12
F2
07
F2
01
15
32
FB
08
09
05
FD
F4
FC
E7
EB
E6
04
14
F5
0B
FF
00
FE
F8
04
0D
28
12
FF
03
20
03
1F
FF
02
1D
04
0F
09
F6
0B
12
F3
E3
03
13
FC
0C
0A
F5
FA
0D
0A
F3
F4
FE
F1
08
F9
F3
FE
0B
FB
03
F6
FA
F3
06
0B
1A
FB
03
0B
07
FE
02
03
FA
F2
F7
09
12
FD
06
F6
01
F5
FC
04
12
0E
0F
07
03
17
FE
12
00
05
14
05
0C
09
FB
0A
0B
FB
EE
02
10
03
08
0F
F5
FA
01
0F
2A
04
FE
05
00
02
21
F8
01
07
01
D8
D7
03
0B
FF
00
01
FF
0F
FD
FE
02
EE
07
F8
03
22
FD
F4
01
FE
01
FB
03
01
02
FB
FD
09
00
FE
05
00
FC
F3
05
F6
FD
09
17
F5
F4
01
00
F6
00
01
FD
FE
FB
04
F8
03
E0
04
FC
FB
FB
FC
FB
F9
FB
06
F5
37
0F
04
02
E8
FE
FC
08
11
FA
03
FF
0D
00
FD
FF
CB
FA
FE
FF
FA
05
FA
00
FE
F7
F2
0D
04
06
F3
FE
FB
FB
F9
FC
F6
08
FC
E1
FC
12
EF
FF
FB
F9
F0
0A
03
FB
F5
FF
08
FC
07
FC
03
FA
FF
07
F8
FA
04
F5
F0
FE
00
FC
F2
FD
FF
09
F0
FB
05
FC
FE
03
FC
07
0B
0E
F7
F4
00
FE
F6
FA
F3
FE
FE
FA
F5
00
F9
FA
F5
03
FF
05
EF
FF
02
02
FB
FA
00
04
FD
FC
FA
03
FD
FB
EF
01
0D
28
04
02
03
FA
FE
22
01
F9
07
00
C8
DB
00
0B
FC
02
02
FE
17
FC
09
FF
ED
13
01
09
3E
F0
FE
FA
03
0E
04
03
FC
09
00
FF
07
0E
FD
08
FA
00
FB
0A
FD
FB
FC
1C
F2
DF
F4
01
F5
F6
03
F7
05
00
FC
F9
FF
C9
01
F6
F8
04
FB
E5
00
F9
00
FF
62
2C
02
FA
F2
00
06
0D
05
F5
11
F6
2B
FE
00
FC
A0
F5
FF
FD
FA
07
F7
03
F8
F3
00
08
EF
02
F7
03
F8
F7
01
00
F3
02
07
DB
FD
34
F2
F7
F7
FD
F6
04
06
F8
F9
02
FF
17
00
F5
F2
F2
FC
ED
F8
F7
F8
FA
CC
FD
F9
05
00
04
02
09
E6
FA
07
F9
F7
0D
02
05
33
0F
FF
F5
FA
00
F8
F8
F1
06
09
F8
F0
F5
03
01
F4
00
17
09
F8
03
F9
15
08
F5
0D
F5
FB
FE
00
04
06
FB
F5
F9
0A
0E
0C
FE
0B
FD
02
21
FE
04
06
01
E0
F8
FE
02
FD
FD
FA
02
16
FA
06
FD
F1
07
02
06
28
F4
00
04
06
11
01
08
FB
04
09
FC
04
0A
FC
08
F3
01
F6
03
04
FC
FD
04
F4
D9
F5
01
F9
F8
06
F2
FB
04
07
FF
07
DD
FE
F9
F5
04
F6
F8
FC
FC
01
F7
4B
29
FE
FF
F4
FC
02
0A
0B
FB
09
FB
19
FF
04
02
B5
FB
05
FD
F7
0A
F4
FF
04
FC
FF
03
F5
FA
F6
02
FB
04
FD
FC
F6
F8
FD
E3
FB
29
02
FF
F7
FC
F7
07
FB
FE
FA
0B
05
18
FD
FA
F6
FA
FE
F8
F8
FA
FE
FA
D4
F2
F7
03
FC
03
FB
0B
F5
02
02
FD
F1
0F
FB
02
27
12
FF
FD
04
04
FA
03
F2
09
03
FC
FA
F8
03
08
F3
01
23
07
FE
FF
00
19
00
EE
11
F6
03
08
04
FF
FF
F9
03
FB
08
08
FB
F8
02
F6
F2
02
F2
1A
0E
06
03
FC
F4
07
05
03
FD
01
FA
F1
04
F6
FF
0C
EB
10
FB
10
25
FC
F3
FB
FD
0A
FB
FE
F7
FC
F5
F7
EF
F3
07
F8
FC
0C
F0
F7
02
0C
FC
F7
01
FB
05
EB
09
01
FE
FB
EB
04
0F
FE
FA
F5
FD
F6
F5
09
EE
28
12
F9
08
FD
01
01
09
FC
01
F8
F3
EF
00
F1
01
13
E0
0F
F4
0B
2E
FA
F5
FE
F7
15
00
FD
F0
FC
FC
02
EA
F5
02
FB
FD
14
E8
F5
FE
0A
F5
F9
02
16
0F
EC
04
F6
FF
00
EC
F8
0D
FD
03
EE
FC
F7
04
06
F5
18
0B
00
05
05
FB
03
09
FA
02
01
F9
F0
01
E7
04
0B
D7
10
FA
0D
1A
FC
F7
FC
F5
17
02
0A
EF
00
01
FD
E9
FA
08
EC
00
0F
F2
F9
F9
03
F5
F3
FA
10
06
F0
08
FC
F8
FC
ED
FC
F7
FF
04
F0
FF
01
F4
08
F6
05
0A
04
FA
09
F5
09
FF
01
F1
F6
F3
F2
02
F0
F3
0C
E3
F5
08
FD
F3
FB
01
03
FB
0B
03
F9
20
04
FE
01
02
15
0D
FA
FE
15
01
04
09
FF
FF
03
0E
FC
03
01
02
FE
FF
01
02
FE
F7
F4
07
F8
FD
FC
F7
12
EF
18
0F
F7
F5
09
FA
0E
0A
01
EA
F5
F0
EB
00
EF
EF
17
E3
ED
01
F2
E6
03
04
08
FD
10
04
F9
39
0B
F6
04
09
1E
20
01
00
23
01
0A
0F
F9
FB
FE
0D
EF
FC
10
04
00
F8
12
04
04
F9
F1
05
F7
08
FD
F8
13
FC
18
06
FF
03
09
F3
07
05
FF
F1
EA
F5
F0
05
FE
F4
17
E2
F8
05
FA
F4
FF
FC
02
F9
0D
04
FA
26
09
F0
09
0A
15
12
F9
01
15
06
04
15
00
F9
02
0E
F4
FE
0C
FC
FA
FD
1B
FC
03
F6
00
FF
FC
F4
FA
01
FE
0A
E0
FD
05
06
0B
08
FC
F5
05
F3
01
03
F9
06
F7
F7
08
25
0F
0A
0C
F3
F7
F2
F8
0E
01
05
FA
FE
FE
0A
03
FE
FF
F8
FA
06
FD
FF
08
F5
0B
04
03
F9
0D
FF
FE
00
02
06
FF
05
07
ED
03
0F
08
FC
02
FA
03
0C
DE
00
01
09
11
0D
F5
FD
0C
F1
F5
04
EF
03
F4
F6
13
23
16
01
12
F0
F2
E1
FA
0C
0D
04
01
FB
01
13
F7
F9
FD
F2
FD
09
F9
FF
0F
00
0E
07
FC
F1
12
FB
FF
09
00
0C
09
05
0C
F4
04
14
0A
01
F9
F8
FC
07
DD
F9
03
08
14
12
F9
FE
06
EF
F7
06
F1
06
F8
F0
19
18
17
FF
14
EA
F2
EB
F2
05
03
03
00
00
02
04
00
FC
F8
00
00
01
03
04
09
FE
09
04
FE
EE
14
FB
FB
0F
05
0C
05
02
17
FC
06
FE
F8
00
FE
FE
FB
F9
FD
FF
FE
29
FC
03
10
03
E8
FB
04
E8
FB
FB
07
DB
FD
F5
00
12
0A
F4
05
F3
F4
F6
0A
F5
FB
E9
0B
08
EF
02
06
FF
FC
E6
09
F4
FB
FA
FB
E8
D8
FA
FC
06
04
F8
00
04
FF
FB
FE
FA
F2
07
F9
0C
FF
F9
E6
F7
FC
01
FE
2A
0E
FE
0B
02
EE
F8
08
F3
FC
FE
0D
D1
FC
F7
F9
13
02
F7
00
02
F2
F0
FF
F9
06
E8
00
08
FD
F4
07
09
F1
EF
00
FD
01
F5
27
DD
E7
F7
FF
FA
00
FC
F3
0A
FC
F6
FF
FF
D9
05
F9
03
F8
02
F5
F9
02
02
01
29
0D
F3
00
F8
F3
FE
01
EA
FC
FE
02
D5
00
FF
08
FD
03
EF
01
00
ED
F7
05
F2
FE
E8
04
07
09
FD
0F
02
F6
E8
05
00
FC
F6
4E
DB
E8
F8
03
02
05
00
F9
0B
FD
FA
03
FA
25
02
F9
06
FC
FD
F3
02
03
03
06
09
FF
FE
0C
0A
E5
F9
0D
00
FC
FA
FA
F3
FC
F8
FC
23
06
01
04
FB
05
02
04
F2
F7
F8
F4
03
06
02
00
0B
FD
DF
04
FF
F6
FB
DD
ED
F3
F3
03
03
FA
FB
F7
09
FB
FE
F1
F8
11
09
F6
06
FC
F7
DE
FE
FF
F6
03
01
0A
F9
10
05
ED
FB
14
0C
FF
FD
05
F4
FC
F7
EE
11
FE
FB
FB
FE
05
FA
FB
00
F9
F5
D7
04
1F
F7
0B
0D
F5
E5
F9
FF
FB
FF
0A
DF
19
F6
FD
01
F8
00
EE
0E
FB
F9
F0
04
E9
07
FA
07
F2
FA
F7
F4
01
FF
04
F7
0F
F2
02
07
E5
03
07
06
05
00
09
0C
FC
02
F9
F4
00
FC
09
FD
FA
F5
03
F7
F9
F5
E6
00
14
FF
0D
04
FB
EC
FB
00
F4
04
35
E5
1E
03
FC
00
02
04
F1
0F
FB
F8
FF
FE
2E
00
00
01
F8
FA
F5
06
FE
00
01
F9
FE
07
04
08
E7
FC
03
03
02
02
F3
F7
F6
FF
FF
10
0A
0D
04
FE
10
08
04
EB
FA
0B
ED
00
04
09
FC
08
FB
D7
01
FE
FE
0A
B7
F9
0B
F2
00
05
F4
00
FB
04
FE
09
F3
02
1D
04
03
09
F5
F7
F6
FB
FF
FE
03
D3
01
05
05
06
E0
00
0C
0D
01
FC
0B
15
FC
03
F6
01
0C
03
01
FF
0E
05
FF
F8
03
10
D6
06
12
FE
05
09
00
E6
06
02
FF
06
D5
F7
2F
F8
F8
FD
FF
02
F7
0C
07
01
F1
06
ED
07
00
09
F6
F8
09
F8
FD
FE
05
B0
09
04
05
03
D9
05
03
07
01
FE
0E
44
04
FF
F7
E7
FE
07
04
FC
00
02
01
F4
FD
0C
E2
01
07
00
FB
05
FE
FA
FC
07
FD
00
0C
FF
38
01
FC
04
09
06
00
09
05
F8
FD
F8
FF
FC
0E
0E
0A
EF
03
0C
01
0C
05
F4
FA
04
01
F7
F5
00
F9
03
FD
FD
FE
02
FC
F2
08
00
02
FE
FA
FF
F9
02
F9
02
00
F9
FF
F6
FD
04
FB
FE
03
FE
FE
07
00
EF
09
FD
03
19
00
02
E3
03
00
FF
03
FD
01
01
F8
FB
DA
FE
03
1D
F2
05
01
04
01
0D
03
09
FB
1A
08
E2
F8
10
FD
F9
F6
01
FB
F5
0B
FB
0A
10
00
05
F7
FD
FD
F7
0D
F9
02
FA
FA
F1
01
03
00
05
05
04
04
08
F7
0C
F8
FF
FC
11
FA
01
0D
FB
FE
02
FA
F9
02
0A
08
FA
03
F9
06
06
04
EC
F7
01
F8
07
00
F4
F2
00
FE
F2
01
FC
00
FE
0A
FE
E8
F3
FC
FD
FB
FF
FB
F9
0B
FB
F4
0C
F9
07
06
FB
05
F9
FC
F6
02
02
FD
03
F2
F3
06
12
FD
02
15
03
0A
07
04
FC
FC
F9
0B
F7
10
06
0F
E9
04
06
01
12
0A
E4
F8
FA
04
F4
01
0C
F8
07
00
F8
F7
02
FC
F8
12
06
04
F6
01
08
F9
F8
F2
03
F5
04
01
F1
02
11
FB
02
0B
FF
05
07
02
F0
13
01
FD
0D
FC
F9
D3
02
FD
FE
FF
F7
06
04
FF
FC
CD
F1
01
30
F2
04
F4
05
11
1B
0C
02
F9
2A
1A
DA
EC
0C
FD
EC
F4
09
F7
F1
FC
FA
13
0D
09
FB
FC
F7
04
F7
1F
FA
0D
FF
FA
F0
10
FA
FC
03
00
02
FB
00
F0
13
F6
EB
F6
12
FB
FA
09
01
FA
FC
07
FB
FD
FF
0C
02
FC
05
0D
0D
02
EF
F9
03
FF
01
05
EC
EB
FF
01
E9
04
EF
FB
00
0C
03
F2
EC
F2
FE
00
03
FC
F8
0E
FA
E9
08
F8
08
08
F3
0B
F5
08
F5
FC
05
FC
08
EC
F0
05
10
FC
03
1D
0F
0F
07
FD
FD
FC
F7
FD
F2
08
F9
0F
EA
FB
FE
04
0C
0B
E5
03
F7
07
F4
02
16
F6
FF
01
FA
FE
FD
FF
FF
04
11
FC
F4
0D
0B
F9
F2
F5
05
FB
10
02
F5
03
19
FF
06
0D
06
04
FE
06
F9
05
06
FB
09
F7
F5
D6
00
F8
02
FC
F1
14
07
FE
F9
DC
F7
02
23
EB
05
F9
06
0C
20
02
10
F6
1B
12
E6
F8
09
02
F6
FA
06
F7
F4
00
F2
0B
09
12
02
FE
FF
05
FD
16
01
0A
F7
FA
FD
0C
FD
01
FF
0A
01
F5
02
EC
10
F4
F0
F7
0E
FE
01
09
00
00
FB
03
FC
FE
00
0B
07
FD
06
07
09
FF
F7
F6
00
FC
FE
F8
E8
EF
02
FE
F3
00
F9
FF
00
0A
04
F7
F2
F4
09
06
08
00
02
08
FD
EE
FF
F9
06
02
F0
09
F7
0D
F0
FE
06
FC
08
EC
F4
08
07
0C
FC
19
07
04
FF
FF
FF
F8
01
FF
FA
01
03
11
E2
03
00
EB
1E
F3
F8
F6
FD
02
FF
F4
08
F2
0B
02
05
00
0C
08
01
08
06
0A
E2
0C
F6
EF
11
F8
FC
08
08
0A
04
04
3B
07
F3
04
07
0D
0A
F3
F7
F3
07
0A
07
F6
F8
D6
FE
F9
04
06
1C
0D
0B
F0
FB
FC
0E
0B
F1
F1
F7
E6
21
FD
FA
FB
F9
FC
FF
FE
02
00
05
F9
06
F6
0A
FB
F2
1A
0B
04
F4
10
0B
F7
FC
F8
FF
10
02
01
04
FC
0A
09
04
FA
FC
05
09
F1
EC
06
00
08
F4
0E
F4
E6
FF
F8
FD
FC
02
06
FB
01
FD
E5
00
02
06
F1
F6
ED
0E
F7
08
FC
E9
05
01
F9
FE
0B
01
FF
0B
F8
0B
01
F2
10
0A
FB
1D
06
11
03
07
06
FE
11
F5
F5
10
FD
FA
07
FF
F2
F8
FD
02
FB
ED
04
FC
03
FD
1F
F7
FF
F4
FD
05
F2
FA
E4
0C
FB
00
F7
10
0D
EC
FF
F2
F6
3C
FA
F0
F6
EF
F7
01
F8
F9
F4
0C
F4
0B
02
15
0B
ED
0C
FD
0D
E5
07
0A
F3
0B
03
F3
21
0B
06
FF
F7
23
17
02
00
01
0F
0B
FF
F5
08
07
FD
02
F7
FB
D1
00
FA
FD
01
0C
0A
14
F3
0A
E1
16
05
0A
E6
F1
EB
1B
FA
02
F0
F5
FA
07
09
EF
08
F5
EF
09
E8
02
07
E9
0E
02
0E
03
10
05
FB
FD
FF
F7
17
00
00
0E
F4
FD
18
0D
FC
FC
01
05
FB
E9
04
02
03
E4
0E
F6
EA
02
FA
F5
F9
F4
03
03
F5
FE
C8
0F
EC
2C
EE
F9
E4
05
F9
0E
03
EF
00
02
F8
F3
0D
FC
02
03
F2
10
03
F6
10
03
07
2C
05
0B
09
FE
05
F7
34
E6
FA
15
FD
D8
12
F2
F0
FF
FB
F5
04
ED
FD
F3
F0
F5
2C
01
0B
FE
F7
FC
EF
FB
F0
0F
02
F5
F8
0A
FB
FB
FA
F3
F8
1E
FC
FC
FE
F2
07
00
F7
E8
00
04
FD
05
FF
0C
00
F7
FD
00
02
EA
0F
06
FA
03
07
F9
1F
02
01
06
F1
10
14
FD
F8
00
06
07
05
04
FD
01
FA
08
EC
F4
E4
01
F7
F4
FB
F8
04
1C
FF
FD
E0
1B
ED
11
DC
F5
E7
0E
F9
04
06
E8
F6
0C
FD
DD
08
F3
FA
09
F9
04
FC
F4
FA
F6
04
02
07
FE
00
0A
0B
F9
28
F9
FD
11
F9
E5
19
FE
F5
00
FB
03
F9
F1
FE
FC
01
F4
02
F9
07
02
04
F9
F5
F2
FD
F6
05
EE
C6
03
F6
35
F9
12
DA
EE
F5
0C
05
F4
F9
F8
E3
E5
01
F9
0D
08
FE
0F
F8
06
04
13
F4
43
F8
FD
02
FA
00
00
29
D2
F5
11
FF
B6
09
F2
ED
FE
04
FF
F6
FE
F7
EE
F9
14
29
14
1C
F8
FC
F5
01
FE
FE
EC
02
07
FE
00
FB
FF
FE
00
F0
04
FD
01
01
09
F6
FA
02
06
05
00
FD
05
01
03
01
F6
F6
FC
02
FA
FA
06
FF
F8
F8
00
01
05
FF
FE
FD
F7
02
00
FB
00
FD
01
0B
02
02
FB
01
01
00
00
02
0A
FE
04
04
01
F7
F0
04
06
00
FF
F8
FF
FC
FD
ED
01
F9
01
02
0A
FB
F6
03
05
01
FC
FE
05
02
FE
04
FC
F6
02
FC
F3
FE
05
00
F9
F4
00
FE
09
FF
01
FE
F5
04
04
FE
FC
FC
00
0E
08
04
FF
03
01
FE
04
04
0A
FB
04
03
02
F2
F8
00
04
01
01
07
F7
F7
FD
F2
FE
FA
02
FF
02
FF
FE
03
05
07
FE
FE
07
FD
F9
FF
00
FE
01
FC
FA
06
02
FC
FD
FA
FC
FC
0C
FB
FE
FE
FA
FE
06
01
FF
04
FE
06
0D
02
FD
03
FF
FC
06
03
02
FB
04
00
06
FA
EC
04
09
01
07
00
FE
04
04
F5
0B
00
01
06
0D
04
01
0A
0F
05
02
FC
0C
07
02
02
FD
F7
01
06
FE
00
03
07
FC
FA
04
01
0D
00
01
00
F8
09
05
FE
09
F3
02
04
FC
02
02
03
02
09
06
0D
0C
02
0A
09
FF
FC
E9
0A
08
07
0C
FB
F7
11
05
EC
12
01
05
07
0A
FC
F8
0E
0F
0E
02
FC
14
0C
FC
09
F9
F4
03
FD
FB
03
03
10
FB
F0
00
10
0D
00
05
02
FA
07
FB
FB
05
EF
04
08
06
01
07
01
FF
0C
06
0C
0D
F2
0E
0C
07
F6
EE
05
05
05
06
06
F4
00
05
EE
FF
02
04
03
0A
00
03
0A
08
13
00
01
13
02
FF
F9
02
FC
03
FF
FE
07
04
09
F9
F6
FB
04
0B
F8
03
01
FC
02
07
03
06
F2
00
07
15
06
02
04
FB
07
08
02
05
F9
07
03
0B
FF
F3
02
05
01
08
02
FA
01
02
F8
07
00
01
06
10
06
03
0A
10
01
01
FC
06
01
FF
04
01
FE
00
05
FE
07
06
03
01
F9
02
FE
09
06
08
FF
FB
06
04
03
05
F6
FF
05
FF
FD
03
00
05
07
08
06
09
FE
FE
04
03
FE
EE
09
06
FF
10
01
FA
0E
06
F7
0A
05
07
04
0A
02
02
0A
09
08
01
00
0C
08
FF
02
FC
F3
FF
01
FA
04
05
0A
00
F3
FC
05
07
04
05
00
F9
06
FE
FF
00
F7
01
00
01
01
06
FD
FE
0A
07
04
0D
F6
06
07
07
FE
F4
03
02
FD
0A
FF
00
08
03
F6
02
01
FE
02
0B
05
08
08
05
0D
02
05
11
04
03
FC
04
F8
03
FF
00
05
FD
09
00
01
F7
00
06
FE
02
FE
FE
04
03
03
01
F5
02
07
09
02
02
FF
00
06
01
05
05
FD
02
04
0C
FC
03
12
FA
0B
12
FD
FF
00
08
FE
EF
F4
0D
F4
FD
FF
F8
00
EF
03
F5
FB
FE
F0
FF
F7
F4
F3
FA
FA
F3
06
07
06
15
FC
05
F3
09
05
02
02
0B
0D
01
FC
01
F9
FD
09
08
FE
F5
05
04
F6
05
06
01
06
FC
F8
03
03
FB
E0
EF
06
09
01
F9
FF
EE
0A
1D
03
0F
23
FC
09
FE
FC
13
F1
02
06
01
FE
02
00
F1
1D
FB
06
10
FF
EF
02
04
F7
FB
F4
FD
F9
FA
F8
01
F4
FB
02
FA
F6
FF
07
F9
E6
FC
02
F3
0D
FE
E8
FF
FB
06
06
FC
EA
FF
0A
0D
EB
FF
02
1D
08
07
0B
03
FB
F5
F2
04
FB
05
03
EE
F9
03
FF
F9
0A
01
06
0B
FE
06
0D
07
F8
FF
FA
F1
EE
F8
0C
FC
00
FA
FA
FE
09
FA
FD
02
FD
06
03
02
0E
09
FF
F2
FE
FC
03
0A
00
03
0F
F5
10
FF
23
F3
0B
0B
FD
09
0F
0D
F9
E8
FA
FE
DC
FB
08
FE
05
DF
06
FC
FC
FD
F0
FC
FA
ED
E8
01
FB
F7
01
03
04
15
FB
04
FC
07
08
0C
02
FC
13
01
F7
04
FA
04
08
0D
19
F8
0E
05
F5
02
0C
FE
0E
FE
02
03
09
F3
E2
E5
18
16
04
F0
F0
F6
03
0C
FE
1C
2B
03
FF
F6
F3
1F
F6
FC
01
0A
F7
FD
F8
F6
1E
EC
F8
15
F5
F1
09
0B
EF
02
DA
03
F9
FE
02
FD
ED
FF
10
02
F9
FE
00
F2
E2
F2
02
F5
0B
F4
E9
00
05
06
03
03
F7
F8
F9
FF
F1
09
0D
0E
07
00
06
0E
05
00
05
08
00
0C
05
02
F7
FF
05
03
08
FC
02
0B
0E
01
13
02
F8
EF
01
FD
EA
00
0D
FF
FA
FF
EF
0D
FD
F9
F5
F9
FF
04
FE
03
03
0D
04
EA
03
03
F5
07
FA
05
0B
01
05
04
19
FB
02
04
F7
07
0D
02
FE
ED
06
F1
D9
F4
0E
0A
08
E2
FF
FE
FB
F4
F9
F7
FD
EF
E9
0B
01
F9
0A
FD
00
06
FF
09
12
0B
07
06
02
F1
1A
04
FC
FA
07
01
04
0E
25
03
03
07
F4
03
18
05
03
01
00
F9
04
F5
FB
F1
1A
0F
02
F3
EC
02
F2
F5
E9
00
1A
FE
FC
EC
F1
0E
FA
01
F8
08
F4
FB
F4
FB
0D
04
EF
18
FB
FD
07
0B
F8
FF
E7
FF
FE
FC
0B
EB
FD
08
15
14
F8
03
FE
F7
F5
F5
00
05
09
FE
FF
03
05
06
FD
FD
FC
F1
F7
FC
FE
08
FD
FD
03
F6
08
09
FF
05
23
03
01
09
00
08
FC
FE
00
02
FE
FD
02
0D
0F
FF
04
FC
F6
F2
01
07
F7
06
FF
08
FC
F9
F6
11
F9
FC
F8
F9
FB
02
FF
FF
EC
04
07
F8
FF
00
F9
0B
05
02
08
04
06
0A
00
06
F6
FD
06
05
14
F7
07
03
04
0A
E2
05
06
07
03
F7
FC
26
FD
FF
FC
FF
FD
07
04
D7
ED
FC
09
03
22
FA
05
00
02
FC
04
0D
02
F7
01
00
01
FF
FA
FB
06
00
FF
F5
00
E4
02
FE
EF
06
02
04
FE
00
04
04
12
09
00
06
04
FC
0F
F5
FE
01
00
12
C2
03
FE
00
02
FA
FB
25
00
00
FC
0B
FC
07
FE
BA
ED
ED
04
00
30
FA
FE
FA
02
FC
09
17
0A
FF
08
04
00
FF
06
FF
06
01
07
EC
0E
E6
FF
01
EF
03
08
06
01
FE
03
00
1A
05
00
0B
05
F9
06
FA
02
FC
02
02
CE
08
FE
00
02
FC
06
25
FB
02
FB
06
F7
05
07
D5
FC
F7
FF
FF
24
FF
02
FB
FE
FE
05
10
01
07
06
04
F9
F9
06
FE
02
02
09
F6
10
FC
06
F4
F1
FE
01
FE
02
FF
F9
0D
08
01
F5
FC
03
02
00
02
FA
01
FE
0C
DC
00
F9
09
00
F6
00
0A
01
FD
02
0B
F5
FF
FA
D6
F5
F5
01
FD
17
FE
02
00
F9
01
FB
08
FB
F6
03
00
03
03
04
01
07
F9
02
01
02
F9
08
F8
F7
00
FA
02
08
04
FE
04
1C
05
03
09
FE
FB
F2
02
03
FE
02
1A
BB
FE
F9
06
0F
F1
00
F5
FE
07
08
15
F4
09
F7
B4
06
EC
03
FF
15
F8
F8
FF
FB
F9
10
11
FA
01
00
07
FE
FD
05
05
05
F7
06
FF
14
05
08
FE
03
00
FB
03
04
FE
FB
03
1E
05
0B
01
00
F6
F5
F9
02
00
02
1C
BF
04
00
04
0A
FB
FE
EE
01
0C
02
16
F9
FF
F9
C7
0D
EF
FB
03
0D
F6
00
FC
FA
FB
0E
0C
F4
03
F8
07
01
F9
03
02
02
FA
F6
06
0D
04
09
FD
03
FF
FC
03
05
F1
00
04
01
01
F6
12
00
FD
F1
02
07
04
FE
08
F5
F9
FF
05
04
01
FF
EC
FF
05
06
0B
F8
FD
F8
F6
04
FD
F6
02
09
04
FE
0D
F2
FE
F4
05
FC
FB
07
02
03
FD
0B
FC
06
F5
04
10
00
11
08
01
05
07
FD
03
00
07
FD
06
1A
05
02
03
02
04
E9
02
09
02
05
23
D6
F7
FF
0B
11
F9
03
C0
01
07
0E
19
F6
F8
F5
D0
14
ED
FA
02
0B
FD
01
09
FB
FB
F8
03
E1
00
FF
FD
09
E5
01
02
03
F5
07
14
16
08
0E
03
02
03
F6
02
02
FA
F5
06
1F
01
0D
F9
05
00
E5
05
06
FD
06
21
D5
F9
07
0D
04
F8
05
B9
04
07
06
11
F9
F9
F5
D9
19
FA
FF
FE
03
FA
05
0C
F0
F9
FC
02
E1
FE
FA
F9
07
EA
02
FD
00
03
FC
17
1A
09
0B
0C
15
FF
F7
01
09
FD
02
02
FC
03
09
FD
FF
02
FB
C7
EC
FF
11
FA
03
FE
10
E1
FA
FC
0A
00
FD
19
F1
FC
10
FC
04
FA
0D
0B
02
06
FE
FB
04
00
0B
FE
00
01
FF
FF
03
F4
03
07
09
FD
FE
F8
FD
04
02
05
FA
F2
FC
F7
01
FF
0C
0D
F7
18
FD
02
04
F7
00
F3
0E
C4
FC
F6
23
FB
05
FE
0C
DE
FC
FB
FB
04
F7
23
F9
F8
03
F6
FB
04
FF
08
F4
FC
03
FF
F5
FF
FB
00
00
0C
FB
02
FF
FB
26
02
08
FC
FF
F7
FA
FA
F8
06
ED
E8
01
EB
06
06
FC
FA
03
10
04
01
09
ED
FD
0E
05
F9
FC
F6
1C
00
F8
01
0B
E6
F9
F4
00
09
00
1E
F3
FE
10
F7
02
03
FC
09
F1
01
FF
F6
FA
FB
0F
FC
FF
07
02
13
09
06
14
F7
08
FC
FD
01
FA
F5
FE
09
F8
ED
03
FE
00
FF
02
00
02
04
FF
01
05
F3
FD
FD
01
BE
EB
07
2F
06
FA
0B
17
D5
02
02
07
FD
FD
25
F1
FB
11
F8
01
F9
13
0B
FC
0B
FF
FF
07
F8
11
00
00
02
F5
01
01
F0
18
03
0D
02
00
01
F6
05
07
05
F5
E3
03
F3
0A
FD
0B
0A
FD
2A
F9
FC
01
F6
FF
F1
11
BE
F6
FA
3B
FB
F6
FE
04
D8
FE
FA
04
F9
FD
47
F8
FA
01
F4
05
05
05
09
FC
01
08
02
FB
F9
F8
01
F9
FB
F8
0E
02
05
53
03
FF
F9
00
FA
FD
F6
FC
05
EE
E0
FB
E5
07
F9
F6
FA
00
13
FF
09
07
E9
FA
06
11
04
F8
F6
2A
06
F5
FD
01
E8
FD
F3
05
0A
02
38
EF
0B
14
F4
FF
05
00
0F
F5
01
09
FA
FC
F9
11
FB
FF
FC
00
0E
00
0B
2D
F5
06
02
00
F5
00
FD
00
08
F7
EE
FB
FE
FA
02
FB
F9
07
04
FD
05
0B
F5
FE
02
05
D0
F6
05
22
07
FC
00
06
E1
FF
F6
13
00
FC
17
FE
FC
08
FD
0B
00
13
0C
FB
06
F9
05
07
FE
08
00
04
03
00
03
F9
F4
0D
00
01
FE
03
01
F7
00
06
05
FF
E3
02
F9
01
0B
05
02
FF
1A
00
02
0C
EF
FC
FC
16
D2
F4
F3
25
FA
00
FC
0C
E6
FE
F5
03
FD
08
34
FF
06
09
F7
FB
0A
03
0D
FE
0E
0D
03
FD
F7
F7
FD
F8
08
FA
00
F5
F8
37
FD
02
F9
FF
FB
0A
F9
02
FE
F1
E3
03
F1
FF
F9
F7
FB
FC
01
01
06
0F
F2
FB
09
08
01
F2
F4
18
0F
FF
FD
0F
E1
FC
FD
07
05
02
28
F4
0E
0E
F0
01
03
FD
06
F8
03
03
FD
07
F8
07
04
FE
0B
02
06
04
09
1A
FA
03
02
00
F8
FC
FC
08
06
F7
F0
F5
FC
08
F8
04
01
01
FB
02
01
FC
03
FB
04
F7
01
FF
FE
00
F0
05
01
08
05
F6
01
02
FD
01
00
03
07
00
F8
FF
04
F8
01
FC
FD
EB
01
08
0B
F9
02
F5
01
FE
FE
FE
00
FE
16
03
02
F6
04
07
FC
0C
F4
FE
06
07
01
FB
03
FE
FB
F4
FB
0C
0A
01
0B
FD
FD
FD
FB
FF
FF
03
00
0D
F8
09
F9
EE
FD
06
09
01
FB
07
0A
00
F8
FA
FD
F0
FB
01
02
EB
04
0A
14
FE
FF
FF
04
04
FB
FB
01
F3
21
08
03
F6
FC
F7
FE
12
F5
02
01
05
06
F6
06
FB
FB
F9
FF
0A
04
FE
FF
FA
FB
F7
FC
02
FD
06
FE
0A
00
08
FF
EF
FE
02
0C
00
FF
01
05
00
F6
FE
F9
F7
F5
04
FD
F5
00
0B
16
FF
FC
FB
00
01
FB
FF
02
F6
1C
05
04
FA
06
ED
01
0B
F8
02
02
02
07
03
02
FB
FB
FC
FE
06
FE
F9
0B
FC
FE
F6
F7
FB
03
01
F8
09
FE
05
03
F8
FF
FD
05
01
FC
01
02
F7
F7
FB
07
F3
F9
06
FA
E4
01
0F
0A
F3
FC
0A
FF
02
00
00
FD
00
1D
05
03
F1
01
13
F2
11
F8
F9
03
00
FD
F4
00
F4
FE
F6
F8
07
0B
FB
0D
F4
FB
F8
F9
03
04
FF
09
0B
FC
07
F8
F1
F5
02
1B
00
F9
0E
FC
01
FF
F6
06
E7
F5
03
05
D8
0B
16
15
FF
F7
1B
FE
09
F7
FF
FA
F8
37
04
06
E9
FB
05
F5
08
F2
FE
01
FD
02
F2
03
F4
04
EC
FF
04
06
F9
10
F4
FD
F8
FB
09
FD
01
0A
05
00
06
FF
EF
F9
01
1E
FE
FC
07
FA
FF
FB
FA
07
EA
F3
00
01
E5
07
0E
17
03
F8
1A
FD
0D
01
03
FD
F7
2E
04
04
EE
02
F4
F8
08
ED
FD
02
FC
01
00
FE
FB
FE
FA
FC
05
02
00
0A
FD
FD
F9
FE
FC
04
02
F6
F8
07
04
06
01
FA
00
03
FB
FE
FD
FC
F7
F4
FC
03
F6
F8
06
01
EE
06
0C
08
F9
F9
11
FD
03
04
04
FE
02
18
05
FE
F5
04
1A
F0
0B
F9
FA
09
05
F9
F9
FF
F7
00
F5
FE
FA
08
03
09
F7
FD
FA
FF
01
01
05
08
04
07
03
FE
FB
F8
00
15
FC
FC
0E
F5
FF
FC
F7
05
EB
FA
03
FF
DD
08
11
0E
FE
F7
1E
FE
07
00
03
FC
01
2F
03
01
EF
00
04
F0
00
EE
FE
01
FE
FE
F6
00
FD
03
F0
01
FB
04
00
08
F7
05
FB
02
04
FF
04
16
FC
08
0A
00
03
FE
04
1B
FE
00
0D
F4
06
FF
F8
F7
EF
F9
FF
F7
E8
01
0C
0F
01
F0
1F
03
0D
03
03
01
F8
20
06
03
F2
00
F1
F0
00
F0
01
02
00
03
FF
FF
01
03
FB
FB
FC
F8
00
06
F9
FA
F8
F4
FA
FE
F5
F8
FC
FF
10
05
FE
FD
07
04
0D
FC
07
F9
FC
FD
01
01
FD
01
07
FC
FD
07
01
FB
00
01
FC
05
01
FD
FE
FF
FE
00
02
F9
FC
02
FD
02
FC
FD
FF
04
00
F9
FF
FC
00
0C
02
F0
FD
F1
02
FE
01
FE
FB
F8
F4
FA
F8
FF
FB
08
28
00
FF
02
0F
04
15
00
0A
01
FD
FB
00
03
02
06
0D
F8
03
04
06
FF
03
01
FF
0E
FF
FD
FC
FB
FA
05
FF
F9
FC
00
01
02
04
02
07
0A
FE
FB
07
04
09
14
05
F8
05
02
03
04
FB
04
08
FD
FC
01
FE
01
00
06
0F
00
00
09
0D
01
00
02
0B
FD
F9
FC
02
FF
FD
00
08
FC
03
08
FE
01
01
00
00
07
02
00
FB
00
F8
00
FD
FC
FE
03
02
00
05
05
04
06
F6
FE
06
0A
01
08
08
F9
FD
F5
FE
FF
06
FF
F9
F7
F9
FD
F8
FD
FE
04
1E
09
00
FE
10
01
0F
FF
03
FA
F3
FE
01
04
00
02
0B
F8
00
08
01
FA
FB
01
FD
07
01
02
F3
FF
02
00
F6
FD
00
0A
FE
03
01
FE
01
0A
00
FA
F6
FC
05
11
FE
F0
FB
EB
FD
F7
05
FF
09
F3
EB
04
F9
03
FC
00
3B
05
05
0A
1D
06
16
FC
05
FF
F5
FE
07
F9
07
FB
17
F1
07
0D
0D
01
F8
09
FD
0E
02
00
F6
06
FF
07
F4
03
02
06
00
07
08
09
03
12
03
02
00
01
12
1D
04
FB
05
01
07
08
FB
00
13
F9
F7
0B
F8
00
FC
F8
19
FF
06
04
14
03
03
00
0D
F6
FF
FE
06
FD
05
FC
0B
02
02
1A
07
FF
01
07
03
08
05
FF
FA
07
FD
FB
F7
04
FD
02
00
05
FD
02
04
09
00
05
FF
04
0A
0D
05
F6
04
07
00
0D
FE
01
02
F3
F8
04
F4
FF
FF
00
0E
04
00
04
0B
03
06
FD
02
FA
00
FB
FF
FF
FE
FD
FD
01
FE
0E
FA
F9
FD
07
FF
FE
02
01
FA
FF
02
FF
FC
02
FC
01
FB
02
05
FD
FF
FF
FF
00
F5
01
FF
09
F8
F5
01
05
09
08
F5
05
0B
F3
EF
0B
F8
01
03
FA
16
FA
08
04
11
02
0C
FC
05
FE
FB
F9
06
FC
04
F9
04
04
03
1B
00
FC
00
07
FD
09
00
01
00
04
F8
00
F0
04
03
06
05
03
0B
03
03
04
01
01
FD
00
00
16
FF
F8
0A
0D
0A
0A
F3
03
0D
F3
F7
0A
F5
F9
01
01
0B
F7
09
04
0E
02
05
FE
06
FD
FC
F7
0A
01
07
FF
04
08
FB
15
01
FC
07
05
FD
03
FC
FA
F7
09
FF
FF
FB
06
FF
03
04
04
FD
FD
05
05
01
02
07
02
00
04
02
03
FE
02
0E
FB
01
FE
01
14
03
01
E1
03
00
F9
16
03
F8
05
03
03
02
0C
ED
05
0B
F5
04
FF
04
05
02
FE
FA
FE
06
03
02
00
04
09
00
01
03
04
F7
04
01
FE
04
03
06
FD
03
09
FA
06
05
F7
F8
02
F3
FB
F3
16
FA
0A
FA
F9
FF
04
09
3D
01
FD
C7
FA
F9
FD
09
13
F6
F9
09
FA
F6
12
F9
F7
06
F9
F8
06
F4
FE
F4
01
FB
00
F7
03
FB
FF
00
0A
05
09
01
03
DB
FF
00
F4
04
04
05
F5
FF
09
F6
0C
FC
F3
01
FE
F0
F6
05
11
FA
00
11
F4
F7
03
07
20
F5
01
DA
00
FA
02
07
17
04
FE
05
FB
F6
03
01
FC
1C
FB
08
F6
10
00
EA
01
FC
FD
FA
00
12
03
02
03
01
FC
06
05
CB
FE
08
F9
FD
FE
00
03
03
FC
00
01
FB
FF
08
EF
09
F2
FA
05
FB
FB
10
F3
05
FB
01
2F
FF
FE
E4
08
03
03
15
09
FF
05
0D
04
FC
0F
ED
0A
19
FC
04
FA
05
06
F7
09
03
FD
FF
01
FF
FF
05
08
FF
06
F9
06
EE
0A
FE
F9
02
05
FA
02
06
0F
FC
03
07
F1
FF
0E
FD
F4
04
2B
FE
F9
FA
F4
00
06
0F
63
0A
01
B9
F9
F5
FD
03
29
FB
F8
18
F9
F5
0B
02
00
FD
00
F1
04
F9
04
F9
00
03
FE
FB
05
FD
FF
FB
FC
01
0B
F3
00
D4
02
FB
F4
F9
03
03
FC
FD
0D
F1
16
01
F5
F9
FC
F1
E8
11
13
F8
00
0C
F0
F7
FD
09
33
F3
09
D2
04
FD
FD
06
32
0B
02
0C
F9
00
FC
F9
01
23
01
05
FD
18
FA
F3
FF
05
F6
FD
FF
18
FA
FE
FF
FC
00
FE
02
B6
FE
02
FF
00
05
01
09
00
FE
FF
01
00
02
02
F5
0B
01
04
06
FB
03
0A
F9
FF
FE
07
17
02
FE
F1
FE
FE
FF
0E
00
F9
03
0B
04
03
14
F7
05
0D
FC
FF
05
06
0C
F9
05
FE
05
05
00
01
07
02
08
FE
0C
FB
FC
F8
08
F9
00
F7
00
F9
04
0B
0D
F7
FA
01
F2
F7
0D
FA
FA
02
19
F9
FB
FA
EF
FB
09
19
3C
04
FE
C6
F7
FE
F8
05
17
F8
F6
0C
FA
FA
09
03
05
00
04
F5
07
F3
06
F9
06
FF
F4
F9
01
00
03
F7
01
FC
00
EF
03
DD
FC
F8
F4
F7
FA
08
02
06
08
F3
0A
02
F8
F3
F6
F0
FC
07
0E
FA
01
05
F9
F8
FD
09
2A
F5
05
D8
FB
09
06
08
1E
03
02
08
FB
02
FE
F8
09
12
07
0C
FF
0E
F2
F9
0C
04
00
06
FD
17
03
01
03
01
01
01
01
BD
FF
01
FF
F8
03
04
07
FE
01
FE
FF
F7
06
07
00
07
05
05
05
07
FE
0D
F4
04
0B
E2
FA
06
F5
F0
04
FF
15
19
04
F7
10
02
F3
FA
00
02
09
15
04
F4
09
F8
F0
F9
ED
08
F4
FA
0A
FF
FA
FE
07
FF
01
FD
08
04
09
ED
04
06
00
02
02
09
FF
08
03
F7
FD
F9
FA
02
F0
05
18
09
1C
1B
18
ED
EA
FD
E7
09
02
FC
F0
FA
FD
05
FE
F5
0A
F7
FA
E8
EB
09
F3
0D
06
F7
ED
F1
EB
F6
FA
05
14
FC
02
04
FD
F7
FB
05
32
1E
F6
01
03
FE
FC
0A
F4
F2
F9
F8
02
F1
DA
FD
F9
F6
06
FC
FD
F9
FE
0F
FB
15
0C
07
EC
08
F9
EB
F1
05
F8
07
FB
FA
0F
FC
16
FE
FC
05
F5
FE
02
02
02
0E
01
00
15
07
F9
10
FC
EA
FC
09
F6
FB
FE
FA
0A
0A
F4
F4
F4
0D
06
EC
F8
0B
FC
F9
FD
E1
04
E7
F2
F8
05
EC
21
0A
0A
F2
23
14
10
F1
F9
ED
E5
0E
16
01
F7
04
F9
FF
07
08
F5
F2
F9
E2
FC
0E
FB
00
FC
04
F1
02
EA
FC
FD
02
12
FF
0A
0F
05
08
FE
FC
17
28
FA
FB
FC
FC
F8
EE
FB
F2
04
F9
FF
EE
E9
F5
EC
00
0E
02
15
F9
08
FF
00
F5
FF
15
E8
30
F1
D7
01
07
F6
00
E8
E9
12
05
09
F3
0B
12
EA
F7
01
EC
F8
FE
FE
FD
15
13
F1
FA
FF
F0
F9
0D
F9
12
1B
F6
0F
1B
EC
E6
D5
32
FA
D0
04
00
FD
F3
EA
D4
05
F9
EA
D9
16
E2
42
08
F6
04
01
D1
F1
05
F5
F8
F4
E9
CA
EE
19
03
43
23
15
EC
0E
F8
F5
10
09
E7
18
EA
DF
FB
17
0A
14
EF
E8
12
E2
F5
F5
FE
E2
F4
1D
F9
D4
F0
F4
10
08
DC
F1
ED
F6
03
F2
07
F8
EE
1A
00
F3
1D
01
08
18
13
05
F9
01
FA
03
08
F5
FA
F9
F2
EF
04
03
00
13
FB
0D
FF
02
F6
0C
02
F6
F7
0B
ED
FF
F4
04
06
0A
F3
FE
F9
11
EE
02
00
F2
08
02
F3
0B
03
F0
FF
F3
0B
FF
E9
03
00
02
FF
F8
EE
07
FB
F8
FE
15
FA
11
02
FD
FC
EE
F4
EF
03
F7
FA
06
EF
D8
05
0D
FC
40
15
10
EC
0A
FA
02
0C
07
F6
08
F8
05
ED
14
06
0C
FF
F0
01
E3
F5
F9
EF
E8
F3
F9
02
E2
E9
EF
05
08
EA
0A
F2
E9
04
01
02
FB
F2
2A
0F
E5
23
FE
0F
09
1E
16
FF
17
1B
0D
D0
FD
0D
08
2A
0C
F1
EF
EF
F1
0E
F6
DE
EE
09
FB
FA
04
0E
F4
0E
1A
EF
E3
F9
F3
E8
0C
EE
FD
1C
FE
07
1B
EA
DB
09
1E
13
EB
10
1E
E5
F9
14
FF
FC
00
F6
20
FC
F9
0A
F4
0B
F4
19
E6
EF
FE
F6
02
FC
0F
E4
02
12
E9
F2
02
F3
03
FD
D9
EC
04
06
FF
FD
02
0C
04
07
F5
07
0B
F2
F7
F9
FD
FF
F7
08
12
FD
F7
FA
0A
03
0B
FF
18
07
FE
F2
EF
2C
FB
E3
F3
09
FA
F2
FE
F3
EB
09
EB
E5
04
E7
09
E1
E0
04
FF
FA
01
FE
FD
1A
E4
D7
F5
FA
10
06
E3
E8
03
0D
11
F9
00
1B
FB
0D
07
0C
FB
F4
08
F4
04
04
E3
0B
FF
E5
FC
FC
12
0D
0F
02
05
F5
FF
ED
E6
54
09
D0
F8
08
04
07
FD
EC
E8
FB
00
EA
FB
EB
1C
EE
E2
0D
F3
F1
F3
12
F4
F4
FA
D7
EF
ED
FB
08
02
FB
09
08
0A
02
F7
10
05
FC
03
FD
FA
06
17
00
FC
FD
E8
07
E4
DE
F6
EC
FC
0E
17
0C
FA
ED
0A
FE
F4
3A
05
EC
01
01
06
15
F5
E9
F8
EA
FA
FE
FF
E9
17
FA
DF
08
F3
F5
E6
25
F7
EC
06
EF
F1
18
03
06
30
10
F2
F5
F8
F9
F5
06
FA
F2
02
EB
F1
00
12
12
EA
FE
F0
11
D2
D9
01
F0
E9
FB
04
03
F3
07
0E
F4
07
E7
FA
15
F7
00
00
08
04
F2
00
FB
EC
21
12
10
F7
15
ED
F3
EF
0B
E5
0B
01
D8
11
08
F9
13
03
01
45
1E
F7
F0
F5
FB
F1
FC
EC
0B
04
EE
E6
0B
0E
12
E4
E8
E5
02
CE
E6
0C
07
D5
EF
0D
02
EF
02
F7
EE
0B
BE
F9
2E
03
F2
02
02
10
E3
01
03
EA
34
16
0F
E2
10
06
FC
F8
13
0E
F4
05
EA
0C
22
FC
1A
F3
F2
23
07
F8
EC
F3
FF
F6
EC
F7
0E
02
F0
F7
16
F6
13
F9
EA
F1
01
E9
FF
08
23
D7
E8
FF
FF
0B
15
F0
F5
17
CF
E9
1D
0E
F3
FB
FA
14
EF
F2
05
EC
17
FF
08
E0
09
26
00
0E
0D
19
F2
0B
14
09
17
0C
01
01
FF
F8
FF
09
F6
FA
08
0A
EE
00
02
07
09
FB
0E
F5
FA
0C
00
FF
FD
18
1D
F5
03
F1
FE
E6
FA
03
F8
FB
01
FA
14
07
F9
07
FC
F7
F3
F3
E7
03
FE
00
FE
FD
E1
F0
F5
47
F6
06
FE
21
F8
15
29
09
22
17
01
F7
FB
E7
FA
07
FE
05
08
14
00
04
0B
01
12
07
05
F9
F3
22
F6
01
FC
25
14
04
FE
00
0A
F3
FB
0B
00
00
0A
ED
31
11
DE
FE
FC
F6
F1
E1
DF
F8
F8
F7
EC
FF
E4
04
EC
24
00
09
E7
16
F2
0C
2E
FB
13
0F
F7
F7
F4
E2
0A
00
02
0A
03
08
06
02
08
07
1C
FC
F1
04
F0
23
FC
F3
01
28
09
05
F7
15
FE
01
FD
06
06
07
02
EC
2A
0B
D8
F7
03
F6
F8
E2
EC
00
00
03
F5
FA
E4
0C
F5
F6
07
FA
E5
03
00
09
09
F3
FA
FC
FB
00
00
FD
FE
05
FF
FA
0F
04
04
02
0C
06
00
13
F3
FF
04
01
F6
F7
F8
F6
00
03
04
FC
0B
FD
FE
FC
FA
01
F7
FE
02
FB
FB
F9
05
05
FB
FF
04
F1
09
01
02
04
FE
07
05
11
F8
F2
06
0C
FA
06
FC
FE
07
FA
EA
F8
ED
FD
01
01
04
EC
08
F7
FF
F1
0E
FD
02
EE
E0
04
F8
FE
08
FE
FF
06
03
02
09
0D
0B
06
06
09
10
FC
ED
FC
0F
E9
F5
F8
EC
F6
FD
10
F6
F6
10
EE
13
FC
05
07
02
13
02
0A
0C
0A
FC
E9
E7
EF
11
05
FD
FA
10
10
EF
F9
FD
03
F3
FD
F7
F9
EE
FF
0D
E6
10
02
FF
04
05
F6
F6
0E
F4
03
0D
E9
FB
08
08
00
FE
FE
F2
FE
F8
EF
FE
07
07
F7
F5
07
0D
F2
FA
F6
F7
04
FD
06
E5
06
00
0C
F9
02
1F
06
FC
02
07
FC
F9
FE
08
1B
EB
F7
F3
01
0A
FF
F0
0E
02
07
F0
09
26
01
05
11
FE
06
F9
F2
09
02
F6
DE
00
F2
01
FF
E3
02
04
F9
FD
FE
06
0C
12
00
02
01
0C
F5
E2
0D
FB
F4
F1
FE
F9
E9
02
2B
DA
0B
0F
2A
0A
F9
EC
F9
F6
01
FF
0D
0B
10
12
FC
20
F6
0D
07
22
01
F2
15
E1
06
22
F3
FA
06
06
E2
04
F8
FD
13
0F
F9
F4
04
EE
0D
00
FF
14
0D
FC
E5
FC
15
01
00
ED
F9
01
11
17
F3
09
09
20
1D
F6
F6
F6
05
FB
0C
FE
F4
17
F7
F2
F2
E2
F7
FB
F5
F6
ED
FF
F4
FF
F9
FD
04
0E
EC
EF
09
F9
FF
0F
0B
FD
08
0A
FC
03
12
02
03
02
07
11
08
F6
00
1C
F8
E9
F8
EA
FB
02
16
F6
F9
16
EC
12
F5
FC
01
FB
19
F4
EA
1E
10
02
EB
F4
FB
0D
0B
EB
EE
EA
F0
E9
F6
F5
EA
F5
F3
E3
FB
FB
FB
0E
E2
0C
FE
ED
17
07
FE
FA
0D
17
01
02
10
F9
F8
06
F9
0C
FC
01
FA
15
EB
02
0D
F4
EA
07
FF
00
F8
07
F4
FA
F8
01
FF
FB
EA
FC
09
1F
12
1A
F6
08
01
F3
FE
FA
03
0C
33
EB
EA
F4
05
1A
FE
EA
12
21
05
F3
19
38
01
1A
07
E4
08
07
E7
05
FF
F5
D9
F8
F4
FD
04
D8
F9
10
12
EF
04
07
12
15
04
F4
0A
12
F6
D9
08
F6
F0
13
0A
EB
FD
00
1D
EB
07
00
17
05
08
EE
04
ED
01
FF
FD
EA
01
01
FA
0F
00
F5
0E
0A
06
F0
0D
F8
06
18
F3
F3
01
F9
EB
02
FE
FD
0B
01
EB
F4
18
F3
00
FC
04
0C
FF
F3
EB
FD
13
FF
01
F5
FC
F3
08
18
FA
FD
FB
14
04
DA
0A
02
F1
FF
FD
07
F6
09
06
08
02
23
06
06
FE
09
03
04
08
0C
FE
FA
09
04
05
02
F9
03
06
08
0F
01
F8
FD
F9
FA
F7
FB
FA
01
FE
FA
02
F6
F1
F5
02
FF
F8
E0
00
ED
F6
00
04
F8
03
0E
F6
FC
02
FF
FF
0A
F9
FA
EC
05
04
03
06
FD
06
05
F7
0A
EA
F6
FB
FF
F0
04
F9
09
06
05
F8
0C
0A
FB
0B
F8
00
F4
06
FF
FF
F6
FB
FD
F8
08
F6
EC
05
08
01
F3
01
FB
FF
FF
FF
12
0C
11
0A
F2
FB
01
FA
11
FA
FE
F6
01
01
31
EF
FC
01
08
08
05
0E
FF
FA
FC
0F
A5
F9
F9
F1
FE
EE
09
F4
06
05
0B
FC
03
04
FC
05
03
F0
FB
05
FE
F3
0E
00
F5
E4
20
01
F4
07
08
05
00
21
04
00
F9
05
18
FD
26
0F
EB
FA
08
08
FF
FD
09
FB
06
09
FA
FA
0D
03
0E
EC
10
FF
05
10
0C
0A
E9
01
0F
02
0C
01
FB
00
0A
FB
F7
03
FA
ED
05
D8
FD
06
08
FE
10
03
02
F0
FB
ED
FC
F1
00
09
F9
05
FB
F1
03
04
FE
F9
EB
EE
F3
E1
FB
01
FB
FE
08
FD
01
05
F7
FA
9F
FD
0E
FD
01
F3
D0
00
FC
02
06
13
7F
FF
FE
EA
FF
04
09
01
0E
FD
E8
F2
F3
F7
0E
FE
F9
1B
FD
04
0D
F3
EE
F1
F6
05
F0
EB
02
EB
F5
FB
FA
0B
F9
FE
07
EE
DB
0D
FC
FA
00
F4
E4
F8
08
FF
F7
FC
FD
FD
EF
05
04
EA
F6
FC
D4
F8
FA
FF
F8
0A
48
01
ED
09
F3
00
09
E1
04
FF
F5
EF
F9
08
0B
0D
04
08
EC
04
05
FB
E3
FE
06
06
F4
EF
F2
F4
FD
F9
FB
F5
FB
03
FC
F1
FA
15
23
1E
FC
FC
F7
01
FD
F8
F8
FB
08
FD
34
0B
E9
05
03
F6
1B
07
F7
F4
FC
F9
9C
00
FB
0F
09
F9
03
FF
06
05
F2
F4
04
10
00
EF
FB
FC
F4
FD
0F
00
08
FD
F5
F0
00
04
EA
FA
00
07
06
DE
09
05
EB
FB
28
F6
06
FE
F8
F7
0E
00
09
F7
F1
01
06
09
37
F3
05
F3
F7
F8
12
00
05
F6
FA
CE
D1
F6
09
EE
0C
ED
03
1C
0C
F8
00
DC
00
F2
04
14
FA
02
FD
0A
20
03
07
F0
06
F9
17
FF
FC
F7
10
F4
F7
12
FE
FF
F1
F8
23
EA
FD
F0
F8
04
0F
F6
FF
01
F6
F0
FA
00
D1
FD
0C
F3
F9
F4
F3
FE
0E
08
FC
E5
50
03
04
F1
00
00
08
0A
FE
04
FB
F0
FA
F2
03
14
FC
18
FF
11
1A
F8
F7
F4
07
FE
F9
F2
0C
F8
01
E8
FD
17
FC
FD
FF
0A
E5
FB
F6
EE
FA
0E
FE
F5
F9
10
FB
F4
FC
FF
10
F8
EA
0F
0A
0B
F0
11
EF
F9
0E
FE
0F
12
E5
F8
F1
F9
02
01
F6
0D
D3
07
ED
F5
0E
0E
ED
F1
F6
EF
01
F7
ED
F9
D6
F0
FD
F1
FE
F8
F7
10
FC
F2
FC
FD
07
22
0A
04
F9
F6
F7
F0
E2
FA
16
F7
EB
02
0B
11
F5
04
25
F2
E3
EF
10
E2
F0
1A
F2
F1
F3
FD
26
00
0A
04
0D
06
FD
F2
FA
F5
4E
01
F9
F4
11
09
F6
02
F2
0D
0D
FD
28
10
04
02
00
0E
0C
F9
EE
06
0D
02
F8
F1
F1
0B
F8
FC
01
EC
1D
0F
03
F8
0B
FC
F8
1E
FF
F8
07
F9
21
F4
04
FA
EF
FE
04
0A
F9
FF
0F
05
FC
F8
07
06
02
0E
06
06
E6
00
FA
03
F8
FA
0A
FA
F4
FE
F5
FE
10
F2
F8
FC
FC
FC
FA
1E
05
F9
FE
F8
EF
04
03
FB
FB
F8
F9
02
F0
F8
04
F5
FB
FA
0E
06
13
F4
DC
05
2D
02
ED
25
EE
E0
15
01
04
11
E9
F7
F2
F7
00
FB
F1
15
D1
0A
D6
F5
04
0C
F5
EF
FA
E9
06
ED
E7
F9
CE
EF
FE
EF
FF
03
FC
10
07
EE
04
FF
FC
28
08
05
03
F9
F3
F8
D3
F7
0F
F5
E5
01
23
11
F4
FE
2E
E5
D7
F3
06
E8
F6
14
E6
EC
F5
FA
18
0A
08
08
09
03
FC
F3
EC
F8
67
FE
F9
EE
11
17
ED
FC
FA
11
1E
FB
22
02
02
F0
03
05
0D
FA
F1
14
13
02
FA
F3
EE
09
F5
03
07
E1
27
0B
08
EF
0A
F4
E4
16
F6
02
06
03
1F
F9
0A
04
FA
FF
01
0C
F9
05
09
0F
F6
F5
0A
07
01
1E
FC
FA
DE
F9
FE
FE
FB
FB
03
F4
F6
01
EF
F9
13
F3
F4
F5
FD
F7
FA
2D
08
FA
EF
F3
EC
0C
04
EF
FB
FD
F4
08
EC
F1
12
FA
EE
F9
1C
11
09
F2
E7
EE
30
FF
F3
1F
E9
DF
09
05
FB
FE
ED
ED
F5
F6
F6
01
F5
08
E0
0B
DC
F3
F4
12
F3
FD
09
F2
04
F0
F2
FC
E0
F9
FA
F9
01
07
FD
F7
FA
F0
08
F7
E7
1B
0D
03
04
FE
F9
03
DF
F3
0B
FE
ED
FB
28
0A
EE
0E
1E
EF
DA
F4
05
E3
F9
14
E5
E7
F9
02
13
0D
04
00
14
03
03
04
F0
F3
52
00
F7
F2
13
15
F1
08
FE
11
1B
01
19
FF
03
FD
FF
0C
01
FA
F2
12
00
01
00
F1
EC
03
F9
FE
FB
E8
25
0B
08
F7
0B
F3
DC
09
F6
FD
09
11
10
F8
03
0A
FC
FA
FB
05
F7
08
F9
0A
F6
F1
06
05
F7
13
FD
04
EC
01
FE
FF
F5
F4
F1
FD
FE
04
F1
FE
12
FA
EF
01
FB
FA
F6
1B
0C
FB
F1
FD
ED
10
02
FB
F9
F7
F4
FD
F2
F6
03
F9
F5
FA
13
00
E2
FF
01
02
02
FA
00
FE
FB
FA
03
EE
1A
FC
0A
FE
F3
FB
05
01
FD
01
FA
FC
FD
FE
04
13
FE
04
FD
FB
F8
02
03
05
00
13
F1
05
EF
07
FD
03
F4
FF
FE
F8
06
02
F5
F8
F5
F5
FF
00
F9
01
FD
00
FB
FE
FB
00
DD
03
FD
01
F8
FC
04
FF
F6
06
FF
DC
3D
FF
02
FE
F2
F8
00
05
F4
F7
F7
F1
00
00
04
25
FC
07
FC
01
FF
FE
FE
06
09
20
E2
02
00
06
FE
07
FB
FE
03
05
0C
01
EA
F9
E8
FB
FF
FC
FC
FE
FC
FE
FE
F8
FD
02
DF
FE
01
04
F7
FE
FF
FF
FC
00
01
E2
33
00
08
F7
F2
F6
FF
FE
FC
FC
FE
EC
00
FE
06
1E
02
F9
FE
00
02
FD
00
02
FF
18
EB
04
FD
04
FD
08
F5
03
01
00
05
FC
EC
FB
EA
FA
FE
04
FC
01
F5
FE
FF
F9
FF
03
01
FC
05
02
02
07
00
00
F9
05
00
FB
F6
00
0B
00
FC
FE
05
06
FA
02
F4
04
FD
0A
02
06
F8
08
03
F4
F8
09
05
00
FD
03
09
05
01
06
02
FB
FD
06
FE
02
FF
F9
FE
F1
FF
E7
FE
FF
F8
F9
FE
FF
F4
F8
FA
02
F7
01
01
06
02
FE
FA
02
F9
0A
07
F8
08
01
07
01
03
FC
02
0D
F9
FB
F1
00
05
03
01
09
F4
FD
04
FB
FB
01
FB
FE
09
08
07
06
18
01
FC
F6
02
15
FE
09
03
FE
FE
F8
FF
D9
FE
FA
F6
02
FA
01
F8
FB
06
03
F4
05
02
06
F6
FB
F8
03
FD
FD
FE
FF
0A
04
08
01
FE
FE
00
0B
F8
FE
FE
02
01
03
00
02
FC
04
04
F4
FB
07
F5
FC
07
09
0D
00
10
FF
F9
F4
00
18
FD
02
FD
FF
F9
FC
FF
DF
F6
FD
F6
FB
FA
03
FE
FF
06
01
1B
01
05
FF
05
02
02
FB
F7
FD
00
1D
D8
0B
06
05
F3
FE
01
EB
FC
03
FC
07
F7
02
03
E4
03
03
FC
FA
F6
02
FD
04
FF
EE
0C
03
F3
02
FD
F8
FE
F4
01
01
FD
03
04
FD
0E
04
FD
F9
01
03
FA
FE
FE
FC
01
05
2A
00
FD
FD
00
FA
FB
FE
F5
FE
01
2C
BE
17
F7
05
F4
04
FA
E8
FC
00
F6
14
02
00
03
CE
01
03
FB
FE
FA
FB
F6
04
FB
ED
16
04
F3
FA
03
EE
05
FD
08
00
FB
FB
13
FB
24
02
FD
FA
02
02
FC
01
FF
FC
03
00
2C
01
00
FF
00
FA
F7
03
F6
FF
FE
2A
C2
10
FF
01
F8
07
FF
ED
FB
FC
F9
10
00
01
02
CC
00
FF
01
FC
FA
00
F7
FF
FC
F8
16
04
F9
F3
F8
F8
04
00
02
FE
FA
F5
13
F8
17
F3
FF
FA
01
02
FF
03
02
FE
F9
05
F9
F8
FC
FC
04
F8
12
FB
09
FE
F8
FF
01
FB
01
FA
08
FC
F6
02
F9
FB
FE
04
09
FC
F7
FE
FE
F2
FB
F1
FD
03
08
FF
FA
FD
F9
01
FC
FE
FA
EA
01
F9
F9
02
E1
EC
01
FE
04
E9
FE
FA
03
00
FC
FE
FF
FC
06
06
07
F8
09
FC
FB
F5
26
F6
00
FB
F2
FE
00
F1
0D
E8
08
03
FC
FE
FF
FC
05
08
1A
FA
EF
FB
F8
F4
F2
02
FE
07
0C
05
05
FF
F9
0A
FA
00
FF
DB
F6
F2
0C
02
C1
D8
F8
FB
F7
E4
FF
F2
F6
FF
F5
04
07
F7
0A
0A
02
05
0B
0C
F9
FC
31
01
02
03
FB
FE
FE
ED
09
E5
09
FF
00
FD
FD
FA
01
0C
12
FD
F7
F9
F7
FB
F8
09
02
0E
07
FC
0A
F4
F4
00
F7
01
00
E6
F5
ED
06
FE
C8
DF
EF
FC
EF
E8
05
F1
F1
FC
ED
FF
FB
FA
00
01
06
F5
02
FA
04
F4
F2
03
FC
FC
04
FC
02
02
01
F8
0A
18
FE
FE
05
01
F9
05
FF
FE
F4
FF
07
0B
FC
F5
03
02
F8
FF
00
07
FF
FC
00
F8
F2
F1
09
00
07
02
E6
F5
06
04
04
F9
FE
04
06
06
00
F8
09
04
18
FC
0E
F7
02
FE
06
F5
F3
0D
F2
FD
FC
F8
09
F5
08
F4
07
20
08
FE
00
09
FF
06
06
08
F1
FD
03
15
EF
03
01
05
F8
02
0E
FA
F7
FE
FE
F5
ED
E8
00
05
10
00
D4
E6
FB
FD
FD
FB
FE
FA
08
07
FC
FC
11
F6
1D
06
0A
FD
FF
0C
07
FD
14
08
FA
03
02
F4
03
F2
08
FD
06
19
05
FA
02
05
08
0B
0A
06
F2
F9
FC
14
F4
0F
FE
04
03
FF
0C
F5
F6
F8
FC
F5
F3
ED
FD
F4
13
F6
E1
E1
F7
FC
EB
F7
00
FC
F7
FF
FF
02
FF
F9
08
F4
09
F6
FA
FA
07
F9
D1
0F
F0
03
13
02
02
FE
FC
09
09
2B
07
FF
08
0B
FA
03
F0
03
F0
00
05
1C
02
FB
08
FC
F4
05
F8
12
10
FB
07
04
FF
00
0E
0D
0D
08
F7
03
09
0D
0B
11
08
10
0A
0F
15
F7
08
06
1E
F9
1A
F7
F3
01
0E
F2
BB
1B
F1
00
13
FE
0B
00
01
0F
0C
3B
1A
01
04
12
F7
FB
EB
0A
F2
FA
07
36
FB
09
05
00
E7
0A
04
14
06
F5
0C
FB
F2
FF
10
19
13
FE
EE
03
08
0E
0F
18
08
0B
0D
0D
12
FC
04
09
31
06
15
FF
EF
06
0B
F7
DA
0C
F4
01
05
FC
0E
FB
FD
16
05
2D
12
02
03
11
06
F9
F7
0D
F9
FA
06
22
FB
10
03
08
F0
09
08
10
03
F5
05
FF
F5
04
0E
11
0C
FD
F1
01
06
09
FF
15
03
05
06
05
0D
02
05
03
17
FB
1A
02
01
09
FE
0A
13
06
FC
04
01
15
FF
07
02
FE
F0
0B
05
0A
05
02
F9
E3
01
FB
09
09
FF
F8
03
03
1B
F7
F5
10
04
FE
0F
04
F2
06
0A
08
00
03
02
FF
FB
FC
C3
FB
F1
FA
FC
03
F5
00
09
02
FD
06
F3
FD
1B
FF
04
09
0B
07
F7
06
FF
09
04
1E
00
08
FA
FC
02
FA
02
06
FF
05
EC
E3
07
F8
05
08
09
03
FD
FD
03
F8
F5
00
FE
09
EF
07
05
FB
03
0D
FF
EE
06
01
04
01
C8
E4
F9
01
FC
FD
ED
FE
0A
01
03
FF
EC
FE
13
01
04
FC
FD
0F
FE
05
F5
0D
05
1B
FB
FE
FA
FF
1F
F1
01
FC
FA
02
F8
E4
00
FE
06
09
08
07
FD
FB
F4
02
05
EE
00
0C
D7
08
0E
F4
00
09
05
D7
FE
00
FE
FD
CD
DB
F4
0F
01
02
F2
FF
F9
FC
FE
FE
ED
FC
24
01
F8
07
07
09
02
0D
01
0D
FE
34
09
01
04
FB
F6
04
04
0C
08
07
EF
D1
FB
FC
0C
0A
F5
FC
0C
05
18
FB
FB
17
08
FB
17
04
FC
07
07
08
F8
FC
FC
FB
F6
F6
98
F4
F7
00
04
FF
E9
FE
0D
EE
06
06
E6
FC
28
FC
FD
03
02
05
E0
08
F6
0F
07
32
03
05
FF
F6
0E
FF
03
0D
FE
07
EA
E1
04
00
09
08
04
01
01
02
09
F8
F4
06
FF
0B
EC
01
06
FB
FB
0C
01
F2
00
03
FC
00
AC
E7
FF
05
00
FA
EE
FD
07
FD
FF
02
E7
04
1F
F9
02
02
05
0B
E8
00
F2
06
FF
27
02
FB
FF
03
2B
05
04
06
F4
04
F1
D9
00
FC
03
01
0C
F8
F8
00
00
07
0C
F6
FB
0C
CF
03
0C
F7
01
05
04
C6
F4
06
FE
06
A4
CD
FC
00
02
01
E9
FF
FD
03
FD
02
E6
0B
27
02
FE
07
03
0F
FD
03
03
0A
05
38
00
FB
03
02
00
FB
FC
0C
FF
09
F6
CB
FF
FD
0D
0B
F6
FE
09
03
0B
03
F9
17
05
00
1F
00
FF
08
06
07
FD
F0
00
FF
FA
F7
AD
F7
E7
05
00
02
ED
07
0B
F1
02
00
F3
FC
36
01
05
00
00
04
DF
09
FF
0F
08
2F
04
04
06
FF
13
02
01
0E
01
03
ED
CF
0D
FE
06
0C
07
02
FB
FB
06
FC
F9
0A
F9
13
FB
FF
07
00
02
06
01
F1
FF
05
F7
00
A4
EA
F8
05
FD
02
E8
00
02
FA
FE
03
F2
FE
27
03
09
03
00
06
F1
00
F2
03
FA
1B
FA
0A
08
00
24
0D
03
06
F8
07
F6
D6
04
00
06
02
0D
FC
FB
00
FE
05
0A
F2
FC
0C
D9
07
08
F7
06
01
00
D6
F6
FE
F9
05
A7
D4
F1
03
F8
FC
EC
FC
01
02
FF
00
ED
0A
FB
02
08
FE
01
F7
03
04
FA
08
00
01
02
FE
05
FB
EE
0C
02
FE
01
FD
03
FA
04
02
F4
04
FD
E8
02
FD
FD
FE
F6
01
F0
10
0D
F7
08
12
05
F6
09
04
F6
04
05
FE
01
01
FB
1C
F4
04
F7
07
01
FB
09
01
0E
FF
FE
02
08
08
FF
F5
F6
FC
F6
13
F8
FF
FF
07
00
F1
F1
FE
06
03
01
01
FD
06
04
08
EF
07
01
D4
FA
FC
06
F9
FE
03
F3
18
0D
02
08
23
11
FD
06
08
F2
08
09
F2
F9
04
FF
1D
F5
F5
EA
04
03
F3
0F
08
02
04
F7
FE
06
0C
FF
FB
F3
FF
F9
0D
FC
FA
FA
09
05
FD
F7
F3
04
04
03
FF
FC
0C
FC
01
FA
03
02
E7
04
FC
01
03
FD
FB
FC
0A
07
FC
01
19
17
F7
00
03
F2
FB
FD
FC
FC
03
FB
11
F9
FE
EA
FD
07
F8
05
09
09
02
00
06
08
0F
03
F3
F8
02
FE
10
FB
06
FC
FE
FB
F3
F2
01
0E
FD
FE
03
05
00
FE
05
F3
03
F6
DA
FD
FE
FE
05
F9
05
EF
14
0E
05
09
11
09
ED
09
02
FA
04
09
EE
FC
06
03
18
F2
FD
F3
07
06
F7
00
09
0A
04
FE
05
0C
09
06
EA
F7
F7
0D
20
FB
08
FA
07
FB
EF
F9
F3
0A
FC
FC
06
FF
04
03
03
F8
05
F3
C5
04
FA
09
F9
02
09
F6
11
0A
07
08
29
0D
FA
05
05
FA
0A
08
EE
FB
02
05
0F
F4
FC
DF
07
02
F4
0B
12
01
07
F9
FD
12
0E
0A
EE
F4
FA
12
12
03
04
F9
FE
02
FF
F7
EA
05
FE
00
08
FF
FE
FE
FC
FC
01
FA
D6
08
FE
FD
FC
04
FF
F7
0E
07
FC
03
19
0C
02
00
02
01
04
04
F9
00
05
04
01
F6
00
DD
FD
07
F2
06
06
FF
02
01
06
0B
04
00
FE
F9
FE
03
02
FA
00
FD
0C
01
F8
FE
FB
0B
FF
F8
FF
06
FF
01
F5
06
02
FA
E1
00
02
FB
07
00
03
F0
08
09
FA
04
0F
FC
E5
09
FD
00
06
01
F2
04
03
FF
FF
F8
02
F6
03
01
FB
F8
04
05
FF
F9
01
09
0F
01
F7
FF
FC
06
0E
FD
07
FE
0F
01
F9
06
F0
0C
FE
FD
07
06
F7
03
F8
FE
09
F5
D1
08
01
FF
07
08
05
FD
11
04
02
FC
19
04
F5
02
FC
0B
05
01
E8
F7
FB
01
F0
F6
00
EA
01
07
FA
FB
05
05
08
F7
04
15
0B
0A
F6
FE
01
05
0F
01
06
FC
06
00
FE
02
EE
05
FC
02
07
09
F7
02
F3
01
FF
00
D9
05
FC
FC
07
0B
FE
03
0E
01
FA
FF
13
FF
FA
FD
06
11
02
01
F2
FE
FC
01
EA
F7
00
E9
FE
0F
FC
FA
00
02
01
FF
02
00
FE
05
10
04
0E
00
FB
0C
03
04
1A
F3
08
01
F9
06
0B
02
04
02
FF
F7
F1
0C
0D
06
06
FD
F7
FF
F7
02
02
EC
06
0F
08
FD
EC
00
FD
0A
FD
01
06
09
F1
01
07
03
FF
08
07
15
04
0F
FE
00
0B
13
F7
FD
07
03
02
FC
05
FC
09
03
EE
FF
09
03
1D
F4
00
F8
F6
11
03
FE
07
02
FF
F5
F7
FC
04
06
06
FA
F5
FB
F3
06
FC
F0
FA
0C
FD
F6
FA
07
F9
0E
FA
FE
02
03
F6
FD
FF
0A
01
05
02
07
FF
16
FC
FC
05
13
FE
FA
03
FF
06
01
05
00
FE
01
F6
00
FB
00
15
05
04
F0
FC
06
FB
F7
FD
FF
04
00
FC
F4
03
F5
F3
FF
FA
01
F7
03
01
FE
F8
03
09
F5
02
12
FB
FB
00
F9
FF
FC
F6
00
F3
00
00
01
FE
03
FE
08
01
FC
07
01
FA
02
FD
00
F6
FA
20
FA
09
09
E7
0D
12
03
2D
F6
08
0A
F9
0E
0D
02
03
FE
FB
F1
F5
02
14
05
0C
05
F7
02
EE
00
06
E7
08
0B
04
00
EC
FC
F5
0E
00
FC
09
FF
E7
01
0B
09
FB
07
09
1F
07
24
FB
FE
08
2A
FA
FF
0D
02
FC
F3
15
FD
09
0B
E4
F5
08
FE
26
F9
05
F4
F2
12
FA
FA
0B
03
FB
FB
00
EF
0A
F2
0D
FD
F8
00
F1
07
FB
F2
FE
FB
07
F4
FC
06
E5
0F
FD
F9
05
05
F1
F8
FB
06
FB
04
02
16
02
21
F9
F9
00
1C
03
FF
08
01
0C
FE
0E
0F
FB
07
F8
FC
FC
FE
07
01
F8
EB
FA
07
F0
FA
FD
08
FD
0A
0C
EF
FC
E4
F0
02
F7
01
FB
03
F6
F5
FE
F7
0A
FB
06
15
F0
FE
FD
F6
01
04
F8
FF
F2
F8
FB
0B
FF
02
FC
07
02
FA
00
FC
FD
FF
F8
FE
EE
FD
16
FE
06
05
F5
FB
06
05
1C
F8
00
FE
F7
0C
02
05
03
FF
02
02
F9
F8
08
FB
03
FC
FF
03
F4
01
04
F0
0D
01
FE
05
FB
F9
F8
0B
06
F1
08
01
F3
08
02
0B
FA
03
09
17
08
1E
FE
FF
01
1C
00
00
07
09
FD
FC
08
1A
FE
08
F9
F7
04
01
0C
01
F4
F0
F1
04
FA
00
FB
0D
F9
0F
0C
F0
02
E5
08
FD
FF
FF
F7
05
FC
F6
01
F8
04
01
07
FC
E6
02
F7
F6
04
02
F5
FA
FB
02
F8
11
FC
09
01
11
04
01
02
0A
08
F6
07
09
07
04
05
1E
F8
07
06
F7
FD
F7
F5
05
F7
EF
F5
FC
ED
FF
FA
08
FF
14
0E
F1
FC
E1
F4
02
F9
FB
FE
02
F8
F6
00
F6
0A
02
FF
09
F4
F8
F8
FC
FC
FE
F2
F9
FB
FF
F4
0D
FB
F5
FC
FE
08
FD
FF
F7
12
FA
06
01
13
E8
EC
F9
E4
00
11
00
05
FE
FF
01
0A
05
FB
F8
01
F4
EF
02
F5
15
F5
0B
F9
05
F7
F7
0E
ED
0B
03
04
06
F6
F8
05
01
04
00
0B
09
08
FC
03
FD
F1
F5
FF
FE
F2
F9
F6
07
05
FB
0D
0A
F0
FB
01
FC
01
13
03
FE
04
0B
0C
0F
FC
E5
FB
F9
EF
FC
FC
04
FB
F1
09
FC
F5
00
03
0F
0F
EB
FC
F8
1E
FB
13
FF
E5
05
FE
29
FC
FE
F3
FF
FB
0C
FB
DC
F9
0D
FD
E8
12
F6
F7
F2
FF
03
1C
04
0D
FB
F6
06
FB
0F
F9
03
EE
F6
FE
0A
F7
F6
F9
F0
EB
FA
FD
0C
01
0F
F6
00
FA
04
F0
0A
02
F8
07
E7
04
F2
09
F9
E0
03
FE
0D
E7
01
03
E7
0F
F9
03
FA
FE
06
FE
18
0F
EE
FC
0C
0F
06
00
17
FC
F9
F5
F4
03
11
F7
03
FF
09
06
FD
07
0C
16
E4
FC
04
E5
09
06
FA
04
FE
FB
ED
01
FE
01
F8
00
F8
F0
07
F8
19
0E
06
F3
06
13
F7
15
EE
09
0A
FE
2A
F0
F3
FE
01
04
08
FA
F5
FE
03
F4
FF
02
00
F3
EE
01
08
00
02
0F
02
FC
FF
ED
03
FD
FE
D8
FB
DA
25
FF
09
24
F0
CF
F8
F9
FB
03
34
F1
FB
09
FF
FB
0C
03
EB
05
DE
16
F2
12
E0
08
14
F6
0F
D6
0A
04
E8
FD
F6
E5
FB
F9
EA
11
20
04
FF
F7
F8
18
0F
F3
09
02
02
3B
F6
00
16
F1
F7
F3
13
FD
FD
DF
F2
15
07
E8
FE
E7
EB
15
EB
FD
FC
F9
17
00
11
0C
08
FB
EF
0A
F5
05
05
05
04
F6
10
E4
0E
11
07
F9
07
09
E3
0F
0B
08
F2
FF
15
FA
17
09
EF
FF
17
00
01
12
16
04
FE
F4
01
02
0C
F0
14
0A
F4
F5
FB
00
05
0B
01
04
10
03
FB
E4
F6
FC
05
FC
07
F4
F9
09
05
FF
F2
F7
F6
06
FC
10
08
07
F8
14
ED
06
FC
08
0C
FE
08
EF
F9
FA
01
F9
F7
FC
F4
F8
09
00
F6
0D
09
F5
F7
03
07
0D
00
09
FC
F3
FE
00
0D
08
FA
DA
EC
EE
1F
EC
0F
06
F6
FE
F5
02
04
04
28
03
04
1C
02
F2
FC
09
F3
10
05
0D
02
FE
F2
EB
0E
FE
0F
D8
11
03
D4
15
FC
EC
FD
00
EE
11
44
0E
F1
F3
0A
01
12
FE
0E
01
FA
18
F4
FD
19
FD
00
F6
F1
0B
02
FF
FD
2B
F8
F2
0B
E4
E4
2E
EF
01
FD
F1
EF
08
16
FF
FA
0A
F2
F1
FB
F8
29
F1
11
03
0F
EF
FB
23
FF
02
05
01
18
03
1B
03
F1
06
17
F5
E4
EE
13
12
03
0D
FB
17
EE
F9
03
EF
02
16
F1
01
0A
FF
01
24
02
E8
EA
FD
F9
05
19
03
04
1D
11
0B
01
E7
0A
F0
11
F1
EA
07
FE
10
0B
0C
EB
F6
18
09
FC
0B
0F
ED
1A
FD
16
05
05
FA
FC
06
F4
10
06
F9
F6
FB
13
F1
05
F3
00
0D
02
07
F7
09
E2
E5
04
04
FA
07
EB
10
08
E5
D7
EA
06
0C
00
E9
0C
12
EB
07
F7
1A
0C
1D
01
0A
FF
06
FA
02
F5
05
11
E4
16
0A
03
FA
01
DB
FE
E7
EF
F2
E6
ED
F5
0A
F8
E5
EF
01
07
FA
FA
08
FA
F8
F2
02
07
06
FE
19
14
F3
05
00
F8
FE
FD
09
FD
17
22
FF
EF
FF
14
F2
FF
FE
0B
FF
00
F7
F3
F0
FF
FC
0F
FC
05
F2
08
01
21
FD
F2
F6
FC
04
EE
16
02
1A
F3
02
0D
0E
F7
FA
02
F5
05
03
D7
F6
0B
06
EC
FA
FD
01
F9
05
F4
FA
18
07
FA
F9
F9
FA
03
1F
0A
D5
D0
EB
0C
0D
16
F7
F7
15
1A
0F
15
F7
0B
00
1E
F1
FD
08
FA
0E
FA
0E
CD
FF
09
14
F9
06
3B
D8
09
00
0A
FF
F0
02
03
13
F3
11
FB
FF
04
FF
0F
EC
0F
F5
07
12
FC
F8
E2
29
ED
DA
05
01
E1
1C
F7
0C
03
11
FD
E8
F5
10
EF
DE
0F
F4
D5
00
F1
26
F9
13
F7
04
F6
08
F3
F5
EE
FA
3B
F0
F3
FD
F9
0A
E9
E8
F3
E4
F5
FE
E6
F4
FE
00
0B
E3
04
F6
FD
05
F8
04
F8
F9
F4
F7
08
19
02
0B
48
0C
0A
FA
F7
E5
F9
FE
FC
30
33
0B
E7
E7
09
FD
FC
E8
0C
EE
09
F2
EF
E3
FC
00
0D
F7
F7
FC
FB
F4
1D
07
FE
FB
EF
FB
F3
1B
FB
1C
E2
FF
11
0A
F6
F4
0B
F3
00
1F
D9
FF
0E
FE
FF
FD
0B
F3
F5
02
F2
FB
12
14
FF
EF
F1
F6
05
11
04
E5
E1
FA
0D
18
00
F3
F3
16
13
1F
0E
0A
0C
0E
18
EA
FB
0E
F4
0A
F2
06
EC
FD
FD
07
FD
FD
40
EF
05
F6
0B
07
EE
06
04
FB
FA
03
F8
0F
11
FC
02
F3
FE
F0
FF
0F
11
EB
F0
23
07
F1
00
FA
DF
09
FC
F9
FF
18
2A
FC
E7
09
0A
E8
0F
EA
EB
EE
F5
09
F9
DE
F5
F9
FA
02
F8
EB
F4
F6
39
00
00
F7
F0
0B
E2
04
EE
F4
FE
F7
F9
ED
FE
F6
0C
FB
0F
F4
EF
02
05
0D
F2
FB
FD
F6
00
14
09
FF
3C
18
F7
FC
FA
F8
F1
F6
FB
20
1D
0F
F1
E6
04
04
03
F9
0B
FB
09
EF
07
F8
02
04
0E
F5
01
0B
F5
01
01
0C
0E
FF
E7
EF
FC
06
F9
23
E6
F6
01
FA
FC
08
00
F6
F5
1A
EC
FC
01
F7
F8
01
0D
F9
F7
F6
F4
03
F5
FF
04
EF
F4
08
FE
15
F9
01
F3
04
0C
FB
10
0C
02
01
04
07
F5
F5
0E
FA
04
F0
FD
00
FE
05
03
FF
07
04
03
03
F7
F5
FE
04
FA
08
F1
02
FA
FB
FC
03
04
01
F6
FB
00
F7
FE
F9
F6
08
F9
03
00
F6
07
02
F3
F4
F7
0B
F9
F7
02
0C
F8
1B
00
24
DC
F9
05
D1
02
1A
FB
F6
F3
FF
EC
06
0A
05
03
0A
F0
F4
10
F6
2B
FF
05
F2
02
12
E6
2B
F6
1E
04
FE
19
FB
FC
F2
05
F5
0D
FB
07
FF
05
FC
FD
F9
FC
04
E9
FC
00
EC
10
0F
FF
03
08
F4
F2
E5
00
FC
04
08
19
FB
00
15
ED
D2
FC
FC
FE
FE
10
F2
02
F3
FD
FC
04
0D
F9
0F
F1
F9
EB
0E
FF
00
F9
01
14
E7
08
FC
10
F4
FA
F1
FB
FC
09
0A
FD
F6
01
F6
F7
16
06
F1
FE
F4
F5
13
E6
01
03
F7
09
F6
08
10
FB
06
F1
0D
09
EE
05
FF
01
15
F4
06
F2
F9
11
03
0A
F8
F8
01
F2
02
11
FC
19
06
03
FC
FD
02
02
0A
FB
06
04
FC
0E
F5
F6
FB
04
0C
FE
03
0E
FF
05
FC
00
01
FF
01
F6
F8
04
FA
02
03
FC
10
FE
F3
F7
FF
F9
18
0A
0F
E1
FD
09
EC
EF
05
F6
FE
F9
FA
DB
F7
07
FC
00
0F
ED
FA
12
FD
2D
06
05
02
01
1B
E1
38
F6
FD
03
FC
49
ED
F9
F4
FC
EF
0B
00
E6
F6
0D
F6
11
16
FE
F6
ED
00
10
F8
0E
0F
F9
F4
0A
E9
00
FB
F7
E4
F6
E7
10
FA
EA
1F
F1
D7
F9
F4
FB
0E
34
F8
04
F7
07
F2
0B
1E
F6
0A
DD
15
E6
0D
FC
EE
12
ED
20
CC
29
05
E0
F1
FA
F5
00
03
03
10
24
10
EB
F1
0F
04
01
EA
10
0F
05
2C
E6
EF
28
F3
11
E9
00
FB
F2
04
01
0C
01
F5
05
F2
FE
18
EE
FF
06
F6
04
FC
05
F9
03
00
FE
FC
18
F8
26
FA
FF
FE
03
01
ED
0B
FE
FE
02
FC
16
F7
F7
FE
05
F9
FF
04
01
F9
02
00
08
03
FE
FE
F8
01
09
F5
10
03
07
04
0C
FB
F9
F8
FE
FA
FD
FE
07
02
FD
1A
E6
DE
F4
FD
FE
FC
0E
EB
05
05
06
0E
06
02
FF
11
02
08
03
19
F5
1A
F0
0A
07
EC
10
FD
1C
F2
F5
FA
04
E9
F6
0D
EF
F8
0A
FD
04
15
06
F3
00
01
14
17
F7
06
0A
ED
09
FC
14
17
FC
DB
F1
DF
10
FA
F5
14
07
F8
FC
FD
FE
F9
33
04
18
13
0C
F9
03
1B
F6
03
E6
1B
01
08
09
EF
1D
E8
1D
EE
2F
08
C0
0B
06
FC
0B
1E
01
0E
30
07
F8
F1
FE
F6
02
F9
19
18
00
18
ED
ED
27
F8
05
F8
EB
F3
07
38
FF
EC
06
05
02
FF
06
EE
F9
03
03
04
ED
EB
0F
F5
F6
FD
F1
F0
EC
F9
02
FD
19
02
03
F5
F4
09
01
EB
F3
F9
05
09
07
EF
06
F6
FA
FE
FB
FB
02
0B
0F
0B
0E
06
07
FF
07
FD
04
F1
02
0C
E8
F2
09
B9
14
45
F4
02
0E
0E
FE
E4
E8
00
F0
06
0F
F6
DB
E8
10
F6
FF
FE
ED
E3
F1
F6
1F
02
03
05
00
E7
DC
18
07
FD
D3
F8
0D
1E
02
06
0C
ED
F5
F2
EF
00
0F
11
0D
FC
04
07
19
F6
09
FF
23
0A
04
0F
F6
EB
00
BB
0B
32
1A
0F
00
06
12
F0
E5
05
EB
0F
0F
E1
D8
E6
FF
02
04
01
F2
F2
03
FD
2D
10
E5
F6
FD
E4
C8
1C
05
0F
D0
F4
13
38
05
09
0A
FD
04
F7
DC
F5
27
0F
F4
02
0A
04
0C
FC
03
E8
1A
13
F6
FF
04
F4
FD
2D
F1
DE
0B
ED
E4
FC
0A
01
28
13
0D
FC
EE
F7
37
07
F5
FD
F0
05
04
00
01
00
E6
FD
10
00
06
1C
1A
EF
03
F9
16
FE
FB
F0
FA
F0
FC
0F
FD
07
08
11
06
EE
E3
FE
F8
01
F1
16
EF
17
EE
F3
00
F4
F5
F5
05
31
F8
FD
15
DD
EB
F6
05
06
25
0C
1C
01
EF
0F
33
FC
F3
00
E8
05
EC
F2
EC
F7
EF
01
33
07
0C
16
25
08
01
EB
1E
00
02
D5
F1
E9
06
F8
ED
FB
0F
18
E7
F3
FA
FD
07
08
F8
11
F9
2A
EF
FE
F9
05
E4
EC
07
FA
07
37
1E
FD
02
DE
E3
F8
02
01
07
FE
0D
1C
E0
01
01
FF
07
0D
E6
F8
EC
F8
02
E0
2A
F3
10
F9
E5
17
FE
FD
E6
0A
02
E5
F1
FE
09
F7
F2
F4
01
0F
DA
07
11
11
0D
0C
F9
05
F9
0C
F4
0E
F6
06
E7
EB
13
FE
F4
0E
F3
09
F5
05
07
00
FB
F9
EC
08
0D
FA
11
04
FC
EB
07
F8
07
03
03
07
17
EC
F0
00
F7
0B
05
FE
F3
FE
00
FB
F5
0E
F9
15
F7
F4
F4
FE
FA
F6
05
0E
EC
FF
07
05
07
FF
F5
F5
F2
FD
F4
EF
FB
05
EE
2F
F5
FD
DF
F5
EB
08
1A
0C
0F
02
0A
FE
FA
F1
37
12
F6
FB
FF
05
08
F2
FD
0A
00
F7
03
FE
F7
26
32
F8
EC
06
17
FF
E7
11
F5
02
FE
F5
F4
05
0D
F0
12
01
E1
FA
F4
01
FF
FC
DF
0B
E8
F1
F1
EB
F3
03
F9
39
FD
F5
EB
FC
EE
06
0A
04
18
0E
15
FC
F7
01
1E
07
F9
FE
EE
12
F9
FB
FE
FF
F9
04
0A
F6
FD
26
2C
07
FC
0B
28
06
E7
FD
FE
FB
09
F8
FB
0A
10
F1
01
F5
E2
EA
FC
FB
F7
09
F0
11
03
F3
F8
F8
DD
FE
F1
09
F7
F9
00
0D
02
FC
05
02
FA
01
FC
0A
F9
FD
FA
0A
01
EA
06
14
FD
05
F0
FE
FC
F7
0A
08
F5
02
FD
FA
F7
0B
07
FA
F8
05
F9
02
F8
02
06
04
FB
0B
FF
F9
00
05
FC
FA
02
07
FF
FF
FB
FF
F7
FC
F7
F8
F8
0F
FE
E9
FF
F9
FB
F0
12
FF
F8
03
FA
F4
EA
F9
FB
02
06
F8
F1
FA
F7
F5
02
08
06
E4
01
FE
07
01
FF
F8
F1
FB
0D
08
EA
07
FE
0F
F9
F9
00
F9
09
FE
FC
F2
F7
FB
00
F6
FE
07
06
FF
06
FD
FB
15
F9
F5
FB
12
29
FC
13
00
FB
ED
16
FD
02
0D
F9
F2
BC
F3
F4
F3
11
0E
ED
F7
F5
F7
03
10
15
EF
10
FD
17
00
F6
00
F5
01
08
01
F5
E9
11
0E
00
F5
F1
02
F8
0A
FF
FD
F6
FA
23
F8
F2
F0
14
FB
F1
02
F0
11
05
F2
0B
06
F2
0A
FB
02
06
01
03
FD
FA
F5
04
0B
20
FA
05
FE
06
EA
FF
19
02
FC
F4
FB
03
FE
F6
F6
FA
FD
00
04
08
04
F7
FF
0D
15
F4
02
04
FD
0C
06
F4
12
FD
02
0D
08
ED
08
08
FA
F9
F5
FD
F8
07
00
06
F3
00
FD
D7
FB
FA
0E
FE
03
F8
FD
FB
F1
FA
0F
33
F7
F3
0C
00
E2
0D
F1
F3
F6
EF
12
E9
DB
FF
F9
FF
00
01
11
08
05
F7
0A
F9
2E
E8
F2
06
FD
16
09
05
F9
F9
F5
08
0F
CE
00
FA
0F
F2
FC
11
FC
04
FF
FE
F4
0F
08
1E
F6
06
08
FE
EE
17
F1
FA
01
01
07
DA
FB
FE
F5
00
0E
F6
D0
EE
F2
FE
1F
FD
DA
13
FC
16
13
03
0C
01
FA
14
0D
E9
FD
FC
04
F7
ED
F5
04
06
F2
FA
F1
F7
06
FE
F6
00
FA
0D
FF
0B
06
ED
0B
02
F7
FD
08
06
0A
FA
F3
06
01
15
FC
00
09
02
FA
F2
12
1B
F4
07
00
F9
25
0C
FB
0B
EE
13
18
02
F3
FD
FB
0B
F5
06
EF
F0
FE
08
F5
11
08
01
11
03
06
FC
17
0A
FC
04
F9
15
F5
FA
F8
01
FD
F5
00
0D
01
03
F4
03
F7
D2
0E
FE
0B
03
08
FF
FA
FC
FD
FC
0D
45
F9
FF
03
11
F3
04
14
FD
FD
FA
0B
05
FA
03
E8
01
EE
00
F3
19
FE
E0
FE
0A
15
0C
05
05
09
0C
FF
F8
1B
FB
07
13
11
D4
0B
F1
E0
F6
F4
F8
FB
02
FF
FA
FB
14
F7
E2
00
F6
0A
FE
09
0A
FF
FE
F5
FC
1A
23
F9
F3
04
FA
01
0D
F1
F9
F9
02
1D
F0
DF
05
F7
FD
09
FF
02
1B
F1
F7
0A
F0
19
F1
F9
FB
F2
FD
F7
FE
FD
00
FD
00
18
C4
01
12
F0
01
F6
0F
FA
FE
08
FA
F6
11
1F
00
FF
07
EA
FB
04
02
0B
03
FE
02
02
00
FB
07
FC
FA
F6
FD
05
07
E1
F6
05
03
01
08
FC
01
FC
06
09
FD
F9
FB
FF
0D
FD
03
F7
03
08
FB
FF
FD
07
FF
15
F5
FE
01
01
08
0B
F3
FD
F3
0E
0C
FE
FA
F2
05
20
FB
FA
FD
E3
FF
05
FE
09
FF
FC
0A
01
F9
F1
00
FE
02
F5
F7
00
11
CE
ED
05
01
F1
05
00
05
05
F8
FA
F9
F7
F9
FD
FF
F2
00
F3
FE
0E
F3
FA
FF
01
00
21
EC
FD
FB
02
0B
0D
ED
01
F6
0A
09
FB
F9
F1
0A
1F
FD
FD
F9
EB
06
07
01
00
00
FA
06
FA
FE
F5
0B
FD
03
F1
FF
02
0F
E1
F8
05
00
F6
FD
FE
04
03
F1
FE
01
02
FA
FD
FB
F5
FE
FB
00
03
F8
FE
FC
FE
00
11
F3
FA
FE
02
FF
08
ED
FD
FB
0A
07
FA
FF
F6
FD
19
FB
02
01
E1
FC
0D
01
01
F7
FC
03
04
05
F3
FD
F9
F9
FC
08
01
1A
CC
EC
04
F5
E9
09
01
FD
09
F5
01
06
FD
FF
FA
0D
F9
FB
F7
FF
12
F3
04
04
03
09
30
EE
00
00
FE
01
04
F0
F2
F6
18
13
FD
F6
F9
07
1B
F8
F6
FA
D5
05
17
09
04
F3
00
0A
01
FE
E6
F5
F4
F8
F9
FC
FF
23
B6
EA
FB
EF
E1
12
09
05
0D
E4
01
04
FC
0B
F7
03
EE
FB
FB
FF
13
F0
FC
0A
FB
03
49
E0
06
FF
FD
F7
08
E0
F2
F8
1D
1B
FA
F8
F7
0C
18
FC
F7
F3
E0
09
09
07
FA
EE
FF
08
FC
04
F1
FE
F7
02
F5
05
FE
19
CB
EF
FE
F4
F0
02
00
09
09
EA
01
07
FE
05
F7
F6
F4
FB
02
02
09
EB
FE
0B
FE
09
30
E8
06
FE
03
FB
04
E4
F6
FF
15
13
FF
F6
F9
FE
1C
FC
FC
01
E6
00
03
FA
00
F2
FF
06
08
FC
F8
04
F4
FD
02
FA
06
10
DB
F5
FA
FF
F5
01
FC
01
03
FE
03
05
00
05
FF
01
F6
00
FF
01
10
F8
07
02
FF
07
1A
EE
FD
01
02
FF
08
F3
FB
04
0E
1A
0A
FB
F9
03
25
F9
F7
02
DD
04
11
08
FD
F1
04
0F
08
F7
F1
FE
F1
F9
FB
07
FB
17
CA
EC
FE
F1
E8
0D
04
FF
FE
ED
F5
04
00
0F
FB
03
E5
00
FB
FC
1A
ED
FA
0E
FB
FF
33
EC
04
03
02
06
06
E6
F8
03
17
24
01
FC
F7
07
18
07
03
0B
E7
04
03
04
F9
EA
07
00
0B
FF
F3
00
F5
03
F4
0C
FD
11
DC
F7
F7
FC
ED
0D
FC
0A
FC
F1
05
0B
FF
03
FC
05
F3
05
FD
FD
10
F3
F7
01
FB
0A
24
EE
0B
01
00
03
08
EB
F5
06
13
16
02
FA
FC
FE
0C
FC
09
06
00
02
04
05
F6
0A
F7
F7
0B
F4
FF
08
FC
FB
FF
07
03
FA
F1
07
06
04
02
05
FE
02
0D
0E
07
F0
FA
11
05
08
EC
03
03
FC
00
03
FF
F6
05
FA
FE
EE
01
01
04
03
01
00
F9
F2
02
F6
0A
FD
FF
F4
F4
F2
13
F2
00
10
1B
09
FC
F3
FE
FA
08
03
FF
0C
FB
03
04
09
05
06
00
1C
06
FC
25
EE
07
0C
00
01
02
F8
EC
08
FA
08
FF
0B
FD
FA
F9
01
05
F9
06
01
05
F6
F7
F3
11
FD
FF
F9
00
FB
FF
08
F9
05
08
04
FA
F4
01
05
06
02
09
EE
01
00
F1
F2
F1
03
0C
FF
F5
FA
F5
02
F2
02
FA
0F
07
FE
F9
D3
0A
FC
FC
06
12
FB
FB
00
FD
0A
1A
03
05
0E
05
17
08
01
05
10
F9
EF
02
E8
00
05
0D
ED
F5
15
FF
14
FA
0C
0D
0D
09
F4
02
1A
0A
07
F9
F6
F8
18
FD
F4
FC
F3
F2
F9
0C
FF
01
FD
FD
F6
F2
06
00
03
E7
08
F9
FE
0A
0E
00
F0
03
09
0A
FE
01
FD
05
FF
00
04
00
FB
00
09
EF
FC
08
FB
F8
FC
03
FC
F4
F4
FC
FE
00
FC
00
F5
00
F1
1F
10
17
1D
FC
1B
08
0B
04
02
0A
F3
1C
E7
F5
F3
07
FE
00
EC
FD
1C
0A
ED
12
2B
FA
0C
0C
FB
08
F5
F7
10
04
F2
E3
04
F6
F6
FB
E5
04
11
FC
F9
FD
FB
03
11
03
EC
FE
15
FE
E5
0C
EB
F1
FF
01
F4
EC
F9
18
E1
0F
18
2C
10
0A
EB
00
00
06
F8
0E
0D
05
0A
F5
08
FA
09
02
2E
03
EB
2A
E7
08
26
E7
F2
F8
05
E4
0E
F8
05
0F
0D
F0
EF
0B
02
0F
0E
07
03
0C
F7
F7
EF
1D
FB
F9
EE
03
F3
04
0E
ED
19
0E
23
08
0F
08
F5
07
FD
09
ED
F1
03
06
01
F6
04
EC
03
0F
09
F7
03
FE
05
FF
FC
FB
0E
E9
E7
F9
00
FF
FB
FE
F6
14
FC
0A
0B
09
FA
03
09
EC
07
FD
FE
FF
07
FD
04
00
02
FB
08
F6
F5
01
02
F2
FC
08
00
01
08
09
F8
FC
19
1E
FC
F7
FF
03
16
F9
EC
F2
F0
EF
DE
F6
F1
F2
F4
F1
F5
F0
08
FE
02
E3
0C
F8
F5
1A
F7
0D
FA
1B
0B
0A
FB
0E
FB
FE
04
F6
07
04
02
F7
17
FE
FF
11
03
F5
F6
09
06
F8
09
F8
F2
F4
FE
FC
00
EC
F5
06
19
2A
0A
03
07
08
F7
FE
01
0C
05
14
ED
FC
FB
0C
14
F6
ED
08
20
08
E8
0C
22
05
14
FF
E1
03
05
FE
0E
05
EF
EC
01
F4
F3
0D
F3
FE
0E
F9
FA
02
F9
F7
06
08
F2
FD
0F
FA
E6
08
FA
F3
04
03
FC
0D
07
10
02
FF
F4
DD
F5
EB
F9
06
E1
F6
FF
02
17
19
03
00
0A
F9
11
EB
FA
F4
2C
11
F4
FC
F7
07
00
0C
F7
F3
FB
08
05
09
F2
00
FF
02
05
0C
FF
03
0A
13
FA
06
F6
00
08
FF
FE
00
14
0E
F9
F9
FF
09
EE
06
F4
0C
13
08
00
E7
F3
F2
00
D6
05
F9
0B
FD
07
E7
F7
FD
04
07
02
FA
F1
06
0E
FC
02
06
F8
FB
09
08
F1
E9
F0
0A
FE
FA
F3
FD
06
F1
04
0F
E3
F7
06
10
03
0C
15
00
0D
0F
18
F7
EB
22
FC
F8
FF
F3
08
0C
00
F6
D9
0D
F6
14
2A
11
0C
F5
12
03
01
E4
F7
13
F4
F4
0D
00
E9
18
09
FF
C0
05
13
00
00
09
1A
FE
08
05
0C
01
F4
F3
FD
E6
FC
0F
F9
E0
14
04
0D
E6
1A
08
F7
FD
FE
FF
F8
12
E8
E1
06
17
DE
EC
FA
00
05
17
0F
06
FF
DE
F9
C5
ED
01
DB
FE
FE
12
15
12
07
FE
01
F9
1B
EA
00
F5
41
FD
E8
FA
F0
01
00
08
EF
01
FC
01
19
FE
FB
11
00
05
FD
06
F6
05
09
1E
01
01
EE
FB
05
FE
F9
FC
1F
16
F8
EF
09
0D
E9
FC
F6
24
40
05
09
D2
F3
03
FA
CD
F7
FE
FD
11
1F
D3
F3
FC
00
FE
0F
E2
DB
0B
27
EB
15
00
E2
F0
F7
04
ED
DA
E7
05
0F
F7
F6
19
0B
ED
0D
01
C8
02
18
11
FF
11
0F
FF
0E
19
0D
F1
D9
36
F4
EF
11
08
03
05
F9
01
CC
1A
FF
15
39
15
10
EC
24
07
00
D6
0B
1F
02
F3
05
F5
D6
30
09
0E
9D
05
1E
0C
10
0B
1F
E8
FD
07
00
FC
EB
FB
04
E6
F4
1C
F7
DE
07
00
05
D5
07
03
03
05
EF
FB
F9
1E
DE
CE
18
13
D2
F8
10
00
00
14
07
15
0A
E8
FE
D8
FE
0A
E3
FC
FC
13
11
0F
07
FD
0A
01
0A
EC
F8
FF
32
03
09
FE
02
FC
FD
F9
F1
02
FC
FC
08
EF
04
0B
FA
FC
05
FD
FF
0B
05
10
05
00
F7
F7
FB
FA
FF
FF
13
0D
FB
F3
10
14
EE
F6
F8
17
32
0A
10
E5
FD
FF
FD
D9
01
FA
09
10
1B
D9
01
F4
FD
05
08
E0
EC
05
2A
F5
00
FE
FC
ED
F4
FC
F4
EB
E7
FD
06
F5
FB
0F
07
F0
07
FF
CD
07
0F
04
FC
00
02
F7
05
07
0E
FE
E3
14
F6
FA
21
0B
0B
FC
09
F5
D6
17
08
25
38
21
12
E8
1C
13
FD
EC
05
2C
06
FD
02
00
F1
25
04
01
AC
04
1A
04
0A
FC
0B
EE
FC
09
F9
FD
F5
06
08
F7
F3
15
FB
EC
06
F8
08
D7
EE
00
01
F5
F2
EF
01
06
D9
D2
10
19
E7
F2
1F
FF
F8
EF
FC
05
FD
F4
FE
F3
0F
04
FF
FD
F3
00
FD
02
04
FF
FC
04
F6
F9
F4
FF
FC
F8
F9
01
04
EB
FE
02
02
01
09
01
FA
08
03
FC
06
15
0A
F6
F5
01
02
FA
F4
04
F9
06
FD
11
F2
00
0B
FB
FC
0E
00
02
F9
0A
FF
EE
07
06
FF
F4
01
FC
15
05
03
FB
EB
FF
01
02
08
FB
FC
FF
F5
07
F2
FC
03
0C
E3
F1
F8
E5
05
FD
02
0A
07
03
F4
13
04
F5
01
23
15
F3
FB
01
04
FD
E8
04
FC
04
02
11
E1
F7
07
F8
FD
0D
0C
00
F4
06
F8
F3
15
02
02
EF
07
F5
10
FE
FD
FF
F7
F4
05
FF
04
00
F6
01
F6
02
FD
F6
04
0D
E1
EE
FB
EB
12
00
FE
05
00
04
F5
18
0A
F0
03
1E
11
F5
F2
FF
04
04
E9
07
FC
05
0B
0D
E9
FE
FF
F9
00
09
09
06
03
F7
FB
FF
F6
06
0B
0E
07
12
D9
F7
F6
FD
0B
07
F6
F7
04
00
F7
0A
05
05
F7
03
08
1F
0C
00
09
F1
00
F2
00
0E
FC
05
EF
FD
FE
FF
01
00
01
FA
03
F5
0E
05
0C
FC
02
0B
03
FF
10
FE
08
04
04
05
02
1D
0F
F4
00
FB
F4
0F
14
10
07
17
CF
ED
FB
FE
0D
20
E5
FB
0C
05
EA
08
FD
05
F0
00
0B
2E
18
08
18
F9
02
EF
FB
0A
F4
03
F1
F5
03
07
FC
F2
FE
10
0F
F8
06
04
02
FC
07
10
F3
F1
0C
FE
F9
11
0D
06
FF
23
15
FA
01
F6
0A
08
0D
0C
06
11
DF
F0
F9
03
0F
1A
EB
F9
03
08
F1
06
FA
0A
F0
FE
08
23
18
06
18
F7
FD
FC
F4
0D
F5
FB
EF
FB
05
0E
F3
E2
F8
0A
13
FB
FA
02
FF
F3
00
0C
F9
E9
12
FE
F9
16
07
0A
0A
14
13
F7
08
FA
FE
F5
F5
FE
05
F7
0C
0C
FB
FE
09
06
04
FC
E9
06
06
FB
0B
04
0A
FE
03
F1
03
FC
F1
0F
F5
01
05
F9
00
00
09
F7
EA
ED
0B
FB
F1
FF
F9
0C
FA
FA
0A
00
06
EC
FC
09
14
FD
FC
02
07
08
16
F2
F6
01
FE
F7
FA
FB
F4
09
09
FA
16
13
F9
FE
01
10
04
F1
E5
04
07
F8
09
01
11
FC
08
EF
09
FF
EA
19
EC
13
04
FC
0A
01
11
FC
EB
EC
01
E9
F8
FE
FD
0E
02
F8
05
0A
05
E8
F6
04
20
F8
04
03
17
07
1E
E8
F0
FF
F8
F2
07
F7
02
06
0A
F9
17
18
FE
04
04
0A
08
EC
E5
F8
FA
02
FD
05
0E
00
06
E9
05
02
E8
1C
01
1A
02
F6
04
00
13
FF
EE
F9
08
EB
01
02
FF
0A
01
F2
07
13
04
EB
F9
00
1A
F6
0D
FE
07
04
11
F5
E9
0A
03
EF
06
F8
F5
01
00
0A
FD
01
03
FE
FF
F7
E7
00
FB
09
EF
05
F7
F8
03
FF
15
FB
FF
00
02
FD
E4
F9
03
FD
03
01
05
F8
FE
01
FE
02
07
01
00
08
FC
07
07
00
FF
FD
08
00
00
E7
FB
06
0D
08
02
F3
FC
12
08
F5
FE
FA
02
06
04
0B
FF
F8
09
00
07
F6
DE
00
02
01
EB
05
F8
FC
06
02
16
F6
FF
FF
04
03
DA
F9
04
02
00
01
05
F3
FC
F7
01
FC
08
04
FF
0A
07
FF
02
08
FF
01
06
00
FC
DB
F4
09
07
06
FA
F2
07
02
0A
FB
FB
FC
06
02
FF
07
FC
FF
02
FF
09
01
EA
00
FE
00
F2
FF
00
FE
FF
01
0B
F0
05
FF
FF
04
E0
FA
05
04
F9
FF
F9
F6
01
FA
01
FD
07
02
0C
05
06
03
04
0F
05
04
0B
01
F5
E6
FF
02
04
03
06
FC
04
09
00
F8
05
FE
FE
FD
04
0A
FE
FC
04
02
FD
F6
D6
FE
00
02
E9
01
F6
F0
FD
FE
25
F9
FD
FE
01
01
D6
EE
01
F9
FE
FC
05
F4
FD
03
00
FE
08
06
00
05
04
04
07
04
F7
FC
FC
FE
02
D7
F1
05
0D
0B
05
F2
0B
12
04
F0
03
FB
FE
00
07
05
10
FA
0A
01
06
F9
D4
FA
04
F5
D6
01
F1
E8
00
FB
39
F7
08
03
05
FF
D1
E6
02
FE
FE
FD
FF
F2
F8
02
02
FC
0D
01
06
09
03
02
05
00
00
00
F9
FF
FB
D0
F2
11
0A
09
0A
EA
0C
14
FF
EE
06
F1
04
02
04
0E
09
01
04
01
08
F6
DA
FE
06
FD
DA
01
FF
EF
F1
F9
34
00
06
03
04
0A
DF
DF
FE
FB
FE
FB
FA
F4
FB
08
04
F6
11
05
0A
03
0A
03
FE
07
01
05
FD
08
F9
DD
F6
12
05
03
0F
FB
0A
0A
03
02
05
05
FB
04
FE
04
FF
FE
0A
02
02
FB
DC
FB
06
0A
F8
FE
F7
FF
FC
FB
0A
F5
00
FC
08
FF
DF
F3
04
FA
F8
FD
FF
00
01
07
00
FE
06
0B
04
04
07
FC
03
08
FD
FA
FD
02
0A
E1
F5
FB
06
05
02
F4
09
23
03
F6
07
FF
F2
FB
FF
0B
0F
05
0D
08
01
FE
CC
FC
0C
FE
E0
03
F4
EA
FC
FF
23
FF
0B
05
0C
00
D6
EB
08
FE
F8
FD
04
F9
FF
00
FE
FF
11
07
0C
0D
02
FA
06
FB
04
FE
02
03
FF
D6
FD
08
05
0C
07
ED
09
21
00
EB
0C
F1
09
FC
00
12
12
05
0E
03
00
FA
E0
06
0A
03
DB
04
FF
EC
FF
01
29
FE
0E
07
0F
0A
E6
DE
00
FA
F0
FC
08
F8
FE
05
03
FA
15
0A
08
0A
09
00
FF
10
03
05
FD
05
02
EB
FA
0B
F4
06
11
FC
0A
10
FA
05
00
16
FE
09
10
F8
FC
FA
01
04
FD
F2
21
04
F8
EC
02
F8
00
05
FB
FA
F3
01
04
FD
F8
04
11
03
0D
0B
FE
FF
F8
05
FD
10
FA
05
F7
ED
FF
F8
13
02
EC
F5
FC
00
03
08
F1
13
FF
F6
FB
F2
FE
FE
01
1A
F4
00
11
1C
00
11
1E
F5
0C
06
09
08
F2
F1
3D
FF
F9
EA
0C
02
FD
0A
FB
F4
F6
0A
0B
F7
03
02
20
09
0E
20
05
07
04
01
F8
0A
FC
17
F6
ED
02
FD
14
02
EA
F8
FB
F9
F6
0A
EB
1E
01
FD
02
F6
00
00
05
26
FE
00
06
10
F9
08
24
FA
1C
11
0A
FF
F4
FF
2B
FF
F6
F4
02
03
00
03
02
F5
F7
04
FA
F5
00
05
19
01
07
20
0C
FF
09
ED
F5
00
F9
17
F7
EC
F6
F4
FD
FE
F0
EA
05
04
F3
02
F3
11
08
F3
17
FD
07
00
FF
E4
0D
09
06
EE
05
16
ED
06
D8
F7
0E
00
14
0E
DF
F9
FB
F4
F5
F2
F1
01
F3
03
18
F2
12
10
F9
E2
D8
05
04
D9
BC
F8
F9
FD
01
04
09
E6
EA
18
0D
FD
0E
0F
1F
F4
0C
F0
1B
F9
EE
FB
FD
09
0D
F8
F4
F5
FC
CA
23
14
01
EF
14
18
DE
03
CA
EA
0A
0A
23
14
CD
0D
12
F7
F0
EA
F3
06
EB
F9
23
DA
01
19
FB
DE
DC
01
0A
D4
9A
FE
F6
1B
00
05
17
DD
E0
26
01
02
13
1C
16
EF
14
F9
26
EB
E9
06
03
1F
FF
E7
E7
F4
07
D5
18
10
05
E4
27
0C
E5
00
D4
ED
FC
07
19
0C
D4
09
13
0B
ED
EB
00
FD
F4
FD
17
DC
03
0C
03
E9
DB
FF
03
DF
9F
FA
F3
31
03
07
16
EA
E7
22
08
FC
1E
18
F7
F8
08
FE
21
F0
EA
FF
FF
1B
F7
F9
EA
FD
0D
2D
F1
0A
FE
09
EF
FC
11
00
18
04
07
FE
F0
ED
1D
08
FE
FD
02
02
EF
03
01
06
FF
FE
0E
F1
03
0C
05
E6
ED
11
0C
F7
0F
F3
FE
08
F7
05
FE
EE
F7
00
13
F5
FD
FA
EE
F6
EE
01
EA
0D
FF
F4
01
FF
F7
E7
F4
44
EE
FB
1A
FD
E6
F7
1F
FE
19
10
12
04
EB
EF
16
F8
FD
01
F1
10
E4
FD
05
03
16
0B
1D
F7
FB
13
FF
EF
F2
FA
04
F9
29
E5
FE
0A
EF
0C
04
E5
FB
10
06
FB
04
F5
E8
F5
F1
0F
E5
18
10
F9
FF
0D
F8
D7
F5
31
F7
09
2C
FB
ED
F2
11
FC
0E
0A
0F
FC
ED
0A
12
F8
FB
F3
FA
0E
EE
FA
FE
FE
FD
FC
1A
FD
05
0B
FD
07
FC
EC
FF
FA
24
E8
F8
03
00
0D
01
F2
F6
0D
F7
F9
11
02
02
02
EE
04
E4
10
F7
FB
00
03
F3
F4
02
0E
FD
03
00
08
01
01
FE
F8
E7
03
FE
FB
FD
01
03
F7
FA
F6
FA
07
01
06
FE
06
04
F9
0A
FF
08
FF
FC
FF
06
07
FA
F8
FD
F6
FF
03
05
FD
F8
FF
FC
03
07
01
F6
F4
F7
FE
04
F2
0F
03
F5
FB
FE
07
F8
00
09
0B
02
13
07
03
FC
05
F3
F6
F5
FC
F7
F1
04
F5
07
F5
F8
0C
F9
F8
FE
04
F0
FC
FF
02
17
FB
04
0D
00
02
0A
07
ED
FF
FF
F4
F6
0C
00
ED
F2
06
FD
04
05
01
FE
FA
FE
F5
08
EC
1B
FB
F3
F4
02
FD
F9
00
00
05
0D
15
0A
04
FC
0B
F7
FD
F5
F3
F0
F1
04
FC
09
01
F7
10
01
FA
00
FF
F4
FC
00
13
18
F7
0A
06
03
F7
04
06
EE
F8
F6
FA
FF
0B
F8
F8
EC
FA
F5
FB
0B
05
FE
03
FC
FB
FE
EB
17
02
FA
FB
FB
07
FB
FC
FF
15
FD
02
02
0E
FC
FF
FF
FF
E9
03
F8
03
FA
FA
0A
FA
FC
F9
FA
09
FE
01
EC
05
09
F9
12
FF
0A
14
FF
08
05
06
03
FC
FE
EB
FD
FB
FC
EF
F1
F7
07
03
FC
F9
F4
F3
F8
F9
03
F6
1A
FE
F5
FA
05
FE
F5
FF
04
12
06
09
02
09
F8
04
FC
F6
F5
FD
F1
FE
03
F3
16
EB
F3
05
F3
F8
06
FE
EE
04
01
08
1C
F5
0A
20
FF
11
03
0C
FB
FD
FF
DF
F7
03
FC
D5
E2
ED
05
04
EF
EC
F5
EE
FD
F5
FD
F1
3E
08
E7
F4
0B
FA
ED
F5
FA
0D
13
16
0A
05
F4
02
F9
F8
02
01
F1
FA
03
F0
13
F5
F5
12
FF
FA
04
FB
EC
04
02
04
1A
F3
0B
10
00
F9
07
0E
E7
01
02
E9
FA
03
F8
E1
E8
EA
FB
FB
FE
F1
FB
02
01
FA
01
FA
31
02
EB
F9
FD
00
E9
F3
FF
1E
06
FE
07
09
F6
FA
0D
06
EE
05
F7
02
03
FD
0A
FE
F7
F1
09
06
FF
09
F4
01
00
E9
04
FD
03
14
03
0A
00
FD
04
00
F5
F3
02
F2
FA
ED
EE
00
04
04
07
FE
F7
03
F7
F7
FF
07
0C
06
FA
02
0C
FE
F3
01
03
0C
0C
FF
FC
10
F3
FF
15
04
ED
0A
F0
00
05
FC
0E
EE
E9
03
06
FF
05
02
F9
02
F5
F5
16
02
F7
23
F5
0D
FD
0A
F9
07
F3
E4
00
F2
FD
C5
E3
F4
01
05
FB
04
F8
FD
01
F4
FD
0B
31
0E
EB
F4
06
FE
F8
FC
FF
05
03
00
03
FC
EF
05
0C
EC
F5
09
03
07
11
F0
0F
EA
F1
07
07
FF
03
FD
F4
05
F7
FB
15
04
F6
12
FF
0F
00
0E
EF
FF
FA
ED
00
F2
ED
D8
E0
F6
FF
FE
04
FE
F3
0A
FE
F5
07
08
27
06
EA
F4
04
F6
FD
FD
01
F3
00
21
23
FC
F2
EE
1C
ED
14
05
FA
FE
F6
EC
DB
F3
04
0A
FF
07
F9
F7
0A
F7
1D
03
0E
E7
05
09
EF
1D
03
10
03
04
38
06
01
F7
FB
05
10
DE
E5
FA
23
00
F2
14
FF
0E
F7
0D
0C
EF
0D
0B
E9
15
0A
03
FA
EF
03
DF
EF
D1
1C
FA
EC
02
F2
E7
FC
14
01
1B
F2
15
F6
F3
09
FB
04
1F
E9
02
D7
E5
FE
07
FF
EA
F2
EA
04
EB
FC
FD
DA
F8
FC
F1
F0
E6
EC
1B
18
11
FB
F9
1F
FB
06
FC
FB
03
F4
17
E2
F1
32
FF
EE
12
1D
09
F6
FE
FC
07
F9
EE
EE
E8
03
09
E8
0B
02
FD
1A
FD
FD
01
08
02
EE
F9
FC
FA
0D
0E
EE
01
F3
01
0A
01
03
F3
1C
04
F8
FB
03
0B
EF
0E
03
E8
F2
FE
FF
09
01
F6
F7
03
FE
E9
05
F0
10
F7
18
ED
FF
F6
0D
E4
09
0F
04
F2
2D
E5
0F
17
F7
E2
02
00
FE
FF
E1
F8
F6
05
08
0F
03
08
F0
06
F4
F9
13
06
FB
03
F6
10
03
EF
E6
FA
02
02
FC
F6
02
F0
04
1C
EB
F1
25
08
FE
20
07
08
FD
13
FC
0B
DD
14
F3
09
F5
17
27
10
EE
DA
F4
D1
DF
FB
D4
D7
FC
24
D9
FE
F2
29
29
1B
FB
FD
02
F6
E0
18
F6
FC
1B
F1
F2
03
F8
F3
09
E2
08
F9
2B
04
E5
FE
FA
F7
F6
05
00
12
2A
22
C6
F6
27
D2
EC
FE
08
FF
F5
06
10
EB
4E
F0
F3
DC
ED
02
F2
F6
1D
0D
47
DD
20
EF
06
FD
F8
06
ED
D9
13
F3
FB
03
04
0E
EC
01
04
00
25
10
F6
0D
E9
17
27
FB
FD
E2
0B
01
25
EA
0A
0E
F5
19
0F
F2
DA
EC
24
FE
D3
18
FA
FF
ED
F1
0E
F2
01
00
DB
F6
FA
F5
0C
ED
FB
03
F9
F4
04
F7
F7
04
EE
FC
FB
12
F1
24
FB
F4
F4
04
0D
03
F4
03
EB
FC
F2
F6
01
0F
F0
EC
02
03
05
E6
F6
05
E3
FF
FB
EF
FD
F0
E7
24
09
FA
F3
03
12
07
FE
FC
0A
F6
03
12
F9
09
22
01
ED
F0
0C
1A
F2
01
1F
F1
E8
FE
14
D7
04
18
DA
ED
F3
F7
07
06
FB
06
FC
02
EB
03
0F
F9
3F
06
0E
F4
F4
1B
09
0D
FE
F9
39
F9
2F
FB
0E
FD
F1
22
10
DE
F1
F9
14
01
05
16
E5
EF
