F9
08
10
FB
FA
01
01
03
FA
06
0A
00
FA
23
08
03
FC
23
FB
FC
BB
0F
FC
03
07
F9
FB
05
06
04
FA
FE
FD
FA
F0
FB
F8
25
04
03
FA
16
FF
03
01
0F
FB
04
F8
03
1D
FA
02
04
0C
00
03
07
E6
F3
C6
FA
F5
0A
0F
D1
0A
04
E8
F7
D1
01
04
F4
F7
E9
F2
E9
FC
EB
F4
01
00
F1
F0
FC
F8
F7
F0
08
DE
0E
02
E9
E9
FC
0A
00
35
D4
09
E6
E9
DD
D4
DC
FE
F8
01
0B
1E
DA
D7
D7
01
04
04
E0
FC
FD
ED
00
EB
07
E8
F4
11
F5
FC
EC
FC
FF
02
ED
23
02
00
04
F8
F4
FF
03
0A
F7
FD
EF
F8
00
FB
FF
1D
EF
FE
FF
DC
03
F1
F4
F6
F3
EB
FF
F9
0D
FF
02
04
08
05
11
FF
F4
03
04
F8
FC
09
FF
E0
07
EF
03
05
00
01
13
03
0C
01
F6
F0
FB
3C
09
FB
EC
04
00
02
E6
F8
FB
06
FF
FF
F5
04
FB
F5
02
FE
FF
0A
CE
FD
05
F6
FD
00
0B
04
FC
F7
03
02
04
F8
F3
24
0F
01
FE
05
FD
2C
F5
05
FE
F8
04
FF
F7
0F
F8
F0
05
FD
FB
01
00
06
FD
FD
FC
FB
00
13
F6
03
FA
FB
FD
03
FF
FA
0E
FE
0B
FD
AB
0B
01
07
10
01
03
2D
ED
FC
0E
FA
FF
00
02
07
02
05
F4
FD
FA
EE
FF
F6
17
11
0E
03
14
1C
F4
03
ED
FF
04
FC
03
07
FD
04
06
08
0D
03
FF
19
FD
FA
F8
FC
04
F9
F6
E1
E2
02
FE
FE
06
1F
07
F9
08
0A
06
FE
01
0B
0B
00
08
07
04
00
0D
07
02
02
00
05
EE
04
E6
08
09
FD
06
09
06
F9
EF
FE
FB
FE
13
FA
11
17
08
06
FD
FA
81
04
00
07
0E
FD
02
DA
0C
FB
0A
FD
2B
F9
FF
08
E8
02
05
00
F5
FE
07
01
00
F5
0F
FA
FE
0D
FB
04
05
ED
FE
00
FF
B8
0F
03
04
09
03
05
0B
FC
02
F5
F8
54
F6
0F
0B
FF
11
07
FF
03
FB
00
03
05
07
FA
0A
FA
05
02
EE
FF
07
03
FD
04
F7
F9
F8
09
09
11
57
FE
07
00
10
F6
F4
FE
08
05
01
03
03
08
06
F9
0E
DF
06
02
FC
B5
10
01
FF
04
FD
FB
0C
FA
02
F9
FC
08
E4
F6
03
FD
0A
09
04
FC
EE
0D
05
FE
F6
11
F6
00
FA
07
F8
03
02
0D
FD
FF
F7
06
0E
F0
EE
F9
FC
FD
E6
FB
FF
FB
F5
EC
E3
F9
FF
0D
EF
FB
FF
39
F6
05
FC
08
FE
FC
00
FF
05
DF
F2
FD
03
0F
17
08
CA
FD
FF
E8
FB
17
FE
03
F9
0C
07
FC
ED
2F
14
F6
FA
01
20
FA
FF
05
10
01
1A
F8
FD
06
FA
03
04
09
00
FD
08
12
00
14
07
03
1A
0A
01
F3
F0
07
FF
00
FD
FF
00
D3
17
00
FA
0D
02
F8
2A
FF
22
F4
F4
06
FE
FD
05
F6
F6
FC
FC
05
0E
01
F7
18
02
FB
07
F4
F5
E9
05
02
FD
F8
F5
00
F8
FF
F8
FD
FE
FC
03
F9
FC
00
FC
00
FF
EF
04
F5
FD
02
00
FB
F9
01
F5
FE
03
02
03
F9
FC
02
01
F9
05
FC
FB
02
FE
03
03
02
04
25
08
F7
07
FB
F7
02
F9
09
09
02
F8
01
FC
FD
FB
FC
FD
FA
FB
FC
03
1A
FD
05
04
FB
01
FA
FE
F6
06
FE
FB
03
0D
13
0C
FA
F6
03
14
05
FC
01
FA
08
0A
E6
08
FA
0F
19
01
01
FF
FF
FA
02
F3
F6
FA
03
03
08
14
FF
05
FF
03
FE
07
04
0D
1B
02
FC
03
F5
02
09
FA
04
0A
F5
04
0E
F9
E1
2B
02
D8
06
17
F9
02
07
E5
FC
EE
03
FB
03
FD
FD
07
F0
00
FE
FF
E7
F0
FC
EE
03
FB
FE
F5
FD
FC
F3
FA
3B
00
F6
F2
EF
09
FC
07
F2
E9
C0
18
0B
F8
18
1B
03
00
0E
F8
DF
04
FE
01
EB
0A
01
16
07
07
06
EE
DD
FC
F7
01
FA
FF
F5
F1
FA
EF
05
0D
01
FF
04
F6
F7
0C
52
F8
F5
12
FE
F2
F9
F2
01
37
F9
27
F0
0A
F6
03
03
F5
2E
FE
03
FE
E8
F6
FB
15
00
01
02
F8
05
FE
05
03
1A
01
FB
01
E8
16
05
02
ED
F5
F8
07
F4
FD
F3
05
06
15
FE
F9
03
0F
F9
00
00
FC
03
29
FB
FE
FA
03
02
FF
E9
FF
FD
F8
E5
0E
FF
FE
02
04
FB
FC
FA
F9
13
FE
DC
F1
FD
FA
01
06
09
00
FD
F7
FD
FB
FF
02
FD
08
FC
F5
01
F2
09
FB
FA
0B
EF
0C
FF
FA
FA
F8
FD
94
F8
02
FE
00
0B
FA
01
FC
EE
F0
02
06
04
FF
08
06
10
F3
F9
08
5C
EF
FB
12
0C
00
04
FE
EE
00
09
06
21
F5
1C
FB
FF
0E
0C
F2
FD
18
F6
F6
FD
08
F6
05
07
11
FF
16
FE
F7
F2
01
F4
EB
FD
EB
F9
09
F5
0B
0C
01
FE
01
DE
F9
FC
06
0A
FA
09
03
F7
1E
03
07
FB
0B
0A
19
04
0E
06
FD
03
F8
FC
FB
01
06
F4
02
05
FE
FF
FC
FF
03
08
03
08
09
FA
04
06
01
04
D2
D4
FE
01
07
01
04
E4
02
FF
10
00
13
E4
FE
EE
0B
F2
EF
FF
01
04
FD
F7
F5
FA
F6
08
FE
14
02
FA
00
08
19
00
FD
04
EF
FC
F0
ED
FB
0A
06
0A
0F
F9
15
FF
04
02
10
02
08
EE
06
08
07
F8
06
D8
EF
02
FE
EA
18
E6
07
04
05
07
0A
FA
00
FE
02
EE
FC
05
21
F3
FC
04
FD
F1
06
09
09
02
F8
FB
F7
05
0C
F7
FE
11
01
0E
07
02
04
09
FF
FD
FD
00
07
FC
01
FD
04
FE
00
04
05
F6
F5
F9
04
FF
01
00
00
F6
00
FF
F3
04
03
00
01
10
03
05
FF
05
E9
02
F9
CA
F6
FF
F5
F5
04
04
0B
05
02
FF
FA
09
13
05
03
12
04
06
08
D2
2C
FF
FB
EB
01
02
F2
05
03
0F
F3
FD
FB
06
0A
F8
ED
E9
FC
FC
05
EA
0C
01
FB
F9
FB
F6
03
FE
05
02
ED
FC
05
00
00
F6
FE
F2
0E
0A
08
EE
E3
13
F4
EA
BF
06
EF
1F
18
D7
F1
F8
0D
12
34
03
F9
F5
FA
F7
02
F7
01
F7
FF
08
EA
BB
DA
FF
D6
26
24
FE
E5
F5
00
05
08
FC
14
0D
F2
F9
F9
F3
09
04
FB
EA
F8
E1
20
F5
03
D1
10
0E
27
05
E4
EA
FF
F9
09
16
FE
F1
FD
07
0E
BF
01
01
07
F5
01
FE
07
FA
00
00
00
0A
0B
F8
FA
09
06
0A
FE
0B
02
01
0C
FD
FA
FA
FE
FF
20
FB
04
01
FD
08
F2
01
FF
00
0B
07
02
F7
0E
04
F9
07
0E
00
0E
E1
F9
DC
FE
04
13
01
FD
F6
0B
16
F9
03
FC
03
04
06
FC
FD
E1
01
04
F6
05
FD
FC
15
EB
08
0B
07
F9
02
FE
FB
03
FC
F9
FE
FC
04
06
04
00
01
FD
07
FC
04
FB
FA
0B
ED
01
F8
FE
FB
07
02
FF
0C
01
FE
F6
FE
07
F0
F5
07
EA
05
04
0E
D3
E7
F8
08
0D
F5
05
FE
F8
FD
F7
FA
14
F6
0A
05
F7
F8
FF
FD
0C
ED
19
06
05
06
07
06
17
FB
00
0D
02
02
F5
05
04
05
F5
08
FB
00
F2
1F
03
05
04
FE
00
0B
F4
05
EF
FF
FF
F5
08
00
06
F9
0E
0C
EE
02
1C
03
05
FD
FF
03
05
00
00
03
FC
05
01
FE
05
FC
FA
FC
E8
09
F0
60
01
FD
F4
05
04
FE
05
FC
05
02
05
87
DD
F9
F2
02
0C
03
0B
FA
EF
09
03
FB
00
F6
FA
0E
03
07
13
FC
FE
EF
03
F8
0C
07
08
EF
FE
F7
25
05
F3
05
08
08
04
08
05
FA
E0
F5
FB
F7
FD
04
FC
10
0A
FC
FB
10
FB
FF
FD
FE
FD
FE
F5
F3
F7
FD
02
E4
0B
08
FD
F8
00
08
FC
0A
F6
05
01
F5
FA
FB
09
FB
05
FF
0B
03
02
03
F7
FD
05
03
09
E0
EB
E8
06
0D
F0
F4
FD
F7
1E
0D
02
00
07
16
FD
1D
05
FD
F8
02
F1
EC
0B
FD
D4
F1
00
F5
03
FF
00
04
F7
20
03
F6
08
FB
FC
FD
F7
0D
01
EB
01
D3
0A
04
F7
01
EE
06
09
04
C5
FB
14
F6
07
06
F3
08
FC
09
1C
FF
03
09
09
01
04
FD
02
F6
0D
FF
00
F4
05
09
00
F7
05
0A
FF
F8
03
00
F9
FF
EB
F9
FF
01
00
FA
F0
FA
23
01
03
F9
1D
1A
06
FA
FF
F1
0E
FF
16
C4
E5
EC
FB
FB
F2
DF
09
FD
F1
FF
EB
00
05
01
FA
1E
F8
06
EB
FD
02
02
04
FB
FE
FD
F7
FF
32
01
05
0D
F6
0D
06
F9
F3
FF
01
0A
08
04
FB
00
FE
00
08
05
FD
F9
05
CF
A8
01
FD
F9
01
05
13
FE
FD
FB
02
F2
08
F4
03
07
FC
FB
03
05
00
07
04
46
F8
02
02
F5
03
F7
05
F5
ED
EB
EE
FC
F6
ED
EA
F7
0D
F8
D5
FE
FE
FB
ED
E4
ED
F6
E9
FE
0C
DC
FD
FE
D7
F0
F2
07
EB
F7
F9
FB
01
03
F8
EE
01
04
FA
FC
D5
FB
D4
F2
E6
FE
11
E6
FF
F1
FE
EC
F5
F5
0E
F7
10
FB
F6
24
00
E8
FF
0A
01
F1
FA
11
FB
10
E9
FC
F8
05
FE
FE
E0
FD
F7
03
05
ED
D0
05
19
08
05
E4
FC
07
F9
F3
F7
04
00
03
FA
03
07
04
3F
F2
F6
08
F2
EE
EF
F9
04
05
06
FB
27
F5
12
0E
EA
00
0E
04
F7
FC
06
F6
F9
19
FA
08
FE
01
FA
ED
F5
05
0F
EC
E6
01
00
16
10
FC
0E
24
0D
F5
F6
F6
08
01
0A
0D
FE
02
14
03
F8
F6
FD
06
EC
11
F8
01
11
F8
EA
F7
17
F4
08
FE
07
06
FF
F7
0A
09
FD
04
0A
EC
F0
3B
E6
06
12
06
F8
F3
09
FC
FD
01
0A
03
0F
01
FE
03
ED
04
FE
EF
FE
F3
08
0E
F5
07
08
08
1C
01
0D
FB
07
F7
F8
FB
FE
0E
00
08
FD
03
F2
FA
01
1A
04
FF
0E
08
00
03
07
03
FB
08
FF
12
EC
FF
FA
0E
FB
FE
02
FB
FE
FC
FB
15
D6
07
00
08
FD
08
00
05
06
05
FA
00
FC
02
0C
00
09
03
FD
00
0C
1C
EF
0C
03
08
0C
03
07
06
03
03
00
EC
01
0C
05
00
0D
FE
F6
FE
0E
EC
08
FF
01
06
2A
FF
09
07
01
04
04
F2
00
F5
13
09
CD
19
0B
FE
FD
00
08
01
F9
00
03
FF
FD
07
0F
FF
04
02
F7
00
01
F2
E9
FD
FD
02
07
FD
FF
FE
FB
F9
FE
FC
F4
02
04
03
F4
01
07
0C
07
0A
09
F7
09
FE
06
ED
05
FD
FF
FE
07
04
F5
09
F7
01
F7
08
FF
02
06
FC
00
00
0C
00
0A
02
F7
E8
FC
F8
F6
04
F1
FD
04
05
0C
03
03
0D
FA
05
0C
D3
12
03
F2
01
0C
02
FB
FB
FF
F6
01
20
D8
01
0D
FB
F0
05
FE
02
FB
06
FD
04
05
FA
08
0E
F9
FD
ED
04
F5
12
06
2C
FC
F4
02
E0
0F
2E
ED
09
FC
01
0D
E6
FF
F4
00
FC
01
06
F0
00
04
FE
04
FF
09
08
0F
00
0F
FD
15
06
0E
0A
1C
F5
FA
F2
04
0F
FF
07
04
07
FA
05
F4
0D
15
EE
0A
04
06
0D
0B
F8
F3
0D
01
FC
F6
02
F2
02
EB
05
F8
10
0C
FB
0E
FF
FE
F9
11
11
F9
F1
FD
00
30
F9
0A
FB
F1
FC
FF
D1
FF
FE
FB
F1
0F
FA
F3
F9
FB
01
0E
F3
F8
0A
FF
F0
FE
FC
F8
02
F6
01
01
F4
06
1B
04
0F
00
ED
EB
13
F9
F8
06
F6
FD
FC
FC
F7
22
FD
FB
01
FD
F7
FA
FE
FD
FA
FB
05
00
01
FD
00
03
FD
F9
00
00
00
FD
FE
FC
FE
FD
02
00
F8
00
FC
F7
FD
FD
FF
FF
FB
FE
07
03
FF
FB
F6
F6
01
FA
01
FA
03
F8
FD
FA
FC
FA
00
FA
FC
01
FD
01
FF
FA
FA
02
01
01
F9
02
F4
FE
02
01
FE
00
EF
07
02
FB
F4
03
FC
01
0A
E3
FE
FC
FE
00
FB
E7
05
ED
FE
09
08
FA
FC
F0
FA
F9
F9
FF
FC
FD
03
06
FD
11
FD
F8
F7
0F
C9
FE
01
04
07
28
04
02
FB
F0
03
04
EE
F5
FE
F3
05
F2
00
04
11
07
01
01
F1
FE
F5
F7
FF
EF
FF
00
FD
FB
F3
1E
08
0D
F6
FA
00
FA
0A
20
0B
02
05
06
00
15
01
02
ED
FF
FD
F4
11
06
FE
0A
05
FA
0F
F8
04
03
F7
02
04
15
CF
F7
FA
09
02
EC
07
FB
F7
05
05
06
0E
EB
00
E7
0A
DE
01
00
FC
09
FD
F3
F6
06
05
FF
F6
02
F3
FE
FF
FF
FB
03
FB
07
00
00
EB
F5
D9
08
00
15
F6
20
04
12
FD
F5
1E
06
14
D9
F8
F3
02
FC
E8
FA
E6
03
00
EF
FE
09
FD
05
01
27
00
F1
EF
FC
7A
FC
FD
FA
F8
FD
01
EB
0E
08
05
04
06
1B
01
FD
E7
02
02
FA
F4
B5
02
FA
09
02
FC
0A
FD
01
F8
FA
05
00
03
FF
D2
E4
04
F1
FF
06
6A
00
FE
E0
04
FC
0D
F5
FC
0C
F4
F6
0C
F2
FA
00
FC
FA
0C
FF
FE
0D
FD
F9
EA
0F
07
06
FD
00
3B
FF
F7
FE
0A
F1
FC
F9
0D
07
F9
01
08
FB
07
0E
ED
04
05
FB
00
F9
FD
F0
00
01
F6
00
FE
E3
0A
03
FD
FF
F6
08
FF
10
15
05
06
0D
07
EA
FB
00
00
00
01
F9
00
FE
38
FF
FC
CA
09
03
FF
0C
17
00
FE
FE
FB
04
01
FB
00
11
01
01
F8
07
F6
03
E1
FB
01
F8
EA
0A
FF
0C
FA
03
FB
03
F1
FB
11
F9
02
3C
FC
03
01
0A
03
08
01
02
03
F8
FF
02
04
00
0D
03
FF
FD
FD
FC
0B
02
B7
0E
04
FF
FA
00
12
FA
F9
F1
00
FD
07
F4
08
EC
08
06
00
13
00
FE
FF
FC
05
F9
2F
0A
FA
06
06
FE
04
DB
03
F4
0E
07
08
04
FE
03
FD
05
01
FB
07
F5
04
FA
28
FE
01
FA
F9
F8
F3
FA
FA
04
12
02
FD
03
03
0C
05
09
09
E0
C5
FC
F5
E2
07
FB
F5
F9
15
04
EC
FF
04
B3
0B
F7
06
EE
FD
05
06
F4
FF
FC
14
FC
F3
16
02
2E
FF
1C
03
11
05
F8
F0
F1
02
07
F9
E6
15
FE
F6
FC
FC
EF
E7
ED
37
F2
05
F4
11
EA
19
1A
F9
06
07
FE
09
F8
CA
03
02
FF
07
FE
FB
06
F9
FA
FF
02
0F
05
09
E8
04
05
05
00
F5
ED
FE
F7
FA
08
FD
05
00
D7
01
FE
04
00
08
03
F4
FD
FF
08
F4
05
F6
02
D9
02
FF
01
08
D6
3B
FD
FD
F9
FB
04
F1
FC
06
FC
00
02
DC
0C
EB
D3
05
F1
08
EF
E1
E6
DF
EB
FA
03
FB
F7
20
DE
04
FA
2F
27
F9
E3
E0
EF
FA
ED
F6
F3
FF
14
FF
02
08
0B
E0
FA
EF
EB
07
E8
F1
0D
F6
FC
FB
F7
13
03
D3
ED
C5
EA
EE
0F
F0
FF
01
04
38
2D
F1
E4
13
02
03
FC
0C
0C
FF
04
04
00
0D
05
08
07
FF
07
0A
04
06
FD
FF
FE
FA
14
06
F8
00
02
F4
FC
06
03
08
FC
FE
02
03
05
02
FE
04
4D
00
FF
F7
F1
F7
02
03
FE
FB
FD
F1
0B
01
FE
05
08
04
07
06
0B
04
0B
03
03
E7
F7
F7
FB
FC
FD
13
FA
0F
FF
03
FA
FE
FA
FD
FD
FD
FE
03
01
F9
17
05
05
F6
03
FC
EF
FD
F2
FA
F3
16
FC
FD
0A
FB
04
FE
06
FB
0B
FC
EC
1D
FE
FF
FC
F7
EB
10
F6
08
02
0D
F4
2F
FB
EB
1D
F8
F4
F1
F8
0B
FC
28
0B
FD
F6
FD
02
0A
03
01
FA
F2
F7
FB
FB
18
FF
04
13
00
03
08
FB
FF
0C
08
02
03
EA
F9
E9
FB
E1
0D
05
01
ED
F7
FB
04
05
07
F6
FF
DE
2E
1A
F0
FB
F9
DA
01
F3
F1
01
02
DD
02
04
FA
FF
F3
FF
FD
E0
F9
FF
FE
F1
F6
04
EB
F9
FB
18
FE
FE
F2
12
F9
FB
FF
FD
FB
FB
40
EA
06
0B
FB
FC
FF
01
F3
F9
13
FE
D9
3E
FC
14
FF
F0
02
01
07
07
F5
01
03
05
00
EA
F6
FE
07
0E
0B
FF
EF
02
C0
0A
F3
E7
13
01
FB
15
F7
FB
01
F3
F8
03
07
FB
06
07
01
00
F4
FB
FD
FD
F1
E1
F7
FC
B3
17
FE
FC
F7
01
01
00
04
03
07
01
36
F1
FD
FD
03
08
18
FD
F9
09
F7
FA
FF
07
FD
08
ED
FE
00
E4
FE
F6
16
03
FD
09
FE
01
F9
FE
F1
08
02
00
08
FE
B3
01
FC
F0
FC
01
09
01
F8
D9
FE
FC
F6
F9
EE
E3
03
05
03
03
01
09
00
EC
F0
00
FA
F7
08
F8
05
11
FE
07
05
F6
0D
FB
B6
0A
FC
05
0D
FA
EB
10
FB
01
F9
F8
E5
07
FA
E3
04
0D
F6
FE
D1
EE
EC
EF
09
EF
FE
06
06
1B
FA
07
F5
03
F9
1C
04
05
00
E5
FC
16
F8
DE
10
03
FF
13
FD
EF
FE
F4
0F
00
FB
F0
FD
F5
FE
F0
00
04
EF
EB
F3
09
07
F1
F9
3F
2D
00
03
E9
04
0F
F6
F3
F5
E6
FD
29
FE
08
E8
FB
01
FF
01
04
FE
03
FF
F5
00
01
04
02
0D
02
FB
05
01
FE
FE
16
F5
01
00
02
01
08
FD
EC
F5
FF
03
FE
07
F0
02
08
00
06
FB
05
07
03
E6
04
05
03
06
28
07
FE
FB
FA
03
FB
1D
06
06
0B
FD
9A
FD
FF
0E
E4
01
FA
FB
F6
2B
FE
FB
0B
F7
12
FA
F4
FF
0A
01
01
D9
FF
01
EB
06
08
F9
F9
F5
FC
06
07
FF
FE
F4
00
22
E8
01
FA
07
0A
FB
FA
F8
FA
F2
01
FA
09
F8
ED
EB
FF
07
0A
FB
0C
CE
04
17
D9
FD
18
26
02
F1
0C
F4
FC
02
04
02
0A
00
F8
0F
15
09
FD
F4
FA
01
06
E7
DE
05
08
EB
0A
05
00
06
04
02
EE
FA
03
0D
FB
F5
00
FF
04
02
FC
1A
11
FA
F3
F8
06
08
F7
FB
FA
14
EA
08
F2
01
03
FD
0C
02
03
0B
ED
27
EA
F2
05
02
04
F8
F0
F8
F5
F6
FD
0B
15
F6
FE
FA
E9
F0
F1
16
D4
03
F7
25
09
F9
05
06
F9
F5
05
0B
FE
FD
06
F7
08
E3
F4
F4
F8
21
FF
F8
F4
05
F3
FA
F5
F8
FA
EF
ED
EC
11
F9
F9
06
03
34
04
FD
04
FE
0D
17
02
FF
12
14
00
0A
17
F5
F2
0F
FB
0E
67
FB
F2
03
0E
F0
ED
04
F5
04
FB
23
F4
FC
DD
02
C0
FA
E0
02
F2
04
FF
14
12
FB
F0
09
10
E7
F0
FF
F4
F4
18
D8
F1
02
02
01
14
E7
04
0C
D7
04
F0
F6
00
03
FC
0D
38
FE
03
06
FD
02
05
05
04
FF
D6
01
01
05
02
00
FC
0C
03
FE
00
F9
01
03
FF
03
FE
FF
0B
FF
FE
F9
04
E7
0E
F8
F7
05
02
09
FF
FF
FF
08
F6
05
FB
F7
08
04
FA
01
08
F4
00
02
03
FD
FF
F8
06
F6
FC
10
02
FC
01
03
FF
C0
F9
0E
F9
F8
01
F9
FD
F1
00
FE
F0
0C
FB
F5
E5
F4
0F
02
F6
FF
01
FE
0B
04
00
F8
FD
FD
0F
03
F8
FB
01
0E
07
FE
F9
0A
FA
FE
04
F4
03
DB
06
F9
0C
03
F8
C8
04
07
D9
FC
4D
E4
0D
FD
DD
00
F1
FF
12
E5
E7
06
F2
FB
23
F1
0A
14
F7
01
FB
E3
21
F2
FF
E9
09
FE
07
01
F4
FE
00
EC
F9
27
08
F7
D5
FC
02
FD
FA
F6
F8
F9
E6
FE
EF
F6
ED
E2
F6
FE
F0
F1
01
ED
F6
E0
0E
E5
10
07
E3
