FC
FE
00
FD
FC
FE
0A
06
00
F8
FA
FD
F4
F4
FB
0B
06
03
FC
FF
FF
FB
FC
FE
07
06
05
F3
F6
F8
FE
FD
F9
04
06
FB
F9
F7
F8
03
FF
FA
06
05
FD
01
04
FF
05
06
FE
00
05
FD
FE
03
02
FA
FD
01
F7
00
04
FE
03
01
F9
F9
FF
F7
FE
05
00
04
FF
FF
02
02
FC
04
05
03
00
04
FF
03
07
F2
02
03
00
FA
FF
F7
F9
FA
FA
09
09
08
FD
FE
FE
FA
F5
FA
03
FD
FE
FB
00
F4
F7
FD
FF
F9
FF
02
FE
03
E9
F0
F9
05
FB
01
06
FF
03
09
04
05
08
FD
03
02
F9
05
FE
F9
08
02
F8
05
00
FA
07
FC
F9
0D
FE
F8
0A
01
F9
06
FD
F9
0A
00
F8
08
FF
03
FE
00
05
FA
FE
05
FC
01
04
FB
06
0A
F4
02
07
F7
FE
06
FC
01
09
F5
FF
08
F8
0A
09
06
12
11
0C
0C
0A
07
00
00
00
00
00
00
00
00
00
F6
F7
FA
EE
EF
F4
F5
F5
F9
06
07
03
FD
FF
00
F7
FD
FF
09
06
03
F8
F6
FA
F4
F7
FB
0A
08
03
FF
FE
FD
FD
00
FE
E4
0E
0E
07
F0
FA
E5
0E
10
05
F5
FC
7F
EE
CA
05
EF
FB
E3
10
0E
F3
E5
02
E5
0A
14
FF
03
03
FF
01
01
F9
F8
F8
03
07
07
0A
0A
0E
F6
F3
F8
06
0A
0A
FC
FB
FF
F8
F6
F9
02
FC
03
00
FA
09
00
FA
04
FF
FA
06
F8
F7
13
FC
F8
0C
02
FD
02
FA
F7
0C
FE
FA
08
FD
FB
FB
FE
00
01
01
09
09
FC
F6
F6
FD
FC
FE
01
08
08
00
F9
F7
01
FE
FD
04
08
07
02
05
F4
0B
02
FF
0B
08
F2
09
05
FC
D2
E2
10
01
FC
FA
05
08
F5
FE
FB
02
09
03
F4
F6
F9
FE
01
FF
FF
0C
04
FF
F3
F8
FE
02
03
02
14
0D
05
F2
F9
FE
FD
00
01
0B
06
02
01
FD
03
06
F7
00
02
FB
04
04
FA
FF
14
F7
FC
0A
F7
FE
01
FC
04
0A
F5
FF
05
F8
03
FC
FF
FA
FD
04
02
04
02
FE
FA
04
03
FE
09
0D
F8
F8
F9
FE
04
07
F4
F8
FF
F7
F4
F5
FE
07
03
FF
00
00
03
00
FE
FB
FB
03
D0
C4
F4
2E
35
0C
FF
09
04
FC
FD
FD
05
04
01
FC
FF
F9
FC
00
FF
FF
0B
0A
F5
F4
F3
F1
ED
F2
00
06
0A
FE
04
02
FC
02
03
FC
06
0A
1D
F5
EC
09
FD
F9
EB
08
0C
24
F5
E6
04
02
FF
DC
15
1F
19
F6
F4
FD
FE
05
DA
0A
18
00
03
00
02
00
00
FF
02
02
02
FE
FC
02
F9
FB
02
FF
FE
02
FE
FC
04
FB
FB
03
FF
FD
F6
F9
FA
F3
F7
F9
F2
F7
FA
04
01
FE
05
03
00
04
01
00
05
05
04
0A
09
08
0A
07
07
F9
07
04
06
0A
11
FA
0A
09
00
03
03
F2
E1
EE
FA
FF
03
FF
03
FC
02
F7
F6
FB
03
02
06
00
03
02
FD
02
03
FF
03
04
FE
01
FC
F8
FE
FC
FB
00
05
00
03
FE
FA
FF
F7
F9
FE
FE
00
FE
FF
FE
00
FE
FE
FC
00
00
01
05
04
0D
01
00
03
FC
00
01
02
03
0D
FF
00
05
FF
03
FF
01
02
FC
FE
05
02
04
01
FA
12
04
F9
F8
FA
F8
01
04
FC
00
FB
F4
F2
F9
F8
00
00
FE
04
FD
F9
04
FC
02
02
FE
FC
0B
03
02
0D
0A
19
00
00
FC
06
FF
F5
05
FD
FF
01
04
FC
F4
06
00
02
04
FB
F5
06
00
E0
18
17
F3
08
03
02
05
FA
EE
09
06
00
04
FC
02
FD
FC
04
01
FE
00
FF
FB
06
00
02
11
0E
11
04
FE
FA
00
FD
FE
06
02
05
01
FC
F8
EB
04
0E
DC
0F
1C
E1
0B
16
FF
00
FF
01
0A
05
F9
02
04
1B
F7
EF
2C
F2
E0
1F
F1
EB
01
08
02
FB
F3
01
01
07
03
00
01
02
D0
C4
EB
FC
F6
FB
FE
FD
FD
37
41
15
05
04
01
04
FF
01
05
FF
01
08
FF
00
FE
FC
02
FA
F9
00
02
FC
00
FC
FD
02
FB
FD
03
00
FD
02
