DB
00
F9
0E
FC
F4
22
1D
FF
05
00
E1
FA
06
0B
F4
DC
10
0A
04
0F
06
F2
EF
F5
0F
04
06
16
03
08
27
F5
E4
FA
22
0E
FE
00
0C
02
07
0B
3F
EB
0A
08
FF
EA
17
E9
0B
FB
24
F7
F3
13
FD
F9
F7
08
2E
02
05
F6
19
14
1F
E3
0B
F8
0E
00
04
FA
10
FE
6B
EA
F5
28
B7
08
CC
EA
F0
24
FD
06
E6
FD
EF
ED
F3
FF
EC
31
10
06
06
F1
D6
00
B5
FE
DA
12
0C
F6
06
FE
ED
F6
1B
F8
C0
ED
FA
11
0A
06
03
35
F3
0B
F2
FA
F8
18
FB
05
09
06
0B
F2
08
0F
09
09
C5
11
0E
12
FC
3B
0D
03
07
19
12
03
D0
0D
05
08
08
00
00
F5
2E
04
EB
F6
DA
0E
ED
00
F7
07
FF
07
BD
08
F8
B4
DF
F9
27
01
FF
E6
09
17
26
81
E5
E8
05
C9
FA
A0
02
E9
0E
F5
1D
52
01
E4
F4
27
03
F5
DB
16
F2
0B
0B
FE
DD
06
C9
03
F5
19
ED
0C
13
02
10
D5
06
08
1E
2D
08
0F
03
04
E4
01
FB
02
05
12
0D
FB
FC
FF
09
EA
08
FE
E5
EA
0D
F0
FB
FE
EB
F2
EC
FF
18
05
04
F0
FD
FF
DD
F4
EE
DB
EF
F8
F7
FB
F3
16
1D
FF
EB
03
12
F4
03
F2
FC
04
00
45
F9
03
04
38
FC
05
09
07
0B
19
FC
F4
09
FF
F4
FF
0B
29
03
EB
F9
F5
F6
FB
FE
FB
1E
F4
FD
08
F9
01
01
10
FF
F7
05
F9
F6
16
FF
09
F4
08
4D
F8
05
F2
10
01
F4
F5
0D
F4
FF
1E
FA
F8
F6
11
13
F7
F1
12
F7
04
F5
E7
01
F5
F5
05
D6
F7
E3
03
FF
00
09
2D
FB
06
F4
FD
0D
0D
16
02
0E
FD
00
F9
EB
DB
EF
E8
0B
00
FC
F8
10
14
FE
23
01
05
F9
07
FC
EA
CB
18
0A
FA
24
0D
23
0B
1A
06
05
04
F5
EF
10
FD
F6
09
05
FF
13
F1
01
08
F1
12
0B
00
F0
FE
0C
01
FA
F4
03
03
DD
38
05
F4
FE
F0
14
EB
06
2C
DA
FB
02
FD
11
12
02
F6
15
FD
0D
FC
F6
05
C9
03
0F
D6
FA
E3
12
F3
1B
DC
20
E3
CF
10
FB
1C
42
F8
0C
05
DE
ED
04
F7
D9
E3
EF
F7
F0
E3
FD
AD
F0
F6
B8
FD
EB
F2
45
B5
12
E1
0D
02
FE
02
10
F3
F7
F1
F0
00
0A
12
DB
E6
04
01
1A
04
12
F7
08
F0
F5
01
02
FE
FC
EE
E4
04
06
EA
F8
FE
FF
FA
ED
00
08
F0
04
FB
04
08
F7
01
EC
FD
01
EA
F7
F2
F4
DA
F7
F7
13
01
EA
F9
03
00
0B
04
F1
DF
E5
13
D7
02
EA
FE
FA
06
FA
0A
FD
01
03
E0
FD
05
19
0C
01
F2
01
05
F6
FC
F0
01
06
05
E5
02
FE
04
03
0A
FE
0B
E6
F6
30
FB
FF
0A
01
23
00
F2
0B
0A
FB
F2
F6
FF
F3
F9
F2
00
2E
0C
F5
FD
E5
07
16
0F
20
FF
FF
FC
F3
F1
04
62
F6
F9
FA
09
04
0B
F3
F9
07
EE
FB
22
09
FE
BC
0D
E4
FA
3F
06
EF
F8
12
EA
ED
FD
F7
08
FF
E7
FD
1C
FC
E1
00
04
E8
1D
08
1E
0F
FD
01
E2
F3
EA
F0
00
2E
FF
EE
FB
F3
07
45
D8
FA
00
07
09
E0
F2
D3
56
08
17
03
EF
04
E8
E7
0D
EC
FB
0E
2F
E3
08
F6
02
F3
24
35
F6
01
34
38
07
F0
FF
EA
FC
F8
04
15
00
0F
FE
F1
F9
37
F2
F7
C1
05
F0
10
03
0A
F9
F0
00
E1
0B
18
E4
F6
EE
2A
2D
EA
F0
CA
F6
11
FC
F0
01
FE
EE
0A
28
FA
2E
17
F9
F1
2F
08
0B
D8
AD
07
31
0B
EA
FC
00
10
F7
38
E9
ED
FB
F4
DF
46
EC
1F
FD
03
F6
F3
F1
D6
2C
FE
EC
DC
BF
FC
01
F1
EC
FC
02
EB
04
30
04
F8
0B
FF
10
F5
FB
23
F9
E3
FD
DF
FC
06
04
11
2F
00
12
E0
F8
E1
0D
00
C0
1D
01
EE
21
04
35
AD
06
E7
2C
08
0E
11
FD
05
0E
F3
20
00
02
F7
F7
11
15
29
01
FE
10
22
11
0B
15
CB
1D
12
00
0F
E8
FF
14
D0
00
96
F2
0F
F3
FF
D8
FC
D9
E6
2E
AE
F6
FC
E7
FB
EE
04
A2
08
08
02
FE
F5
09
F1
1B
0D
0C
F1
0B
14
0E
09
01
17
1A
FB
11
FC
FD
BB
02
0B
02
FF
D5
12
0F
F5
D5
F4
04
F1
03
F3
13
04
01
AF
24
06
F1
F8
F7
FC
C3
AB
DD
20
B2
13
ED
E5
B7
1C
D4
F5
FF
0E
C6
F2
C0
DE
19
07
FE
42
05
0A
15
EC
0E
06
F4
FE
0E
01
04
E5
F5
D5
EF
D2
0C
F5
E0
F3
D3
FE
09
1D
13
06
01
FF
F5
07
1B
EF
05
F2
00
12
FF
CE
5D
F4
0A
0B
03
FC
07
14
FF
D3
0C
DB
F4
F3
ED
0F
2A
EF
00
EA
F6
07
F3
F4
FF
1C
1B
FA
33
F1
15
F5
06
26
1E
F5
00
0F
0E
21
09
FB
F5
04
0E
F6
D7
01
04
0E
EB
F9
FB
02
13
EB
11
FD
04
FA
00
F2
F8
03
E5
EA
1C
F3
F3
F9
F8
FC
00
18
FE
26
FB
09
FB
18
EF
00
FA
04
F9
F7
FD
00
06
EE
F8
DC
08
E6
FB
F6
FD
1E
EF
FB
01
FB
CA
EA
F7
FF
2C
0F
02
02
01
10
0A
F3
04
07
0C
FE
08
1D
09
EE
27
F0
01
13
1E
F1
05
E3
09
EA
34
FB
08
F7
23
F2
03
F5
ED
1A
16
11
03
09
2E
00
F8
07
E4
03
17
02
FD
0C
00
F3
FE
36
FB
30
01
FD
05
00
EC
FC
F6
F4
E9
E2
0C
F4
FE
FA
F4
FC
E9
03
05
E2
F5
0D
F4
F9
F2
15
01
0A
18
FF
FE
3E
0B
41
FC
02
05
0F
17
F8
E2
FC
E2
F6
11
10
F7
00
FB
F9
09
02
EA
FD
04
02
0E
19
0E
26
06
FC
FC
F5
05
08
E9
CE
1C
FB
16
F9
07
E1
08
EC
E6
12
23
09
1D
FC
FC
34
10
BF
FE
EF
F2
FE
FF
ED
02
00
F4
04
F5
F1
19
0F
05
06
0F
07
0B
F8
FB
DE
E2
08
0C
F8
0C
14
FC
FA
14
01
DD
E1
00
F2
E1
03
FD
D1
02
01
FD
0F
F8
ED
F7
DF
0B
F9
C7
E4
0D
0A
0E
F1
23
02
0B
02
2D
F5
F6
EE
E9
FB
0C
DC
01
F4
CA
F9
EC
EC
FD
E7
0E
42
ED
EE
DA
EC
EC
E8
2F
CD
FB
EB
25
0B
16
04
C7
E1
05
04
04
09
EE
11
08
F6
E9
FB
F8
09
09
19
05
5A
01
14
09
0A
F8
03
FC
FE
36
27
FB
F6
EF
02
0F
F2
E9
12
06
07
FF
07
01
05
F9
0A
DC
07
E2
F6
0B
0E
E5
05
03
18
0E
24
FC
FA
FD
06
E7
F1
09
1D
08
F7
EB
02
F1
F2
FE
F0
0E
EF
F9
E1
FA
1B
11
3F
FA
01
CE
FE
FB
ED
C5
C2
E9
FC
E0
07
14
0A
FF
08
23
D4
F3
FB
08
DF
06
E5
02
0B
F1
04
FB
24
F4
F2
F0
25
F4
0A
C6
10
D9
F5
FD
D6
41
E7
2D
08
F7
F7
0F
EC
1B
FE
12
01
05
D1
13
EC
00
FA
00
10
FC
26
FE
E5
03
EB
F4
D8
72
15
FB
E0
EB
F1
FD
07
06
05
F4
1E
E8
1C
FD
E5
FC
D8
02
E5
2A
E6
0A
EB
F5
FC
E7
98
EB
30
11
EC
F5
DD
BA
13
B6
1F
C2
03
D1
E6
FF
EE
1B
FE
18
02
DE
F3
04
26
F5
10
FB
D3
FE
0F
F6
01
FE
F2
0F
02
11
0F
0B
FF
03
FF
25
FB
00
FC
0A
1E
F6
FC
01
FF
FF
EC
00
2B
1E
FC
0B
E6
DA
0F
EB
1C
F5
02
FA
02
DB
FE
00
2A
E0
1C
FE
FC
FB
02
2C
F9
EB
FA
04
FF
27
06
FB
E5
FC
FD
FC
E5
03
06
02
15
12
41
0B
F1
FC
F1
05
F8
EB
0D
FF
06
13
F8
0B
33
17
FE
FF
F4
F8
F2
FF
ED
E9
0D
F2
25
24
F2
EC
E1
50
FC
F0
21
FF
E3
F6
F2
F4
EA
EC
DF
ED
F1
F2
1B
0D
F1
F8
9C
05
ED
EC
EB
C7
E0
F2
08
D4
FE
FF
F9
04
3C
FC
09
05
F9
0A
F3
EB
F1
0F
C1
E0
0A
FC
17
15
16
EA
F3
01
05
FF
02
0B
25
95
EB
C9
E6
FF
ED
DF
10
1B
43
F4
22
1C
EB
EF
07
CF
07
07
EB
EC
C8
11
FE
F4
E0
F2
E6
06
3A
16
FC
F7
07
0D
FC
30
E8
07
0B
01
FA
F5
05
07
F1
11
10
02
14
F4
FE
FE
F0
05
E8
11
F7
EF
14
FF
04
FD
06
05
FD
33
00
F8
FC
FE
00
FC
08
FA
13
0D
FC
07
EF
0B
FD
F9
15
F9
FB
02
FE
F9
E0
E0
F9
00
FE
2E
03
FA
08
1D
0B
1C
05
08
16
F7
37
F4
EC
04
06
F4
FD
09
1A
1A
05
05
15
F6
04
05
0C
02
11
FF
07
03
40
D6
02
F5
01
FD
10
F6
08
F8
13
F2
00
00
FF
FA
0D
E6
FA
03
FB
FD
2D
07
FC
FB
FF
1F
2F
E6
F8
0B
CA
00
2D
1B
24
14
12
0A
35
09
0C
DC
DE
02
03
05
01
E4
0F
F5
F8
FC
DE
FF
D9
18
E4
F9
0C
FF
BD
CD
2A
06
14
07
BC
0E
1A
FE
F6
9F
3C
C0
F9
D8
E8
B2
E9
19
F2
0A
FC
BC
EF
FE
0F
06
02
15
FD
29
03
F3
04
F3
F7
E0
1A
1C
F3
F9
00
04
01
FE
1A
F5
15
92
FD
03
E5
B4
07
13
F8
FA
EE
03
F6
22
00
00
FC
0D
E8
FF
EA
ED
0C
05
0F
FD
0E
0F
D9
E0
C5
F7
25
01
08
13
FE
08
F9
F5
11
DD
FF
10
DA
04
13
F2
D5
DD
0C
EF
D9
CF
36
08
16
FF
11
0B
0A
F8
F5
F7
17
EB
F5
FD
CA
18
FE
04
27
FA
FA
D8
00
10
F2
00
F8
0F
26
F4
1C
A7
0F
06
13
B6
1C
0B
EB
EB
07
F6
1B
FA
14
F3
E0
0B
E9
F7
D5
