fc
fd
0a
f8
f4
0b
fc
fb
07
fe
fc
06
fa
f4
06
ff
fc
06
00
fe
00
fd
fb
03
ff
fe
05
f3
fe
04
f9
03
06
01
05
00
f6
fd
06
f7
ff
05
04
06
05
f8
f9
fb
f8
fa
fd
ff
fe
fd
fe
fa
f7
fe
f9
f7
00
ff
fc
03
fd
00
03
f9
fe
04
02
04
02
01
04
01
ff
05
ff
02
05
03
ff
f2
00
f7
fa
08
fe
fa
00
03
02
fa
f9
09
fd
fa
03
04
07
03
ff
fa
09
fe
f5
fd
fe
f4
ff
02
e9
05
06
09
08
fb
f7
f9
fe
f0
fb
ff
04
fd
00
fd
ff
03
f9
01
03
05
03
02
fe
02
00
fc
fe
01
fd
00
f9
f9
f8
fa
f9
f8
f9
f9
f8
05
08
05
07
0d
0a
06
0a
08
ff
00
fe
01
06
02
fe
01
ff
03
05
05
04
0a
07
06
09
08
fe
fa
fc
fb
f4
f7
fc
f5
f8
0a
12
0c
00
00
00
f6
ee
f5
09
11
0a
00
00
00
f7
ef
f5
06
0c
07
00
00
00
fa
f4
f9
06
fd
f7
09
f8
f4
0a
ff
fd
07
ff
fd
06
f6
f7
08
fe
00
03
00
ff
03
fa
fb
03
fd
fe
e4
07
e5
05
7f
05
e3
f3
e5
0e
f0
0e
f5
ee
ef
10
e5
0a
0e
fa
10
fc
ca
fb
0e
02
14
ff
ff
f9
03
0a
f6
06
fc
f8
03
01
f8
07
0a
f3
0a
fb
f6
03
01
f8
07
0e
f8
0a
ff
f9
02
00
00
ff
f8
fc
02
fa
fe
fc
fa
fa
fa
f7
f8
fd
f7
fa
03
09
04
06
13
0c
02
0c
08
fd
fe
01
fc
fd
01
00
01
04
fb
00
09
f6
fc
08
f9
fe
08
fb
01
09
f6
fe
08
f7
fd
07
02
0b
0b
09
d2
01
05
fe
09
05
02
08
05
e2
fc
08
fb
03
f4
ff
f2
fc
10
fa
f5
02
f4
f6
01
0c
f3
02
14
f2
fd
0b
f9
ff
04
f8
03
0d
f9
00
06
fe
ff
ff
fe
02
05
fe
01
02
01
06
02
04
14
0a
01
0a
05
fd
f7
fb
fa
f7
f7
fc
f5
f8
03
00
04
ff
fc
fe
04
ff
03
fc
fd
04
fa
fe
f8
fe
f4
f7
ff
04
02
04
09
f8
04
f8
f4
fa
02
fe
03
0d
f9
07
ff
f5
fe
ff
03
fb
d0
2e
ff
fc
05
07
00
00
fb
c4
35
09
fd
04
03
00
fe
03
f4
0c
04
fd
01
fc
fc
ff
f5
f1
00
fe
fc
fc
ff
00
0b
f4
ed
06
04
02
06
f9
ff
0a
f3
f2
0a
02
03
0a
1d
09
eb
24
04
dc
19
fd
da
f5
fd
08
f5
02
15
f6
fe
0a
ec
f9
0c
e6
ff
1f
f4
05
18
00
02
ff
02
02
02
02
04
03
03
00
02
fe
f9
ff
fe
fb
ff
00
00
02
fc
fb
fe
fc
fb
fd
f6
f3
f2
04
05
04
05
0a
0a
f9
f7
f7
01
03
01
05
09
07
fa
f9
fa
fe
00
00
04
08
07
f9
06
fa
00
f2
fa
ff
02
fb
07
0a
0a
03
e1
ff
03
f7
03
04
11
09
03
ee
03
fc
f6
02
06
02
03
04
fc
fc
05
fe
f7
00
fd
ff
fe
f8
fb
00
fa
f9
03
02
03
01
fe
00
03
ff
fe
fe
ff
fe
00
05
01
fc
02
ff
00
fe
fe
00
04
00
00
03
00
fe
00
fc
01
0d
03
01
0d
05
ff
01
fe
04
12
f8
01
00
f2
03
02
05
01
04
fa
04
fb
f9
ff
fc
02
fa
f9
f8
fc
f4
f8
00
04
04
02
0b
0d
00
06
05
00
fd
fc
fe
03
0a
00
ff
fd
fe
f9
02
fc
02
19
fc
f5
ff
01
f4
02
f5
e0
f3
02
ee
00
04
06
04
06
18
08
05
09
04
fc
00
fb
00
17
03
fa
06
fc
02
04
00
06
11
04
00
06
01
fd
01
ff
00
0e
fe
fd
02
fc
fc
fe
fb
02
11
fa
fe
05
f8
eb
dc
e1
ff
01
f9
1b
2c
1f
04
0f
0b
00
0a
02
f7
f2
f1
0e
1c
16
ff
05
04
ef
e0
eb
01
fb
01
00
d0
fc
fe
37
05
08
f3
07
01
c4
f6
fd
41
04
02
01
03
02
eb
fb
fd
15
01
04
05
08
fe
fa
02
fc
fb
00
ff
ff
ff
fc
f9
fc
fd
fd
fd
01
01
00
02
00
00
02
03
02
