F8
FE
F8
F9
00
FA
FD
FB
03
03
F9
F4
FC
FE
06
FC
07
00
17
02
FF
FC
FD
01
F9
04
FF
01
01
00
00
FE
04
04
FC
04
FD
FE
FC
FC
FC
08
F7
FD
FA
03
F6
01
00
00
F6
03
FA
F7
FC
F7
05
04
FA
04
2A
00
FA
FD
FD
F7
FA
FB
FF
01
00
03
FF
0C
FE
04
F8
FD
03
03
F8
F8
FA
FB
03
03
F8
FF
F0
03
FB
FF
06
F6
FF
FE
03
0D
F1
00
04
FA
FA
01
FD
FF
FF
03
FE
01
03
07
00
F7
01
04
03
FF
02
01
05
FE
FE
03
FF
F6
0B
00
FB
F5
FA
FE
0C
F1
FD
F8
05
FA
FB
0D
F1
14
0A
12
FA
F8
02
FF
FC
FD
05
0C
04
00
FA
F1
FC
F7
FE
07
FF
F6
07
F5
F6
FC
04
FC
FE
01
FB
F7
ED
FA
FB
F7
15
04
13
F7
F6
F7
00
09
0D
FD
F7
F1
FE
FA
05
F6
F8
FD
FC
FF
F9
02
FA
0B
F9
EC
07
F4
F7
F3
F3
09
FC
EC
F5
04
FE
04
0E
FD
02
FB
09
08
08
FE
04
FC
01
15
0B
FA
E6
FE
0B
11
F2
F5
F4
FB
0C
F4
03
FB
F3
FE
0F
F7
E9
0B
F9
F3
F1
07
F7
08
F7
F2
09
FE
06
03
06
05
FB
05
03
01
FB
04
03
FE
FD
F9
09
06
FF
0B
FB
06
00
01
F9
02
FE
FB
00
00
05
FB
01
02
FC
FF
05
02
03
F4
01
02
00
F2
00
FC
FA
04
0D
FA
05
F8
FD
F8
03
02
FF
02
00
FB
FB
03
02
04
07
00
00
02
00
FD
18
07
F0
F3
02
FE
00
01
F4
FE
FE
F7
F8
00
15
FD
F9
0E
02
03
FE
04
09
05
03
E8
05
FF
FF
FA
FA
1E
03
FE
FF
0B
01
03
07
0B
03
01
FD
FE
F8
FE
F8
05
02
02
FF
FF
FB
08
04
02
03
FE
0C
FD
02
FD
FF
FA
09
FE
FB
FB
04
07
05
02
FE
05
0D
FA
0A
FD
FE
FA
03
FB
07
FF
05
02
FB
FE
0B
FD
FC
01
02
07
FF
02
F8
FD
03
FB
FF
12
01
FD
0A
03
FA
07
01
01
FC
FE
03
04
01
FD
FB
0C
03
06
FC
FF
FF
02
FD
FF
00
03
F7
F6
08
13
FC
00
F6
07
12
06
FA
FF
FF
FE
F7
FF
FD
FD
FC
FE
FC
F7
03
FB
09
11
FA
01
05
F8
00
FF
01
01
02
00
01
03
04
FE
FC
04
FE
FB
F9
FF
FD
06
06
F7
01
F8
FA
FD
F8
00
FE
00
F9
03
FE
00
01
05
05
01
FF
FE
07
FF
F9
FE
03
01
F8
FF
08
FB
05
FB
00
FA
FB
03
01
04
05
04
EC
FF
FE
00
07
FD
00
FF
FD
04
05
FF
FC
F8
FE
00
02
04
08
00
FE
01
FC
05
EF
00
FE
FC
05
FA
FF
FD
17
02
FA
FD
FF
0B
F8
03
F9
00
E7
06
FE
FB
1D
FE
03
03
F9
05
01
03
01
08
FB
19
02
02
F3
04
FF
F8
FD
04
FD
FE
FE
06
01
F9
F8
FD
FE
06
02
00
01
FA
FB
0B
05
FC
07
FE
FA
01
FE
04
FE
01
FD
FC
00
00
FD
F3
F8
FD
01
00
01
04
0B
F9
F9
F5
FE
03
F9
1B
FB
FF
0A
FA
F5
03
06
00
FE
FE
00
08
FC
FF
FF
F9
F6
F2
00
01
06
F5
04
00
FB
09
01
FF
00
00
02
03
03
0B
06
15
01
02
FD
00
06
FD
F4
06
FC
02
F7
FC
FC
F7
07
F6
05
04
02
FC
FD
FF
05
0A
FD
FC
FB
07
FD
02
FA
08
FC
FB
02
FF
07
01
10
F9
FE
02
11
F9
0A
F8
0E
03
05
FF
07
F3
FA
FC
FA
02
EC
01
03
FF
FD
FB
02
02
FC
00
03
FC
F8
03
FA
F6
F1
00
07
04
05
F7
02
FD
00
F7
FE
FA
FE
FA
FF
02
02
00
02
FE
FA
FC
0D
02
FF
F8
04
FC
06
03
F2
00
01
03
FE
FD
00
01
FB
FE
04
06
FE
01
FB
03
02
03
02
EF
01
03
05
FF
02
FB
02
01
FF
FD
03
04
03
FD
FC
01
02
04
FA
FE
F9
02
01
0C
FA
FE
01
FE
08
FB
FC
00
FE
00
05
06
FE
FA
03
05
FE
05
02
02
02
01
00
04
00
07
FE
01
FF
FB
02
FF
F6
08
02
01
FE
04
02
05
00
00
00
0D
07
01
FD
FF
FD
00
00
04
06
0A
00
F7
FB
03
FF
F9
0A
04
09
F9
FC
04
FB
00
FE
02
00
04
06
01
01
00
F8
FF
02
FE
FC
01
00
06
EB
03
FE
FE
FC
01
01
FF
F7
00
FD
05
01
01
FE
FD
01
04
00
08
FE
FC
F5
04
FD
07
00
03
06
00
00
00
01
FE
0C
08
05
02
FE
FE
01
FD
FF
05
01
EE
FD
05
01
F6
F9
01
00
03
03
07
04
FC
FE
07
04
FF
01
02
FE
FE
05
12
01
FE
FD
02
05
07
01
F4
00
FF
FF
05
FE
FB
FC
FE
01
FC
EF
00
FB
03
FC
F9
FE
04
FF
FE
FE
FA
FA
F9
FC
09
FD
01
FA
00
FD
06
FC
FF
00
00
05
FD
00
05
FD
F6
02
02
FA
0B
04
F8
FF
FE
FA
F1
FC
F3
FE
07
FD
05
06
02
01
EC
09
0E
ED
03
F7
05
04
F0
01
08
FE
03
FF
00
FC
FE
02
02
FB
06
F4
00
FB
F6
0F
02
FE
08
F7
06
00
00
F9
FF
FB
07
02
0E
F9
06
FF
00
F8
0B
FF
01
F4
06
08
02
F5
FE
EC
F7
FD
06
21
01
FC
05
04
FA
EB
FC
06
11
FA
07
09
FE
01
04
01
07
02
02
00
09
05
01
04
01
17
08
06
F8
02
FE
FE
FF
01
08
F9
FD
04
00
FA
FC
02
01
FA
FA
02
FA
FD
FA
FE
F8
FF
FE
FC
04
F9
F9
0E
FD
05
08
FE
02
FC
FF
09
FB
FD
02
EF
07
08
FA
07
F8
F7
F5
02
0B
FB
FE
02
FA
FF
F6
F9
04
F4
F9
0F
F9
FF
FD
0F
F5
F9
FB
FC
FB
12
FC
EE
FA
0A
FB
04
06
F4
00
FD
03
05
F6
00
FC
07
09
F4
F9
F5
00
06
02
03
04
FD
FD
F3
F3
F3
FF
FE
05
FE
FE
FC
F4
F9
FA
00
0D
00
F8
F6
FB
FD
FA
F7
11
FF
FF
01
01
F8
FE
F9
05
00
FB
F9
E9
03
08
07
FE
F1
03
01
0B
F9
EF
F4
FB
F7
0B
FC
FE
FF
FF
03
FA
01
05
02
01
F9
FE
00
02
0A
06
FC
05
F5
F1
02
FE
06
02
01
06
02
02
FF
FF
02
03
FC
FF
F9
09
FC
0A
FD
0B
F9
FB
0A
00
03
02
FC
FA
FE
05
09
FD
03
FE
00
F3
0B
08
04
F4
05
F7
09
0B
FA
F2
09
F9
00
FD
FC
03
FA
15
FE
04
03
03
07
FD
01
0B
00
FF
F8
FC
02
07
FC
10
02
0A
03
03
07
FF
00
FA
FA
05
F8
F1
FD
06
FF
FD
FD
FF
F2
FF
05
06
FE
05
FE
F7
FB
08
EB
FF
FA
FD
10
00
07
02
00
06
FD
FD
F7
02
FF
05
FE
FD
EF
01
0B
FF
FD
FE
01
00
FE
FC
09
07
F7
FF
03
FC
FB
FB
FA
02
02
FF
FE
01
FD
FD
0D
09
0E
0C
02
09
FC
00
08
03
00
FB
FD
FD
FF
0B
00
FE
FA
01
FB
FD
04
05
FD
0A
FB
05
0E
FE
02
02
F7
FE
0B
05
FE
03
FF
F5
F4
FB
10
04
F8
02
04
FE
08
04
F8
06
0E
02
FF
04
FB
F5
03
03
04
04
FD
03
02
F3
FA
F9
FB
03
FF
13
FD
04
FC
FB
FA
FB
FD
FA
09
FE
02
FD
01
01
F8
FB
07
07
FB
FA
04
FA
02
01
EE
1F
FE
02
0B
F5
F5
03
11
05
FB
FB
FC
FF
F7
03
FD
02
F5
FE
01
02
01
02
01
FD
EE
02
03
04
F9
0B
03
FD
FF
FE
F9
FA
ED
0D
04
06
F1
08
FA
20
04
FD
0E
02
0A
02
01
07
02
FF
1B
02
05
F5
F1
FD
04
07
04
FB
02
F0
10
05
F8
F5
0A
08
07
0A
0B
05
04
F6
F8
FA
00
FC
08
02
01
0D
03
FB
F9
08
00
F9
0A
FD
04
F6
07
FD
FE
ED
00
07
FF
FB
FA
00
00
00
00
01
05
FF
FB
1D
F7
01
FA
01
05
0D
06
FF
FB
FF
01
FF
F9
FB
FE
06
01
FE
FD
FD
F8
F8
FF
00
FB
01
02
01
FE
F8
04
03
FD
FF
FE
FC
00
00
FD
03
06
FB
FF
0F
04
F2
FA
00
04
07
00
06
00
01
03
03
00
00
00
FC
FC
02
F0
04
05
FF
FB
FC
02
07
05
02
FE
FC
F9
01
01
01
F0
04
FF
04
FC
FF
03
FF
FB
04
F8
07
08
FD
FC
FD
FF
F7
02
05
05
02
04
00
FE
00
03
01
00
00
FB
08
03
FD
FC
FC
00
01
F0
FF
02
FD
05
03
05
FF
FB
F9
FD
07
F2
02
13
08
FC
FA
F3
FA
FA
02
05
FA
09
09
F1
FA
EA
08
FC
ED
FB
03
FE
02
FC
03
F7
08
F8
F5
F0
FE
F9
01
F9
F0
08
FB
F6
F5
F4
12
EC
EB
01
FE
FE
F3
06
E7
E9
F8
00
00
E5
07
03
F9
FC
0E
0D
FC
FC
FA
03
F9
00
F3
FC
F8
09
00
0C
EF
FD
12
0A
E7
0F
F3
F4
FE
14
E5
E1
FB
05
02
04
F9
F2
0A
FD
F4
10
F0
00
0A
FE
F6
FA
F5
04
01
00
F5
F9
00
00
0E
E9
FF
F8
08
F5
F7
06
FF
02
07
FA
FC
F7
EF
03
F8
0B
FB
15
FF
03
06
17
12
FE
FE
04
FA
04
01
FF
FD
05
00
FE
02
F5
FF
03
FF
0B
01
FF
FE
FF
FF
05
05
F8
04
FC
00
FE
07
01
02
FE
00
01
07
FF
01
19
01
FE
00
00
03
01
FF
04
02
00
FD
FD
FE
08
FC
00
03
04
02
00
03
07
00
01
10
04
FB
FC
FD
00
FF
04
FF
FF
08
FF
00
FC
FC
07
04
03
01
01
01
FD
01
00
FE
FC
F7
01
03
02
02
FA
00
03
02
FC
00
01
FF
01
01
06
06
FF
00
FF
16
FF
03
00
01
00
01
01
FA
05
04
01
FE
05
01
02
FE
01
FE
07
05
F9
0F
FD
FB
F3
1B
05
F6
02
FF
F9
FD
00
00
10
02
02
07
01
FF
08
FB
ED
01
03
06
FB
F4
06
FD
15
FF
FD
FF
FE
FE
01
FE
F9
01
03
03
20
FD
15
FD
07
F7
1E
15
EB
08
03
F2
22
00
FB
F8
05
06
0C
FC
F4
01
0D
FE
09
FE
04
08
FF
FD
1A
F0
12
EE
FE
01
FB
0C
03
FB
F1
0F
FD
FD
01
0F
FE
0A
FA
09
FB
F0
F5
07
F7
07
05
00
03
FB
F8
FD
F8
09
01
FF
FE
F6
F5
07
FD
F7
F5
FC
06
FF
06
05
05
FD
F9
F6
E7
F9
03
F6
E3
FF
FD
FB
02
03
FE
03
08
F3
05
FA
F2
02
06
02
0A
0B
11
0B
00
E3
09
02
04
FC
01
04
FC
F7
01
F0
FC
00
08
08
E9
03
EC
07
F6
FB
03
F9
02
EE
F9
0D
03
02
FD
FD
01
EF
F3
FB
08
FD
0A
09
00
F0
F6
FD
F8
F2
0B
FF
FF
F5
F9
F2
01
F0
FD
F4
F7
01
FB
09
FE
F0
FB
04
FE
00
00
FE
FC
04
F7
FD
02
00
F6
05
0B
FC
F9
FF
FA
F4
03
F0
04
03
EC
E5
FD
F8
F9
FE
02
FF
FD
06
0B
EC
03
FB
07
08
F8
14
FE
0C
F1
10
DB
FF
EF
03
F2
ED
03
E8
FD
E7
F9
FC
F5
05
ED
F7
05
FD
FC
05
E2
0A
ED
EA
09
0B
00
06
07
02
0A
F8
FF
F0
03
03
FD
15
08
EB
E9
F8
E9
F0
0A
F2
F5
06
10
F7
00
EF
F9
07
F9
F9
06
10
F3
F2
F4
03
FF
03
F1
EC
EE
10
F4
FC
FE
F9
07
E9
FB
F0
EB
FC
FA
F1
F7
E9
FB
08
E5
F5
00
F7
F5
FC
FD
08
03
EB
21
02
F9
EE
0E
F2
ED
F6
EF
F6
01
FF
E9
FD
FF
0B
0F
0C
0C
FC
FE
00
E6
F9
E5
0A
07
03
0C
FD
01
08
F3
02
EE
05
02
05
01
F7
08
FB
FA
FF
00
08
01
01
01
00
0D
00
F9
FD
00
06
F9
02
FE
02
FA
F9
05
FD
01
F6
00
07
FC
FF
03
FC
FB
00
04
00
FF
FF
04
FB
00
F6
02
F9
F7
0F
06
01
FE
F2
00
F8
01
F8
FF
04
FF
0E
FF
F4
FE
02
03
0A
05
FA
03
F9
FF
0B
01
FB
03
00
F9
03
FF
08
FF
FD
0C
01
01
05
FF
09
F6
05
FC
00
FA
06
FF
05
05
FC
05
FE
F8
FF
FD
FE
F6
02
08
01
03
0A
00
00
FD
FC
FE
FB
F9
04
09
01
F9
08
EE
F2
EF
01
F3
0C
F6
F5
FC
ED
05
F9
06
FE
01
FA
02
F9
05
02
EA
06
FD
0E
00
E5
00
FA
09
02
FD
FF
F2
F4
09
F9
F9
FC
F9
04
09
0B
11
0D
F4
F3
0A
F1
02
EC
FF
FE
EC
0B
F5
FE
0D
EF
F0
F0
FF
13
01
02
FB
F0
FB
EB
02
F5
F7
00
08
FE
F3
F9
F7
F8
00
F6
FB
F3
02
EA
03
06
14
EE
0C
00
06
FA
04
08
07
EE
F3
03
E6
E6
EE
0C
0F
F5
E3
05
0A
F0
E8
06
07
00
EC
07
F5
E9
EE
EE
07
00
F9
FA
F1
05
F6
F7
0B
FD
FE
00
0A
FD
F9
04
F7
FC
06
FF
06
F5
FF
04
FD
FD
0C
F0
02
F9
03
02
FD
FB
F6
04
F9
00
01
00
00
01
04
FD
FC
17
FF
07
08
F8
05
00
FB
F7
01
03
FD
F0
F7
FE
05
00
FC
06
F8
04
00
09
FB
01
00
04
00
05
F8
07
03
15
01
FC
01
00
0B
03
03
FA
04
FE
ED
05
01
F9
0C
00
FE
F9
FD
FA
09
03
EF
05
04
0E
03
F1
00
03
FD
FC
05
01
FC
0F
05
00
FF
02
0E
09
F8
01
FF
FC
06
ED
06
FB
01
01
FA
FF
02
02
EE
CF
FD
D7
FC
E9
F8
DB
D2
1B
C9
F6
FC
F4
BB
ED
E8
14
0B
0D
E0
EA
C4
05
FC
0D
E8
F8
96
F5
F6
02
12
BA
04
F7
E6
F9
13
FE
07
E8
FC
FA
E1
FF
08
E4
09
1B
1E
EB
02
D3
EB
EC
2D
E1
F4
08
F3
0A
E7
F6
FA
00
FC
FC
04
DE
DB
F6
F9
E1
F8
EA
DC
81
F0
E6
D8
CB
F1
D2
FC
F4
FC
0E
27
C4
F5
07
1E
D9
FE
EF
1B
F6
B7
F9
FB
03
04
EE
E1
FF
08
E4
03
D3
E6
0B
F7
FF
F8
09
DE
09
0E
F1
E0
ED
E5
EF
D5
E5
FC
13
01
06
FC
09
04
05
01
F8
FB
04
02
00
FF
01
02
01
04
FC
FE
03
05
03
02
02
FD
FE
02
FA
09
FD
00
00
03
FF
00
FE
01
04
FF
FB
FD
F4
FA
FA
05
07
02
0A
01
FF
03
09
FD
FD
FB
01
F2
FF
02
03
FC
01
FB
00
FF
00
00
0D
F8
03
FC
F5
FC
00
F9
01
F1
02
03
02
FF
04
04
FF
FC
FB
F8
FD
02
00
04
F6
FB
04
00
FF
02
00
FC
01
FD
02
FC
FE
04
FE
FD
FD
02
07
01
FE
FE
FC
00
02
06
FE
00
FE
FF
01
F9
EE
00
01
02
01
FA
FC
01
F5
FD
07
FE
F2
FF
02
01
FC
FB
01
F4
04
01
0B
FF
02
FD
FF
06
02
FE
FE
00
F8
F9
07
03
02
FC
00
02
03
01
01
01
FF
FF
F9
04
00
07
FB
FC
02
04
FE
FE
00
FC
FE
FC
FE
FA
00
FF
04
06
01
FF
00
FF
F7
FD
F9
01
0A
09
FD
F8
FB
0E
03
0E
09
01
FF
FF
00
04
00
06
07
01
03
F7
08
FB
03
FF
F9
FC
FF
01
04
01
04
FF
FF
F9
FC
0B
FE
FA
00
00
FD
FD
F9
06
02
FE
03
01
03
05
0A
08
03
FF
07
00
0A
FD
06
FC
F0
00
FF
FD
03
FA
FC
FA
FF
FF
FB
02
FC
FB
FE
F8
10
01
FB
00
FA
F0
02
FC
F8
06
02
04
02
06
04
F4
FE
01
02
03
05
01
05
FF
FF
FE
02
0C
01
FC
FC
04
02
07
06
FD
0A
FF
03
FE
FE
05
03
01
FE
FE
00
04
03
FF
FC
FD
FB
01
F6
01
08
FE
02
04
07
FB
FB
FF
02
05
09
01
04
FA
02
04
FF
FD
00
F4
FA
02
FC
03
FB
03
02
FB
08
FD
F8
F4
04
01
FD
FA
FE
F5
03
FC
FE
06
00
01
09
04
01
F9
FE
FD
F9
FE
FE
09
03
04
02
06
05
FC
0F
02
00
F4
FD
FB
FB
FA
FD
ED
03
F9
F9
FD
04
03
FB
03
02
FD
04
FF
FD
FF
08
03
01
01
EE
02
07
03
FB
FF
FF
FD
F9
04
FE
00
02
02
03
FE
FF
05
FD
FB
FF
00
02
FD
FC
06
F7
FF
04
00
09
FB
F9
02
FB
03
03
0A
FD
00
F2
03
0A
03
FF
0F
FB
F9
F6
02
03
F8
00
FB
06
00
FF
07
FF
02
F7
FF
06
01
FD
0F
07
F1
03
FF
06
0E
FC
FC
01
02
FB
FD
FC
01
04
F6
F8
F7
01
FD
08
07
04
FF
FD
FE
0D
00
00
03
FF
00
F6
FF
08
FF
F4
0D
03
02
FF
FF
FE
E2
02
01
09
00
02
FC
FB
FE
FC
00
00
FB
00
11
FD
FF
03
02
F0
02
09
08
01
01
00
FE
03
02
02
FF
0B
F9
11
09
FF
FE
00
03
00
F9
08
01
04
F9
00
FB
03
FB
FA
00
F8
03
01
06
03
04
10
FF
01
F7
0A
FC
FC
00
03
09
FF
0B
FE
EC
F4
10
FF
F2
06
03
02
05
FC
FE
FD
00
05
02
F9
FD
FE
01
06
F8
FF
FF
0A
FD
F9
FF
0F
01
04
06
FD
FC
02
00
FB
02
FE
FF
FC
FF
FE
01
FF
FB
0C
09
04
F9
03
01
F8
F7
FD
F9
00
FB
FE
02
06
FB
02
F7
07
FD
FB
FB
04
FE
06
05
02
F1
02
01
05
FC
05
08
FE
FC
FF
FC
26
00
02
03
07
02
FA
17
00
FE
FF
02
FD
FD
07
00
06
04
06
F6
FD
F3
F9
01
06
06
09
02
FF
F4
00
F7
FB
F4
FF
18
01
F5
F9
FB
01
F3
FB
0B
F5
2E
F7
F9
FE
0A
FD
09
FB
FE
0D
F6
02
FF
07
07
FE
FA
FF
08
F7
04
FF
FA
01
00
FE
FA
FA
0B
03
02
FF
FF
FD
FD
FC
07
00
F5
01
FE
FA
01
00
F7
F9
FD
05
06
FA
07
F5
13
F8
FF
FA
F4
F9
FB
FA
02
00
06
FB
FB
05
FE
FF
F6
01
FB
EE
07
09
F3
FE
FF
0A
FE
FA
FF
02
07
FA
FF
04
FD
EE
F6
F2
F3
F3
FA
06
09
09
FE
F9
03
FC
01
F8
FA
F7
05
0A
F9
F6
FB
EB
FD
FE
00
F1
FE
03
01
F7
01
ED
00
F7
01
01
00
05
0B
FC
F8
FB
02
09
FE
FA
F0
01
05
F7
F9
FA
FD
10
09
06
EE
01
FA
08
F6
F3
F6
0D
08
0B
FD
FC
FD
FE
01
FC
F6
08
05
0A
F6
FC
F6
05
FB
FB
FF
08
0B
F6
00
07
04
14
FA
0D
F9
FC
03
07
08
F8
12
F8
FA
00
FE
02
FE
02
00
FE
FD
00
F8
FC
F7
00
08
08
03
13
05
01
15
06
01
FC
03
FF
00
02
FB
00
07
FA
FA
FF
FF
05
08
FE
F9
02
FF
02
F9
00
FF
FE
FE
FE
F9
12
02
FF
09
F1
F8
09
FD
0C
FF
FF
FF
F5
06
FF
0D
F7
FE
F4
FD
F9
05
02
00
03
09
FD
07
FD
03
FE
FC
02
F8
0A
0C
00
F9
FF
FB
F7
F5
FB
F8
F1
02
08
03
00
FF
01
08
04
06
08
07
02
FF
FE
F9
0D
04
FB
FD
08
FF
12
00
FB
01
00
03
00
00
02
04
FF
FF
FE
00
08
FC
FC
FC
FF
08
00
FE
FD
FB
03
FD
00
01
FF
FD
03
FF
03
00
01
05
FB
FD
FC
02
0D
EB
00
FA
00
FE
FF
FE
00
01
FC
04
01
F5
00
06
FC
FD
02
F6
04
FE
FF
01
ED
FE
00
FD
FD
F9
00
FD
FF
00
09
FF
03
FF
00
07
F9
FC
FA
FF
01
00
F5
FA
FC
FD
FA
00
F4
00
FF
0A
00
FD
03
FC
FF
01
FE
00
01
F1
FA
00
FF
FE
03
01
FE
F9
FD
03
FF
01
FB
FE
17
00
FF
04
06
04
FC
F7
FA
FA
00
F8
F3
02
02
04
F8
05
00
FD
FF
F6
FD
01
FA
F9
FA
FE
FE
FB
02
F8
FE
15
FD
F4
03
02
13
02
00
F9
02
04
00
FA
F9
F5
FA
FB
FF
FC
FD
F8
FD
0A
01
FF
FA
FA
FA
FB
03
03
FC
E1
00
F6
00
FE
FA
FD
F4
02
02
FE
FA
FB
FA
03
FB
01
04
FD
07
00
FC
FB
05
00
05
FD
FC
FD
00
FB
01
FB
ED
02
02
FF
06
04
F9
FA
01
FA
FE
FD
FB
FA
05
F0
FF
FD
F9
FE
F7
06
02
FE
05
02
FB
FE
F0
F8
F2
F5
01
FC
00
04
FC
02
04
F9
FB
00
FA
06
01
05
F3
04
F5
07
F9
04
FD
FF
00
03
00
EB
02
FE
FC
FF
05
06
01
0F
00
F9
F3
02
F9
02
FB
FF
FE
FF
E8
01
10
0D
02
F9
01
FA
FE
FC
01
FF
FE
FA
01
0F
08
FF
FF
09
FE
17
FB
FE
FD
00
FF
FC
07
00
FA
00
FC
FC
FC
02
F9
FD
F8
F7
F5
FD
04
00
FC
FC
FD
03
0D
00
FB
09
FA
F7
02
05
08
F9
F9
04
F9
01
07
F6
FF
03
01
08
F3
FA
FE
00
01
FC
FE
00
FD
FF
FF
FA
16
FA
02
02
03
08
FB
0B
08
FF
01
F8
05
FE
08
F8
06
02
FF
03
F4
F2
F1
F6
FE
07
04
FE
FC
FF
02
FB
01
02
00
FC
F4
00
FA
03
14
FA
05
F9
F5
FA
FF
FD
FC
FF
06
00
0D
01
06
F9
F4
02
EF
0B
F7
09
F8
07
0C
03
09
0F
FB
00
07
02
01
FC
01
FD
07
0B
07
FF
F6
07
0C
FF
F2
F8
EF
F7
EC
FC
07
FD
09
02
F7
07
FE
04
FB
05
16
FA
06
04
0F
0B
FB
FB
FF
FB
F5
0B
07
03
F5
FE
F2
00
F6
02
FC
11
07
00
0B
F8
F7
F8
FE
06
FF
FD
FF
FC
FE
02
FD
FC
FD
04
FD
02
F7
FC
02
02
00
02
00
FA
FE
01
08
03
01
FE
03
14
02
00
FC
FD
02
05
FF
FC
FF
00
01
02
06
FA
01
02
04
FF
FC
FD
0F
FD
00
02
02
F9
01
02
00
05
FB
FF
FC
FC
01
03
00
02
FD
FB
04
FF
02
05
FA
FE
02
04
01
FD
FD
05
01
01
05
FE
02
03
06
FD
04
04
01
01
00
02
E3
00
03
FC
06
03
EF
01
02
02
03
01
02
F9
FF
FB
00
02
00
06
F8
04
04
FF
FB
FD
04
FD
04
01
03
FE
FA
FD
ED
FE
02
08
01
06
FD
08
03
F8
08
FB
F4
08
06
F9
FD
F6
03
03
00
0A
F9
F8
08
F6
09
F4
FB
05
09
FE
F8
FC
F9
FD
FF
0D
0A
FF
FF
FD
FF
03
24
01
06
06
FB
0A
FB
FC
09
FC
FC
FA
01
14
FD
FF
02
04
EE
FA
01
EC
F4
01
FF
11
FE
FD
FF
03
05
EE
02
EF
FA
F0
F9
1B
FD
FE
04
03
FA
09
01
F6
FE
FE
F6
02
F6
F3
FC
08
0E
35
01
FC
0B
FF
0A
01
02
07
FD
04
F8
FD
F9
01
18
05
01
FA
07
0A
05
0A
05
FD
08
F6
F7
08
FA
F2
FE
FD
02
FE
FB
FE
F8
02
00
FF
01
09
01
0D
00
F5
00
09
00
F8
FE
FE
00
FE
FC
F3
FB
03
01
FA
00
00
FB
FF
02
05
0E
00
01
06
FD
00
FF
04
F4
FF
F9
03
01
03
04
0C
FD
FB
FF
04
03
FC
12
01
04
09
00
F3
FD
FC
03
F9
06
FF
FE
04
0D
04
03
FB
FB
01
03
00
F2
02
01
EE
FE
02
09
FA
01
03
FF
14
FC
03
F8
09
FF
04
F6
00
00
0C
FD
FA
FC
02
05
03
FE
FD
03
00
00
08
F8
00
01
05
01
01
FE
F9
FC
01
04
00
04
FA
06
01
FD
FA
03
DD
F4
F7
FF
01
FB
F6
F2
07
03
F0
F7
FE
FC
02
FA
01
03
11
0A
FB
03
0B
03
06
FF
FC
02
01
04
0B
0D
03
FB
03
04
F8
FC
FF
08
E4
FC
04
FE
0A
FF
01
FA
01
01
FF
FF
01
04
01
F9
FE
FC
F6
FB
FF
F6
FE
F7
FE
D4
04
F9
F9
F7
F0
03
F7
02
DE
03
05
F2
06
E7
F3
FF
FE
F6
FC
F6
07
FE
06
F4
0C
F9
00
FE
ED
08
FD
FC
F9
00
09
00
FB
09
0A
FD
00
00
00
01
0C
DD
F9
FA
F9
FE
FC
FE
05
02
D3
FA
09
FE
07
FF
04
FD
FF
F8
02
FE
FC
03
FF
06
F7
07
02
05
FB
01
16
02
08
00
06
01
03
00
01
02
FD
FB
F8
05
01
FD
FE
06
00
01
F2
08
02
FB
FE
FF
FC
FF
01
03
FC
FC
FA
04
EF
03
FC
00
F3
FC
03
01
08
04
24
02
08
05
00
03
F4
FE
00
F1
FE
FB
FF
F4
F2
FE
02
FA
F7
08
F5
FA
05
01
FC
F9
01
04
04
00
00
FF
05
F8
FA
06
04
06
11
03
F9
F4
FF
F9
07
08
05
03
00
FD
00
E5
FC
FD
FF
02
01
04
04
00
01
05
FA
FD
FD
03
FA
05
FA
F9
FB
06
FC
FA
FC
FD
03
05
05
00
F4
FA
FB
07
05
FB
EC
01
07
06
06
06
FE
FD
00
FB
FC
03
FC
07
01
F9
0A
FE
FC
FD
FD
05
00
0E
FF
04
05
F8
0C
F9
05
FC
FC
FB
F3
02
05
FC
FB
FB
06
00
02
01
06
FD
01
02
FE
F2
01
01
08
06
F3
FC
06
FF
FE
FC
FB
FB
02
F3
00
F9
04
0B
01
04
FB
06
0C
02
09
F6
0A
FD
0B
F5
02
00
FB
00
FD
F9
F9
05
00
0C
00
05
FC
FD
06
F7
F7
02
FD
07
05
0D
09
FD
FF
FD
00
FB
FA
01
01
02
0A
07
01
FB
FA
F6
0A
09
08
0B
FB
01
F4
FF
F7
02
FE
02
FB
FC
F3
FA
02
FB
FE
01
03
07
01
FD
F6
09
FF
FF
FC
F9
00
FE
02
08
07
01
FE
FD
FD
F7
00
0E
05
FA
08
03
F5
FB
FD
F6
07
01
FF
F8
FB
02
04
ED
FD
05
1F
F7
FA
F0
FC
04
12
FA
FA
F4
04
F4
09
FA
FA
04
01
F8
22
FF
08
F6
F7
04
04
ED
F5
05
00
00
F5
F7
08
01
03
F9
F8
05
06
FB
0A
FA
F1
0C
06
05
F8
06
FF
09
04
0D
16
04
FD
FC
FD
09
02
FF
01
03
06
04
00
02
FF
06
FA
FA
FC
F7
06
FF
F9
00
00
FD
FF
F7
03
FD
00
05
03
04
FA
FE
F3
03
02
02
00
07
01
FD
00
FD
05
F7
05
FF
00
FA
FB
03
FA
06
04
05
FB
F9
0E
00
FB
04
05
F7
FD
F9
04
05
02
FC
F9
00
F7
07
09
F7
07
FF
09
FF
FA
02
FB
09
FF
F3
08
FC
FF
03
0F
F7
FE
02
FE
FC
07
04
F7
F3
08
03
FD
00
FE
03
02
FE
01
04
FA
FF
03
F7
08
F7
08
01
01
02
FB
FD
FB
04
04
04
0E
07
FB
01
05
02
FE
FB
F6
06
FC
FF
00
F2
FA
FC
02
FF
02
02
FF
0B
1A
0C
08
02
04
FE
FD
03
00
02
03
02
02
08
04
00
02
FF
02
DC
FD
F9
F9
09
02
04
FF
01
FD
FE
FF
F9
FF
FB
03
07
FD
08
0C
FF
0D
00
05
FB
01
F8
01
FF
06
00
01
FD
09
03
02
F7
01
F9
FE
FC
04
FB
02
FF
00
10
04
01
FF
FC
04
04
02
03
07
FB
FB
01
00
F6
01
00
FC
00
05
FF
F9
00
05
01
FA
FF
FF
0A
00
04
00
07
02
FE
FD
F6
F7
FD
01
05
09
02
01
03
01
FE
00
FE
01
ED
FE
FE
03
FC
07
F8
FF
FE
04
FF
FD
FF
03
04
FF
08
FD
FF
F8
FD
FB
02
00
03
FD
07
F9
FB
F8
FF
FC
00
03
FE
FD
01
04
00
FF
05
F8
EE
0E
00
02
FD
03
FF
03
FF
FF
00
FE
FE
06
00
05
F9
06
02
FF
FF
00
03
FF
12
01
FF
07
01
03
01
01
FB
FD
01
00
00
01
05
F5
FE
00
01
06
01
07
0F
01
05
02
07
FB
06
FE
FF
08
03
FF
03
02
FD
FD
FB
FA
04
FC
01
FE
00
02
00
04
FC
FF
FE
02
00
FE
FA
FA
DF
FA
FD
04
00
09
FE
FB
F9
F5
03
03
09
F6
FB
05
F2
03
FB
FD
F6
11
01
FA
03
01
01
FC
03
06
01
04
FB
F9
04
01
FF
02
07
00
06
04
F9
F6
05
FF
FF
F9
07
02
04
FF
F9
F7
FC
FB
FD
04
04
07
F7
02
FE
06
05
05
FD
03
04
08
FB
04
FD
F9
11
FC
F1
01
03
05
FD
FA
FF
08
F6
09
FD
0D
FF
02
02
EC
FB
F2
FD
01
FF
02
1D
06
FF
FE
F8
FB
07
0F
FF
01
F7
09
03
07
FA
FA
F8
FE
01
FD
FE
F6
01
08
01
00
02
01
FD
00
FC
02
0E
04
02
06
00
FD
FA
FC
F9
FF
01
FD
FE
00
FD
01
05
FE
03
03
FA
03
FE
00
03
FF
01
04
FF
00
01
FF
FB
FB
00
02
FA
FF
FD
FF
F8
FC
FD
FF
13
FD
02
FC
FF
03
FC
05
FB
07
FD
02
00
05
FF
04
FE
F8
FE
03
FA
FC
06
FE
01
05
FE
00
08
05
F8
FF
FC
00
FD
FB
EF
04
01
03
FB
06
F3
FE
03
FA
02
00
F7
FE
08
0F
FF
01
F7
00
FB
00
02
FE
00
01
FA
03
01
01
02
FE
07
00
FE
F9
FD
02
FC
00
04
FC
01
FD
FA
F9
FE
02
07
FD
FB
FD
FA
07
10
FE
FD
FE
00
05
02
FD
FD
FD
01
EC
02
01
FC
F2
0A
04
06
01
FF
FF
04
FC
FE
10
01
04
FC
FE
05
FE
07
FC
FC
FF
EE
00
FA
06
0B
F8
02
FC
FF
00
00
FD
02
04
03
FC
05
01
F1
FC
05
FA
FF
09
06
FA
F5
FD
0D
F8
F7
03
FC
FA
01
FB
FF
F2
FC
FB
08
F5
F6
0D
FA
F6
00
FF
02
08
04
FE
FF
F7
F5
02
00
02
FB
02
00
03
FC
04
03
FD
01
04
F3
08
F8
FD
F7
F8
06
04
05
05
07
FE
06
FD
06
FA
12
04
FE
FB
01
0E
00
02
08
04
FA
FB
FA
FD
07
09
0A
02
FD
FB
02
F8
FF
03
02
FD
09
07
FD
FC
01
F7
02
09
FE
0C
09
FE
06
07
FF
FE
06
03
00
03
05
05
09
00
FF
FC
FA
08
FD
FA
01
FB
FD
FF
04
00
03
02
02
EC
FA
04
01
F6
01
02
02
FE
02
FE
FA
FC
FF
01
FD
04
F7
09
02
0D
09
00
05
F3
FE
FF
FF
F9
11
FB
06
19
0E
F6
FA
02
FC
05
00
FD
04
FC
01
04
02
02
0C
FF
17
03
07
FE
03
04
FF
FB
04
FF
FC
F8
09
F7
03
F8
F7
07
01
01
03
FE
10
FC
FE
06
05
01
03
FE
FD
F8
01
0B
00
0B
0D
F4
FC
EA
FD
FC
00
06
04
E6
FE
FD
EE
FE
0A
03
08
0C
03
01
F7
FB
F3
01
FC
01
FF
FE
F6
EE
00
02
FD
F6
FA
F1
04
FF
07
05
FC
F4
FE
F0
F4
FF
03
01
F4
FD
F5
01
09
F7
0A
F1
00
F8
FA
09
FB
FA
FE
FE
0A
1D
F3
FF
F2
05
FC
08
05
FF
F4
1C
03
EE
F9
00
FF
0C
03
00
FC
02
FF
01
F1
F3
00
FD
0D
01
07
FB
FF
0E
FD
FF
05
00
F7
F8
FE
F0
E8
F4
02
01
FD
EF
10
FE
FA
FB
09
01
F3
03
F8
05
01
F5
02
EF
FF
00
FE
03
06
FD
FF
F6
01
05
02
FD
08
09
05
08
01
0D
E7
04
01
FE
01
01
05
05
F9
FE
F9
FA
F3
02
10
03
06
FC
F8
01
02
05
04
08
01
FA
F7
F7
FF
03
FE
05
01
F9
00
05
07
F5
05
04
F7
0B
14
FB
FC
FE
FC
FE
FA
00
07
F8
0E
06
FF
FC
FC
F6
00
FE
05
F8
FB
F8
00
17
05
EF
05
00
03
02
F6
FB
FC
FF
0C
03
F5
0D
03
FE
FA
F2
FE
01
01
09
07
08
F9
FD
F9
FA
FE
0A
FF
05
09
00
FE
04
0E
02
FD
03
09
FD
FC
FA
04
00
F9
FC
03
06
0C
FF
01
01
FD
FE
04
F0
00
FE
00
05
F3
FF
FC
02
03
00
0A
02
F7
01
04
FE
FF
0B
03
04
01
07
01
06
FE
08
0C
00
FF
07
FE
0B
01
00
01
00
09
00
0A
02
02
0B
03
02
00
05
FB
00
05
06
00
0A
FC
06
FC
02
01
07
01
0C
04
06
00
01
F8
07
FB
00
FB
05
02
FB
FE
FF
FD
00
FC
03
06
04
00
05
FE
03
08
FE
FC
FE
02
FE
02
02
04
09
09
FE
FF
03
03
02
0A
FD
02
07
F7
04
02
01
05
03
03
07
02
FE
07
02
02
01
FF
06
F8
FE
02
00
FF
FD
F9
01
F9
05
04
FC
03
01
FC
F7
02
04
04
03
FD
FC
F6
F4
04
FF
00
0E
03
04
04
02
01
FF
00
FE
0B
02
03
F6
00
07
FC
FF
07
00
F7
FC
03
F8
F7
FD
03
03
FD
F7
03
F6
00
0A
FE
FB
FE
03
09
FE
FE
F8
FC
08
FC
00
10
01
FD
05
02
F8
F8
FF
00
03
02
FD
00
04
FB
FE
F8
FE
06
FF
FD
FF
FF
FB
02
FE
F7
00
02
F4
01
00
F9
01
04
0F
FD
05
07
FB
00
01
05
02
08
FA
FB
FD
07
08
12
02
05
02
FE
01
FD
0B
02
FC
03
02
03
F6
FB
05
03
FF
03
03
01
FB
FE
05
FE
FB
0E
07
FE
0A
07
11
FE
0D
02
01
FB
FF
FC
E7
00
01
06
F8
FF
08
00
00
FC
FE
14
00
FC
04
0C
F7
EF
FE
FB
FA
01
0B
FD
F8
09
FF
FE
FE
FA
F7
00
04
00
FA
F9
0F
03
05
F0
F6
02
02
0E
F3
01
01
FC
FE
00
F8
03
00
02
FC
FC
FE
01
F8
04
FD
FE
00
02
FF
F0
FA
01
00
00
FC
06
02
FF
01
FF
01
05
FE
FB
FD
FB
01
01
04
01
FF
04
F8
00
FB
09
F8
08
04
FE
0C
01
04
0B
01
01
08
07
08
02
05
FC
00
FF
03
03
09
06
0A
08
00
02
09
08
FF
00
F9
09
FF
FE
00
00
07
FD
01
00
FE
03
F6
06
0C
FF
FD
07
10
04
02
08
02
02
08
00
04
FB
06
05
0D
04
FF
F8
05
05
0C
FA
00
0F
00
FE
02
02
FD
FF
FF
05
07
FE
FC
FC
02
08
01
06
02
09
07
04
07
00
09
07
00
FD
00
01
00
0E
04
00
03
09
02
04
01
09
03
01
02
FD
03
02
00
02
05
FC
04
06
02
02
FD
FF
FE
FB
05
02
FF
01
F8
07
05
FD
FB
FD
FB
06
FC
FF
02
03
01
01
01
FF
FE
03
03
02
F9
03
03
05
FF
FB
FC
06
FE
02
FC
00
11
F8
FB
F3
FD
00
01
04
1C
02
FF
F8
00
F6
FF
01
03
F0
17
02
05
02
F2
07
00
01
FC
01
FE
FB
0C
08
F8
F2
08
FF
F7
02
F7
08
FE
FE
F8
FF
02
04
F4
05
05
FE
F5
04
FC
FF
FF
02
FD
04
FF
FF
FC
03
06
02
08
FF
00
03
FB
FC
08
FC
01
06
FB
FE
FC
FA
08
F4
00
F9
00
FE
FF
FA
F3
FF
FE
04
0D
FA
02
FF
FA
00
05
FF
03
FD
04
04
03
02
11
01
04
03
FF
03
FF
FA
FF
FF
00
00
FF
05
05
0D
12
F9
F9
F4
FE
00
03
FC
F9
01
02
06
04
FA
FF
FA
FA
01
09
FA
00
FF
01
00
FB
FC
F8
00
FA
04
F9
F8
10
FF
04
FE
F7
F9
FC
FD
FB
F6
F7
FC
FF
03
F2
FD
F8
02
FA
04
FB
01
F2
FD
01
FF
03
01
FB
06
FF
F7
05
02
03
FC
03
03
01
FD
01
01
01
FC
01
08
FD
FF
FE
02
FA
00
05
F8
FB
FE
09
FE
00
FF
0D
02
04
FE
14
02
02
F6
07
17
FC
07
EE
F6
0C
01
05
FC
02
F5
04
FA
08
FB
0E
F8
FC
06
08
FC
02
06
06
F7
FA
F4
F1
F3
0C
F3
01
02
F8
FC
09
FC
06
FC
00
0A
10
03
05
03
01
00
03
01
FB
F9
04
FC
FA
F8
00
00
FB
0E
04
05
01
FA
08
F0
04
FE
FB
00
FE
01
04
04
0C
0F
FF
FE
08
FC
02
FF
02
FB
FA
05
FB
F9
F5
00
F9
08
FB
04
04
F9
07
FD
08
04
FB
01
00
F5
05
01
FC
F5
FF
F4
01
FD
FA
FC
08
FF
F2
02
F8
00
07
EE
0E
03
03
F2
0C
F9
09
00
10
FB
FD
01
F9
FE
FB
01
FD
FD
E4
F5
F4
06
FE
03
03
FF
06
FA
FA
1C
F8
01
01
FF
F1
00
F8
FB
F9
F6
12
05
09
F6
0E
05
08
02
15
F6
FB
F4
F1
FA
F5
01
FA
F9
0A
19
0F
0C
F5
02
FB
05
02
EA
07
FE
08
F0
F1
0A
15
13
F4
F6
23
F6
00
FD
18
F5
0E
FC
FE
0A
03
FA
F9
FC
FD
F0
01
F1
F1
05
F9
FB
FF
0B
F5
FC
0D
FA
F8
10
FC
F5
08
F5
FF
EB
F0
FD
00
FF
FB
01
F8
02
FA
FD
F9
01
FC
FF
FA
01
FF
FC
01
04
01
FB
04
01
FA
03
00
04
0A
FE
04
FB
11
FD
04
FF
FE
00
FF
FC
06
FE
00
FC
08
07
F9
FA
FF
FE
05
FE
08
FF
FD
FE
FC
04
FA
07
FE
FD
00
00
01
FD
07
01
01
04
08
00
F9
00
FA
FC
FD
FE
00
FD
FE
2E
04
01
0B
FE
F9
00
01
F2
FD
FE
F0
05
FF
04
E1
04
F7
08
FE
00
01
03
FB
07
05
02
03
FF
FF
F8
02
F8
0A
09
FC
FA
FA
01
FB
04
FF
02
F5
07
04
FF
FD
FF
00
00
FC
EF
F0
F2
F2
0D
F2
F6
0C
E1
06
10
00
F4
FF
EC
21
E9
02
09
CD
EE
DE
F9
F8
12
D1
F3
DA
D7
E9
00
0C
F8
FC
EB
26
EB
F6
08
07
E7
F1
EC
D3
F3
F6
00
0E
07
03
EC
0B
F3
EF
19
07
04
0F
F4
22
E5
DF
EE
E3
FD
20
1F
F1
09
1D
F7
04
FB
F0
10
01
D7
23
E5
2B
DB
EB
1A
0D
EF
F7
FA
03
E6
EA
05
14
00
FA
FD
F0
06
08
0E
F2
07
FC
08
F1
EB
E1
F9
ED
FB
FD
13
D4
F1
FF
F0
F7
0E
F1
E1
DB
DB
E9
15
D6
04
F3
FC
FF
FC
02
04
02
FC
00
0B
01
FE
0B
02
FE
04
00
01
0E
02
F1
02
FC
FE
FE
F8
FE
00
FE
01
02
00
06
FB
FD
EF
FC
FD
01
FA
FF
FF
04
F9
03
03
FB
FB
FF
FE
02
00
00
FA
F9
02
0E
04
00
F9
FF
FC
F7
00
00
00
FC
FD
02
01
F6
07
F7
01
00
01
00
FD
05
F7
03
00
09
05
F9
02
FF
FB
FC
FE
1C
01
FB
02
0C
0B
02
FC
00
FD
FA
F9
03
05
02
03
00
FE
FF
02
00
FA
FB
07
FF
05
11
FC
FD
F7
FC
FF
FC
04
00
01
FC
00
FF
FF
03
11
FE
09
05
06
04
FC
F9
00
01
00
06
03
ED
F9
F8
FB
00
04
FC
02
0F
04
03
FC
01
07
F8
FF
0A
FF
FC
F3
00
00
FF
02
FE
00
FE
2D
FE
FA
FA
01
00
01
F5
08
01
02
FE
FE
F7
FA
FC
FF
FD
FD
04
03
0C
01
00
FB
F6
02
FC
F8
FA
04
01
FE
FD
02
F6
FE
FF
00
04
F9
00
FF
FD
08
F6
00
05
F5
03
03
0F
04
02
01
05
02
0A
FC
F6
01
05
FF
05
FD
00
01
03
02
F8
FA
FE
FB
00
FD
FC
FD
03
FC
FA
09
00
02
01
F8
F9
03
F9
FD
07
0B
FB
07
0F
12
F3
EB
F1
F6
F1
F0
0F
F3
FE
02
1C
FD
F5
FE
01
F6
E5
F8
02
03
FA
13
01
FB
FF
0D
F5
F5
0C
03
F8
FC
F4
07
09
0C
02
F7
FB
F6
F9
01
13
FF
0A
EB
FC
FF
03
EF
F2
E5
03
0E
02
EB
FE
F7
FD
11
05
FE
F5
FD
09
FC
03
EE
03
EA
FD
F7
FD
FA
F8
FC
FC
F5
F0
09
0E
0E
F3
FF
13
04
FA
F7
F2
0C
03
11
EF
F9
E4
FE
F6
F3
EA
02
07
F2
FC
F6
11
0C
F3
F0
EC
02
08
0E
13
09
10
0C
03
FA
FA
FC
