FF
00
01
00
01
01
00
00
03
FF
00
FD
01
03
FF
FD
04
01
01
02
02
02
02
02
FD
03
FA
FD
FC
03
FF
01
02
00
02
01
05
01
FE
F2
06
FD
02
FC
00
07
FF
FB
02
04
04
01
03
03
03
03
FD
01
FB
FA
FA
04
05
02
04
04
02
01
04
01
FF
F5
01
FE
FE
FD
03
06
03
FC
03
04
05
01
04
02
02
02
FD
01
FC
FC
FA
04
02
02
FF
FE
FF
FF
FD
00
00
FA
FE
FF
FF
02
FB
FF
02
FF
00
FF
FF
01
FF
FA
00
00
00
00
00
01
00
01
FD
01
FD
FE
00
FE
00
FF
00
E9
FE
FF
FF
01
F9
FE
04
FF
FE
FE
FF
00
FF
FB
FE
00
00
FF
01
00
01
02
03
00
FE
00
01
FE
FF
FF
00
E9
FE
00
00
01
F9
00
04
FE
FF
02
00
01
00
FB
FF
00
01
00
00
02
01
02
04
00
FE
FF
FF
FE
FD
01
01
01
F8
02
00
04
FA
FD
0E
05
FE
FF
FE
05
FF
02
00
FF
03
FE
07
05
05
04
FE
01
F9
FD
FE
FD
FB
FF
03
F2
F6
04
00
04
F7
FA
11
07
FB
FF
FA
07
FD
04
FC
FD
05
FD
08
07
07
06
04
FF
F8
FD
FF
FD
FC
FF
03
F2
FB
04
05
03
F0
FB
0A
06
FD
00
FC
09
FE
03
FC
FE
05
00
06
09
09
08
0A
FF
00
FE
00
01
F8
FE
07
03
03
01
FC
F5
13
FA
FF
F8
04
0B
02
15
F9
00
F6
04
03
02
F2
FF
F6
01
FB
FE
FC
F9
FC
01
F8
04
F9
FF
05
F7
01
F0
10
FF
00
F1
04
07
FF
1A
FA
00
F4
07
03
01
F5
02
EF
F5
FB
00
FC
F8
F8
01
FD
09
F1
FA
03
FA
FA
EA
08
05
FB
FD
01
03
FD
FF
03
01
F5
08
01
01
F4
01
ED
EC
04
05
FC
F5
00
00
F6
FA
01
07
05
FD
00
FC
00
04
F6
F1
00
FD
FD
FD
FA
EC
F6
03
06
04
FA
FE
F8
08
FE
00
FA
F2
FC
FF
FD
FF
F2
FE
06
EE
FD
F8
00
0A
F4
F4
FA
06
FD
FC
01
E7
F5
07
07
00
FD
F8
F3
2B
02
00
FE
F3
F9
00
04
0C
E6
F3
0B
F3
FD
F5
01
0C
F0
00
FE
05
FD
FF
0B
E4
F4
0B
06
03
FE
F6
F5
24
FB
05
FB
F9
FC
00
FC
FB
08
07
05
02
FE
FD
F6
05
F7
00
00
F7
FA
F1
02
FB
FF
09
07
09
FE
EF
FB
F3
04
03
F8
FF
F4
00
FF
FA
02
FD
00
10
FB
FB
F6
02
F9
15
FB
FD
F8
ED
0C
F9
FB
09
09
0B
03
E9
FC
07
04
02
FC
02
F4
00
04
0A
F8
F3
0B
12
00
FA
04
02
F3
1E
01
FA
F8
19
14
F5
FB
0E
08
13
02
E7
FE
00
03
04
FD
FE
03
FF
FE
05
FB
FC
FC
FF
FD
02
FF
FA
06
FD
FE
06
FE
08
FD
05
FD
FE
06
F9
03
08
01
FC
01
FF
FF
FF
00
00
FE
01
FF
FE
00
01
04
00
F8
FF
F6
FE
03
06
FD
00
02
05
FE
01
02
02
FE
04
00
FE
FE
00
FE
01
FF
04
01
FE
03
04
04
04
FB
FC
03
09
F5
01
02
FE
FE
FA
0A
FD
01
06
FA
07
FC
F6
FB
04
02
02
F9
FD
01
FE
FA
03
FE
03
FD
FF
FF
03
F7
F8
04
FC
FE
05
FB
0A
FC
0A
FD
FE
08
F9
07
0C
03
03
01
FF
FC
FD
FF
00
FE
FF
02
00
04
02
08
01
ED
01
EF
00
04
04
FC
FC
02
02
FE
01
03
02
00
06
03
FF
00
00
FB
01
FE
03
05
FE
05
FD
0D
03
00
FB
F3
0D
E6
04
05
F1
FD
ED
0C
F5
01
08
F9
09
F8
EF
FE
FD
FF
03
F9
F8
00
FF
F8
05
FB
0B
FD
01
FE
04
FB
F9
07
FD
FF
03
FA
0A
FC
FD
FF
FE
05
F9
06
0A
02
0D
FD
FF
FB
FA
00
00
FD
01
00
00
03
00
05
03
ED
01
F0
00
03
01
FC
FE
02
FB
FF
00
01
00
FF
05
01
03
04
00
FB
00
00
02
06
00
04
F4
0D
01
FF
FE
F2
0A
E8
05
03
EF
FD
EF
0A
FD
FE
06
FA
05
F8
F1
FC
F2
FC
02
03
FF
01
FF
02
FE
06
F9
05
FE
05
01
01
03
FC
02
FD
FC
FE
FF
00
FC
01
00
01
FD
02
03
01
01
FE
00
07
03
FF
FF
00
01
02
02
FE
01
FA
FF
03
FD
04
02
03
0F
02
07
FF
FB
00
04
FF
02
0A
04
02
FD
05
01
FE
01
FA
00
F1
FF
07
10
02
0C
0C
FE
F7
F5
02
05
06
F0
F9
01
00
FF
FC
FD
00
06
0A
0B
05
FC
B8
02
05
00
01
00
00
FF
FF
F8
04
02
02
01
04
FB
FC
00
FD
01
01
FF
01
01
FE
FF
FE
FE
FE
FF
FB
FD
04
00
02
FF
03
FE
FC
05
F8
FE
08
FF
FF
FE
05
01
F8
FE
03
E0
00
F8
01
08
00
03
00
01
EE
F8
00
FF
04
00
09
01
02
01
06
02
F8
07
0A
ED
02
FA
04
16
FF
F4
FA
21
07
FD
02
11
0F
02
01
FA
FF
E6
F0
FB
1D
03
03
01
FD
02
01
FE
02
07
02
01
05
01
05
00
01
00
03
FE
FF
FF
00
FD
03
FF
FF
01
02
FF
FB
FD
05
FF
00
FE
00
01
FD
00
00
00
04
05
05
01
01
F7
06
03
02
0D
FB
FC
02
FF
FA
FF
01
01
00
06
00
03
01
FC
02
01
FF
00
01
FD
02
05
02
03
03
FE
FE
F8
05
01
00
F8
FD
01
00
FD
F7
FF
04
06
08
05
01
06
14
FC
FD
FB
FA
FD
FF
F8
F5
05
FA
FD
FE
F9
F7
02
02
FF
FC
FD
FF
04
02
FE
FE
01
03
01
02
FE
FE
09
FC
02
FD
FD
FB
FC
03
FD
F8
07
FD
F5
07
F9
F3
03
04
FF
F8
F8
FB
F5
04
04
01
01
07
02
08
02
06
35
F8
02
FC
FF
FA
FC
01
FD
FB
0A
F7
F9
FD
FC
F5
FE
FF
FF
F7
00
FD
F0
05
01
FF
FF
06
02
04
05
07
2A
F2
01
04
FE
00
FE
06
00
03
F7
02
01
03
FF
08
03
00
09
00
00
FB
EF
07
0A
FB
02
FF
03
FD
F5
F9
0F
07
01
04
01
FE
FC
06
02
0A
F5
00
0A
04
FF
05
00
02
14
FD
04
F8
ED
09
0C
FE
03
03
06
00
EE
03
18
05
02
02
02
FE
FE
03
01
0B
F7
01
0A
FD
01
0B
01
FA
11
FA
02
FD
07
0A
06
03
00
02
05
FF
F0
02
17
FE
01
FE
02
FD
FE
04
F9
FB
FC
00
F7
FD
02
07
06
F8
ED
03
FF
FA
11
FA
F2
FD
01
FD
F5
F8
03
F0
E5
02
FF
03
02
FC
FC
01
FF
F6
F3
FA
F7
00
04
00
03
01
E8
01
02
FE
1D
F5
EE
FF
00
03
F3
FB
0C
F8
AF
07
01
02
02
FC
FC
01
FB
FB
F2
F9
FB
FB
04
FA
FF
FD
EB
01
FD
00
0B
F4
ED
FD
FD
03
F1
F9
08
FA
B0
02
02
FC
FE
FF
02
FD
01
FD
00
03
00
03
FD
03
01
FF
F6
05
00
01
00
FD
03
FF
01
04
01
FD
04
FF
00
FF
00
FF
FE
00
01
FD
FE
FE
FE
04
FF
04
FC
02
02
FF
F3
05
FF
06
FF
FC
03
03
FF
04
00
FF
07
FE
03
02
00
01
01
00
01
FF
FD
01
01
01
FF
01
FD
00
04
00
F5
05
01
07
FA
FD
01
04
FF
04
FF
00
04
FF
FF
00
01
FD
FD
01
01
FF
02
FA
01
03
01
03
FC
03
FF
02
F4
04
02
02
F9
FC
01
FE
FF
06
FE
FC
09
FF
02
02
FF
FE
FE
02
01
FF
FD
FD
01
05
02
05
FB
02
FE
00
F1
03
01
07
FF
FC
FE
01
FE
06
FF
FE
0A
FE
04
00
FE
01
00
03
00
01
FC
00
03
02
00
00
FC
00
01
FF
F3
04
FE
08
00
FC
01
03
FE
07
FE
FF
0C
FF
01
00
FF
FE
FD
FF
00
00
04
F7
00
03
01
03
FF
02
FE
00
F9
03
02
02
F9
FC
05
00
FE
07
FC
00
06
02
04
FF
FF
FF
FE
FF
00
FF
FE
F9
02
05
01
05
FC
03
FE
00
F5
01
03
07
01
FB
05
03
FE
08
FC
01
06
01
01
FE
FF
01
00
00
00
00
FD
FC
01
02
01
00
FD
01
FE
01
F7
01
01
07
02
FB
07
02
FD
08
FC
02
06
01
02
00
FF
04
F7
03
FF
0C
35
C3
01
F9
03
F5
0C
03
F6
FA
24
01
08
FE
02
FB
06
FF
02
03
F7
FF
F1
FF
05
07
08
FE
EC
02
00
00
02
F6
FE
02
00
FF
06
F6
FF
EC
06
02
FF
01
FE
02
00
01
FB
FE
06
04
FB
03
FB
FF
02
FA
07
FE
FF
F8
BC
4B
01
F7
FF
EF
F3
09
10
01
E5
F8
F4
FF
FD
08
08
FD
F1
F9
0A
03
10
09
05
FD
F7
01
F2
05
00
11
4F
A4
0A
FB
09
F8
15
00
F2
FB
32
FF
13
FB
04
F9
04
05
06
06
F4
FD
E6
00
08
09
0B
01
ED
05
00
03
03
F4
FF
01
04
03
08
F2
FD
E9
02
02
05
01
FE
00
02
02
FE
00
03
02
FF
06
FA
FF
03
FD
0B
FF
00
F3
A6
69
09
F8
FD
EF
EC
09
12
09
CB
F9
F4
02
F9
06
05
FF
F0
F8
09
00
1C
08
06
FC
F6
05
F1
07
01
11
4A
A6
06
FB
04
F9
13
05
F2
FD
27
FE
18
00
02
F6
FD
07
08
03
F1
00
EF
00
0B
02
0B
04
EB
07
00
06
00
EE
FC
05
00
05
09
F4
FE
F1
FF
00
03
03
FC
FD
04
02
FF
01
01
02
01
05
F8
00
02
FE
09
00
FE
F3
A9
5C
06
FD
03
F4
F0
03
10
08
D2
FA
F6
04
FA
08
0F
00
F1
FD
0B
FE
19
09
00
FB
F6
FF
FF
01
FF
02
00
F9
05
01
FF
00
00
F6
00
04
02
00
04
FF
05
FF
FB
FD
00
08
FF
0D
02
09
04
00
FF
FF
00
01
FF
01
01
F9
0D
00
01
FF
00
F8
00
07
01
00
FA
00
02
FF
FC
FF
00
09
00
0C
03
0D
05
F4
FF
FF
FF
02
FF
02
02
FB
08
01
FE
04
01
F8
00
04
FF
FF
03
00
01
FF
FD
FF
FF
0A
FF
08
04
0F
00
00
FF
FE
01
00
FF
02
FF
00
05
02
00
00
FF
FA
FF
08
04
00
FC
FE
04
FE
02
F9
FF
00
00
00
FF
03
06
FB
FE
00
02
00
00
03
00
02
0E
01
00
FF
FF
FA
00
06
03
00
07
00
00
FE
03
FD
FF
FD
00
00
FC
00
08
F8
FE
00
01
01
FF
03
01
04
0C
FE
FF
FF
00
FC
FF
07
01
FF
05
00
04
FD
05
FA
FE
00
FF
03
00
02
0B
FA
FE
FF
FF
FF
FF
00
FF
05
07
01
01
00
01
00
FF
0B
02
01
FF
FF
07
FE
FF
FA
FE
FE
00
FC
02
FF
03
F9
FF
02
01
00
FF
01
FF
08
03
02
00
01
00
FD
FF
05
00
01
02
01
00
FD
FF
FA
FF
FB
FF
FA
FF
FB
02
FB
FE
00
01
00
FF
01
01
09
05
FF
00
FD
00
FE
FF
06
FF
00
FA
00
06
FD
00
FD
FF
FD
FF
FE
00
FC
05
FC
FF
04
01
00
FF
00
FE
01
00
00
00
02
03
04
FE
08
01
02
01
01
00
02
FE
FF
01
04
01
FC
FF
04
FF
01
00
01
01
02
01
06
01
FC
FC
03
FF
04
FF
03
03
03
FE
FF
01
01
03
00
FD
02
00
FE
FE
00
FB
FD
FF
F9
01
FB
00
01
00
03
FE
FE
FF
03
FF
04
00
F9
FF
03
F9
02
02
01
FE
FE
FE
01
FF
01
03
FD
00
FD
03
02
00
FF
05
FE
FC
FB
FE
04
FD
01
04
05
03
FB
F9
FC
06
03
E5
FF
03
01
06
FA
00
07
04
FA
08
0B
03
10
FE
00
FE
01
01
09
02
F9
01
08
F8
03
FE
FD
0C
F5
FD
01
17
03
05
01
FF
09
02
FB
FD
04
F3
F9
FE
F7
01
FB
00
FF
00
FC
FF
01
00
00
04
FF
FF
FB
FA
02
FF
02
FF
00
FA
00
F9
FF
FF
FF
04
00
03
FE
04
FB
00
FA
02
FE
FB
F6
FC
05
04
01
0E
04
04
F6
F5
FC
06
04
C6
F9
01
FF
FE
F5
FD
06
05
FB
0C
0B
00
F6
FD
02
FC
04
00
0A
01
FB
04
06
F6
FE
FD
FD
0C
F6
FB
FD
16
00
03
00
05
08
02
FF
FD
01
F2
FA
F8
03
01
FC
01
FF
00
FE
FD
03
00
FE
02
03
FE
FB
FC
05
FC
FF
11
01
FC
FF
02
FF
FF
01
02
FF
01
FD
02
06
FF
00
FF
09
0A
09
03
F9
FE
05
02
01
E3
00
FD
05
FC
0D
FC
05
09
F7
07
09
08
FF
FE
04
0B
02
F8
01
05
05
FA
0D
09
0D
16
EF
FA
01
FF
00
EA
01
FD
FD
01
08
FC
0A
FA
FB
00
08
06
FE
FE
00
0F
02
02
01
08
02
F9
00
05
06
FE
04
07
FD
02
FD
E8
FF
01
01
01
00
00
09
EE
00
F9
FD
FD
FC
02
00
05
03
05
FC
04
04
FD
0B
09
0D
10
F0
01
04
00
01
E9
06
FC
02
01
05
02
07
08
FB
00
0A
05
FD
FE
01
FF
00
FE
FB
04
08
FE
0C
07
12
1F
EB
FD
00
00
02
EF
08
FB
01
06
00
05
08
FA
FD
FE
07
03
FC
FD
FD
FF
FF
04
04
05
00
FB
FB
04
04
05
01
02
FD
03
00
EE
02
FE
01
07
F8
01
00
F2
00
FC
F9
FC
FB
00
FC
F8
01
FD
FE
00
02
00
02
08
08
05
FD
FE
02
01
07
EB
FE
FA
FD
00
03
01
01
04
FC
07
FE
01
FC
04
02
F8
FF
06
03
00
05
00
00
06
05
0F
FB
FF
FC
02
04
EF
05
F9
02
04
FB
00
FD
FD
FF
FE
FD
00
FB
03
FD
F8
FE
06
00
01
FE
FB
F0
03
FA
F7
0E
FD
FB
01
00
ED
01
FD
01
00
F3
05
F5
F6
02
FC
F1
FA
F9
05
FB
F1
00
FA
05
FD
FB
F6
FC
02
FB
FC
EF
FA
01
F2
FF
F7
F5
0B
0B
E2
FE
FF
0A
2B
F1
09
05
FF
0A
00
02
12
F9
EA
FC
03
FF
EF
F9
02
FD
07
FA
02
02
FB
04
FD
F3
01
0C
03
FE
03
0A
BF
03
FE
04
FF
06
08
FC
F8
F7
15
04
03
FF
05
FC
02
00
01
02
F9
FC
02
FF
FD
09
00
F9
09
07
05
FA
E3
0C
F8
FF
01
06
F5
FC
01
FB
02
F8
FE
FB
F6
FF
01
06
00
F9
03
01
E9
00
F9
ED
09
16
EC
FB
05
05
D9
F8
FA
FE
FE
05
FD
03
10
FB
29
FB
04
01
F7
F8
02
FC
04
05
02
FD
0E
06
F9
FA
F9
08
14
FC
04
05
D6
0A
FB
FC
01
01
0C
01
E1
FA
0D
00
02
01
0C
01
03
01
03
FD
03
FF
FF
FF
FC
18
02
F2
FD
06
F7
F2
3E
0A
FD
FD
04
03
F8
FC
0B
01
D4
FF
FF
FB
FB
F8
FF
0A
FC
03
F9
FB
F6
07
FB
E8
01
14
01
FD
07
03
CE
FC
FC
F9
FF
01
FC
03
F7
FB
16
FB
01
FF
FD
F3
03
FA
FD
04
00
FC
14
03
FB
04
F9
FA
14
FE
01
02
2C
09
04
FC
04
00
0A
03
DF
F9
DE
FE
00
03
0F
FD
03
02
FA
F9
02
FC
EA
05
FB
16
07
EB
EB
08
FC
F2
44
03
04
FD
01
01
EF
FA
1F
04
DC
01
00
0B
FD
FD
FF
06
0B
FF
09
FE
01
05
00
06
10
FB
01
FB
04
FE
01
10
FA
FE
03
03
06
FB
FA
00
0E
01
06
0B
00
FE
FE
03
03
FD
03
F8
FD
02
FF
06
06
FD
F6
00
0B
00
09
05
FB
F9
00
02
FE
F6
FD
FD
05
FF
03
04
FE
01
FF
FB
FA
04
09
F6
FD
FF
FA
04
F9
08
EC
FE
01
FA
F8
F6
FE
F8
FC
00
F4
F9
FB
F6
F3
FE
00
0D
03
FA
FF
08
04
FD
06
FD
05
02
FD
06
0F
FB
0C
FA
04
00
F7
14
FB
FC
03
03
06
FF
F4
02
0C
00
05
06
04
FC
FF
00
FE
FA
03
F5
05
FD
FD
09
00
F6
01
00
F9
F9
1A
07
00
F2
00
01
01
F7
FD
00
0A
FD
01
01
FF
01
00
FD
F9
FD
01
F1
F6
FB
F8
09
FA
01
E9
FE
FC
F5
0A
F6
01
F6
FB
00
F4
FB
FA
F6
FD
FE
FF
13
0A
F7
FF
0A
05
FB
05
FD
07
03
FC
06
0F
FD
0F
FE
FA
06
F7
12
05
FC
04
05
08
FF
F0
03
EE
04
08
09
05
FA
FF
02
FF
F6
03
F7
03
FE
FA
09
04
F7
07
01
FB
FC
13
08
04
FA
01
03
00
F9
F1
00
F0
F8
04
03
FF
FF
00
FE
F9
FA
F9
F0
F4
F9
F4
0B
FC
FE
F4
FF
FA
F6
00
FA
FF
FB
FB
02
F3
FB
F1
F9
FF
FA
01
FF
00
FF
01
FD
FB
04
04
02
00
04
FB
02
00
F8
01
00
FC
FF
09
02
FE
FD
01
02
01
00
01
01
FD
FF
FF
00
00
00
02
01
08
FA
02
FF
02
FF
FD
07
FD
FC
05
00
FC
00
0B
01
FE
FF
02
02
FF
00
05
FE
FB
03
02
FE
FE
FE
01
FF
09
FA
04
FF
03
FF
FD
01
FD
FE
04
FF
00
FF
04
00
FF
FF
02
03
01
FF
05
00
FC
02
03
FF
00
01
01
FF
FE
00
FF
03
03
05
FD
04
FF
FA
04
00
FD
00
0D
01
00
FC
01
02
01
00
01
01
00
00
FF
01
00
03
02
03
0F
F3
00
02
00
01
FE
07
FF
FD
06
00
FC
03
08
00
00
01
02
01
FF
FF
04
FD
FF
01
01
00
FE
00
02
03
0F
F4
01
01
02
00
FD
00
FE
FF
07
FF
02
03
FA
FF
00
FF
02
02
00
FF
03
FE
01
00
03
FE
01
01
01
FE
FA
03
FC
03
01
04
FC
05
FE
FB
02
FD
FE
FF
0D
01
01
FD
00
02
01
00
02
00
05
00
FE
00
01
04
02
03
09
F9
FE
03
FE
01
FC
07
FE
FE
04
FE
00
01
02
00
01
00
01
01
FF
00
06
FD
09
FF
00
FF
FF
FF
02
02
09
F9
FF
01
01
01
FB
01
FD
FF
04
FD
01
01
F5
00
00
00
01
02
01
FF
05
FE
07
FE
01
04
05
00
02
00
FC
00
02
03
00
FD
00
06
FC
00
FF
03
09
00
02
FF
00
FF
03
FE
04
04
03
FD
FD
ED
01
02
01
01
01
FA
FE
FD
0D
07
0B
0B
00
09
F6
FD
02
08
EF
FA
FD
FF
03
FD
FF
FB
07
FF
08
01
FF
B9
01
06
FF
04
01
04
FF
00
F9
07
FE
FE
01
0C
04
FD
FB
02
01
FD
FB
01
FF
04
01
FC
01
FC
00
FE
FB
01
02
06
00
FE
FE
FD
02
FF
06
05
FD
05
FF
FF
07
FF
00
00
F5
02
FF
00
01
03
01
02
00
F5
F7
00
01
FA
02
0A
00
02
00
01
03
F6
0C
09
F5
03
FD
04
0F
FE
FA
FD
18
0A
00
02
FF
11
01
FF
FC
F7
E8
F7
FD
0D
03
07
FE
00
00
FD
02
FF
F8
03
FD
FD
00
00
FF
FF
FE
FE
02
03
FF
00
F8
00
02
01
FE
FA
F5
FC
00
FE
02
01
00
00
FD
FF
FE
08
F7
01
01
03
04
F5
F8
07
05
FA
04
FB
05
FE
FF
FB
FE
04
FE
05
08
07
01
05
FF
00
02
01
FC
FF
FE
05
E3
F9
01
FD
03
FC
F6
06
08
F8
F9
FD
01
FE
03
FC
FB
04
FD
05
0B
08
FD
0A
FE
FF
FF
FE
FC
FE
FF
09
E3
FC
01
02
06
FA
FA
03
04
FA
FB
FC
05
FC
FC
FD
FD
03
01
FE
0A
0B
02
0A
FE
FC
FE
FC
01
F9
D9
0A
FA
0D
02
FD
01
F9
05
02
F8
01
04
F9
1A
00
F8
FC
FE
FD
01
03
F0
02
F8
02
FF
FC
FD
01
02
FB
F8
02
02
0B
00
FE
07
FF
06
EF
F7
03
FA
FE
10
07
FF
03
FE
FD
03
FE
F6
FF
FF
06
00
01
01
07
01
FB
12
F8
02
0B
FE
FC
12
07
08
F1
F8
05
F9
01
14
0A
00
03
FB
FC
07
FD
FD
F8
08
00
FD
FC
FF
FC
01
FE
E0
01
FF
0E
00
F7
01
F8
04
03
F5
FF
06
F7
18
FF
00
FB
FD
FD
FF
03
F6
01
F8
FA
00
FE
02
FF
00
FE
F7
08
02
0A
01
FD
03
01
04
F7
F3
03
FF
00
FB
06
02
FF
FB
FD
03
FD
00
FF
03
FF
FF
02
05
05
00
F9
0E
07
04
09
05
FD
0D
09
08
F7
F6
04
F8
03
0D
0A
02
02
F9
FB
0A
FB
03
F9
08
FE
FD
FE
FF
FC
01
FE
EC
FF
FA
0C
FC
F9
04
F6
02
FD
F0
FE
07
F7
13
FE
03
FA
FD
FE
FD
02
F9
00
FE
F8
00
FF
02
00
00
FA
00
08
01
0A
02
FE
07
FF
03
F6
ED
02
01
00
FE
04
04
FE
FB
FD
02
FB
04
FF
FA
FD
FF
04
03
07
FE
F6
17
04
FF
07
0B
FF
16
0A
07
F8
F2
03
FB
05
24
08
04
01
F8
FC
0D
FB
0A
F9
EB
02
FE
FC
00
05
FF
FD
01
FE
02
FD
FC
FE
FB
FB
FF
09
EF
07
02
00
FA
FB
00
03
FE
07
FC
FE
09
00
00
03
FF
FA
FC
03
FE
00
02
01
00
FD
FC
FF
02
FA
FF
04
F8
02
02
03
0E
FE
01
02
00
04
02
FF
07
02
02
FD
00
FC
FF
F9
FB
05
FF
03
FF
FA
FE
FB
01
F6
07
0D
14
FC
02
FF
E6
06
05
FC
00
FC
06
05
F2
02
0D
02
02
FC
FD
07
FE
FE
01
FD
FF
FC
FB
FE
FD
F4
FD
09
E9
06
02
03
F1
F9
FD
05
FD
09
FC
FE
0F
FF
F9
FD
FF
FB
FC
02
FD
00
00
00
01
FB
FE
00
03
F4
FD
08
F9
01
00
04
05
FD
FF
03
FF
06
02
01
08
03
01
01
FF
FE
00
F4
FA
05
FC
02
FF
F8
02
FA
01
EC
08
14
1E
FA
02
FF
D2
07
01
FA
FF
FE
05
08
EC
06
09
01
03
FD
FF
08
FE
01
02
FC
FE
FC
FD
FE
FE
F4
FE
0A
EA
04
02
02
EE
F8
02
03
FD
06
FC
FF
0C
FF
01
01
FE
FB
FE
01
FD
01
00
01
FE
F8
FD
FF
02
F5
FF
0A
F9
FF
FF
03
04
FC
01
01
FF
04
01
01
05
03
04
01
FF
FF
03
F3
F9
04
FE
01
03
F8
00
FC
02
EA
07
13
1B
FA
FF
FE
DB
05
02
F8
00
FE
06
07
EB
05
F4
FF
03
00
FB
F8
03
F2
05
FE
FD
01
00
07
01
01
FC
FF
01
FE
FF
F8
00
01
FC
F9
00
00
FD
F9
02
FB
00
04
00
FA
FA
F6
04
EC
06
02
09
F6
05
FA
01
0D
F8
02
07
FE
FE
F0
02
04
F7
F7
FF
FE
FD
F7
05
FD
02
01
01
FD
EE
F7
03
EC
05
06
05
F6
FB
03
03
09
FB
F4
06
F9
08
EE
05
03
F4
F9
FE
FC
FA
F5
04
FB
FD
02
02
FF
00
FC
0B
FB
03
F8
FA
05
FD
FB
FB
F8
04
01
FA
11
01
00
FD
01
00
FF
09
02
09
FD
FB
FF
F9
FB
01
06
00
FE
0D
F9
05
FA
0D
FF
02
FE
F8
00
0A
F9
FE
0F
F5
04
F9
07
01
05
05
00
06
F9
FD
00
F9
E9
05
06
F9
FD
09
FA
01
03
FD
F2
F9
01
FE
03
02
FA
00
FD
FD
FF
FB
04
FD
FD
FB
FF
FB
F7
00
FF
FB
FE
02
06
08
07
0D
0C
01
FB
FD
0C
0B
F4
F6
FC
0B
05
F4
17
F9
09
FE
00
03
02
07
02
12
FE
FC
01
00
F1
01
1C
12
0D
12
1A
03
F7
06
11
03
03
EF
04
1D
FD
F1
15
0B
1D
FD
09
02
0E
0B
FF
0D
FB
F2
FE
01
FF
07
11
0F
05
0F
0E
01
02
08
F5
08
01
F9
03
04
FB
FB
07
02
10
00
07
FC
01
01
FE
08
F7
FD
FE
02
F7
05
08
02
FE
02
00
FB
F5
FD
FE
FF
01
02
F9
FF
07
F1
02
00
0D
F6
FB
04
07
03
07
01
06
FB
FB
EE
E5
01
FC
06
F9
FF
FB
02
02
08
EE
05
FA
FF
0F
FB
13
05
00
F4
FC
FD
02
08
FB
FD
07
02
05
00
FE
00
09
02
02
FD
FD
02
FA
00
FE
FD
0A
FC
06
FD
F7
FF
F1
02
02
FC
03
FC
02
00
00
03
02
02
00
04
FB
F9
FB
02
02
00
FD
02
FE
F7
F5
FA
02
FE
01
01
F0
FF
00
F2
00
F1
0D
F4
FB
FE
07
03
06
02
08
F7
FD
EF
F1
01
F1
04
FA
FF
FB
04
03
04
F1
01
FD
FF
0B
FC
0B
07
02
F3
F7
02
02
07
F9
FF
08
02
06
05
03
04
0D
01
01
FA
03
03
03
02
FD
FC
0B
F8
FC
FC
F2
00
E4
FF
00
08
04
02
02
FA
FC
03
01
FF
01
01
FA
F8
02
02
00
03
00
02
00
F8
F6
FF
03
01
02
01
F2
FE
04
F5
04
E6
0C
F2
FC
04
03
03
04
05
06
F8
FD
EF
F9
01
F0
00
FD
FF
FB
06
02
0D
EF
06
FB
00
0A
FD
07
0B
07
EC
F5
01
03
0A
FC
FD
06
05
04
06
FF
06
F5
02
02
FB
02
02
05
02
FE
FA
05
F5
FA
FB
F3
01
E3
05
00
0C
04
01
05
FA
01
02
00
00
FF
01
F9
FC
0E
03
05
FC
F1
F9
01
10
F3
F7
06
FF
04
05
04
01
09
3B
F7
01
FB
FE
0F
F4
F7
03
FF
03
08
DD
03
FF
02
01
02
FE
EE
F8
FE
15
E9
07
FC
0D
FF
04
09
00
07
54
F5
03
EE
0B
14
F2
F6
03
FF
00
07
C7
03
FA
0F
04
06
FB
F2
F9
01
14
EC
FF
02
03
08
03
02
02
FC
49
F6
02
F2
17
12
F4
F8
06
00
00
02
C9
07
F7
13
05
01
FA
F8
FD
FE
04
F7
00
06
01
04
01
FC
04
FF
00
00
FB
00
F5
05
E5
FE
FD
03
00
02
FE
04
0B
00
FB
02
FF
F8
FE
FD
FE
F9
08
01
FF
02
FD
03
02
F9
01
00
FF
FF
FE
05
E4
01
FB
02
FE
04
FA
01
09
04
FC
06
FC
FD
FE
FF
FF
F9
05
05
FC
01
FF
FE
02
FA
FC
01
FF
00
00
01
E6
00
FD
04
00
03
00
03
04
07
FD
FF
05
0A
01
F8
FB
13
F7
08
FE
07
FD
07
FC
03
C4
05
03
05
F5
FD
F5
01
F6
03
FC
FA
2B
FF
01
F7
F6
05
0B
0D
01
F4
EB
24
FB
0A
F3
06
F4
09
FA
F7
AE
0A
00
0A
FB
F9
F9
09
F4
00
FD
FD
36
F7
FC
F8
F7
07
03
10
FF
F9
ED
1F
FC
07
F5
01
F6
09
00
FD
AE
08
FE
0C
F1
F4
F8
09
F4
02
FD
FF
35
F8
F9
F7
F9
FD
05
F3
00
F7
F9
03
F1
F4
00
F8
00
0A
02
F9
14
01
FC
FA
1F
09
08
FA
04
03
FD
FD
E7
F2
DC
00
03
FD
08
F3
00
F6
F4
0E
F4
F9
FB
FB
F7
04
03
FC
FF
02
00
FB
04
02
10
FD
04
FF
FD
F9
F5
F4
E7
06
03
FC
02
FE
01
F9
01
0D
E9
F7
FE
FE
F9
0A
03
FF
FF
00
F9
FF
17
05
07
04
04
02
FD
FE
06
F9
F4
05
03
00
04
FC
00
FD
00
00
E7
FC
FC
FB
00
0F
FD
FE
07
03
FB
FD
13
FF
FB
FF
02
FE
FA
05
F9
FD
F8
F9
02
FF
05
FE
00
01
FB
07
EC
00
FA
FB
F6
05
01
FE
F9
02
FE
FF
ED
F8
FF
01
02
F9
F7
02
FA
FE
02
F7
02
04
01
05
01
03
09
05
E6
FB
FF
FC
F9
06
00
FC
FC
FF
01
08
0B
FC
F7
08
05
FE
FB
03
0A
0B
02
00
03
FF
05
04
FE
02
0A
FA
EC
FC
00
FC
03
10
F5
07
0C
FF
F6
FE
0F
FB
FF
FD
00
06
F6
14
06
09
F9
F8
01
FD
04
02
FE
07
08
FD
ED
FE
FC
FA
F9
00
FA
00
01
FD
00
03
F7
F3
06
00
01
02
F2
13
FB
0C
F7
FA
01
02
FE
08
FF
05
17
FB
F3
FD
07
FC
00
FD
F6
FA
05
FD
F9
07
1E
F8
03
05
05
08
F9
09
17
1D
F1
F9
02
00
FD
01
00
00
02
FE
F0
04
FD
01
FD
FC
06
FD
01
FF
F8
02
FC
07
02
00
FD
03
FF
FB
F8
FE
F9
05
00
07
02
01
00
09
00
FE
E4
05
F6
00
FC
FC
0A
01
FC
FD
09
0A
FE
06
09
01
01
06
FE
FB
F4
00
F9
2A
FF
05
06
00
01
02
01
FE
F8
FC
FD
FC
FF
02
04
00
00
FE
FA
08
FC
03
08
01
00
04
FF
FF
FB
FF
FF
F4
FE
00
00
00
01
03
FF
03
00
FB
01
00
00
03
F8
07
03
00
0C
FD
07
02
FE
F8
FC
FE
00
08
09
01
01
F6
FE
FE
02
FE
FF
FD
FE
07
F8
FE
0A
06
01
FF
F0
0B
06
03
E7
F9
02
FE
01
F0
FE
01
05
05
16
07
08
DD
FC
FE
00
01
00
01
01
02
04
FB
02
00
02
03
FB
02
02
00
FC
FB
00
FF
FE
FC
FC
FE
02
01
0C
04
04
EF
FD
02
00
00
FF
00
02
00
00
FD
FE
07
FE
04
03
03
03
FF
01
03
00
02
03
04
00
00
FF
FB
00
02
02
04
02
03
FD
00
00
FE
01
FF
0E
04
FE
04
FF
00
04
03
FF
FE
09
04
00
FF
02
07
02
00
FF
FB
FB
FC
05
F8
02
02
FC
03
FF
FF
02
FC
08
FD
FC
FE
FF
02
01
FD
02
FD
03
02
01
00
08
02
00
00
FC
FE
FF
FE
FF
FE
02
00
01
00
FF
FF
FF
01
FC
FC
01
FF
04
F9
FE
0B
03
FE
02
FF
03
FF
FC
FE
00
03
FE
04
04
03
03
00
00
FB
00
FE
FE
FB
FF
04
09
F7
03
FD
04
F8
FA
0B
05
FF
FA
FB
02
FF
FC
FC
FE
04
FF
04
09
06
06
F5
FF
FB
FC
FF
FE
FC
FE
03
05
FD
02
04
03
F3
FC
04
04
FF
FF
FB
03
FF
FC
FE
FF
04
00
03
06
06
04
FD
FF
FF
02
01
FF
00
01
00
01
FF
01
01
01
FC
01
09
02
00
FC
00
04
00
00
FF
01
01
01
01
01
02
02
02
00
FE
00
01
00
FF
02
01
12
FD
01
FF
01
FB
02
07
01
01
03
00
05
01
02
02
01
02
00
02
02
03
01
FF
01
FF
FE
01
FF
FF
01
01
0E
FE
01
01
00
F9
00
04
01
01
03
00
07
00
01
01
01
02
00
02
02
03
00
FF
01
00
01
01
01
01
00
FE
FC
05
FF
01
FF
FD
03
FE
FD
03
FF
01
02
01
F7
01
03
FE
03
FD
FC
FE
00
00
01
03
01
02
01
02
02
FD
0A
04
FE
FF
FE
FF
05
FD
FB
05
01
04
01
02
F7
04
04
FE
03
FD
FC
FE
FE
FC
02
05
01
02
01
01
01
FD
09
00
FE
FC
FE
02
04
01
FA
03
02
04
01
01
F8
04
02
FE
01
FD
FC
FE
FB
FA
02
01
00
06
FE
00
0A
F8
06
FF
01
FD
05
FD
FA
05
E9
05
05
04
FD
F2
03
05
FC
0B
F9
FB
22
02
FB
FF
FF
FF
FB
FF
FF
03
FC
FE
FE
05
01
02
01
F5
03
F6
02
00
04
01
FB
FE
FE
02
00
00
02
00
F2
03
FB
FC
FF
01
09
F8
00
02
F7
0A
02
01
03
00
FD
07
08
00
18
FE
F9
FC
11
0E
06
02
02
F9
07
06
DC
06
0D
FC
01
FC
FB
08
FD
FD
0C
F8
02
FD
FA
00
08
F2
F5
FB
DC
07
0A
02
F0
EE
08
02
FB
0B
F8
F7
36
00
F9
08
FF
FA
F7
FD
FF
02
FA
00
FB
04
FC
01
01
EB
03
EE
FF
02
03
00
E9
FC
03
01
FF
FF
00
FD
F6
00
F7
FC
FF
03
0A
F5
FF
04
F3
10
FC
04
06
FC
FA
02
0B
FD
1F
FE
F9
FC
04
0E
06
FD
03
F7
05
08
D5
04
09
FC
02
FA
F6
09
FD
FB
0C
F5
0E
FD
FD
FC
0A
F8
F6
FB
DA
07
09
00
F3
EC
FD
06
FB
09
F6
F8
33
FF
15
08
FF
F7
F1
FE
FE
00
FB
FD
02
FE
FE
FE
04
ED
00
F2
FA
02
04
00
E9
F9
01
02
FF
00
FC
FE
FA
FF
FD
03
00
03
06
F6
FE
02
F5
0B
04
03
05
01
FE
FF
04
FF
18
FF
F9
FD
0E
08
06
FD
03
FB
03
07
DA
05
F6
02
02
FA
FD
FF
FE
FD
00
07
00
06
02
06
03
EE
FC
F7
09
FE
03
F9
09
01
04
FD
02
06
00
04
05
08
06
FB
FF
02
FF
FF
01
00
03
00
02
01
FF
00
FF
FB
03
FA
FF
00
00
01
03
00
FF
03
01
FF
01
00
00
01
00
01
01
02
01
01
03
FF
03
FD
00
00
00
FC
FE
02
04
FB
F9
02
FC
03
FB
00
FE
04
01
FD
02
FE
FF
FC
FB
05
02
F4
FA
FF
FD
F9
FD
07
FE
0A
03
0A
03
E1
FB
E9
09
FE
03
F4
08
01
03
FC
02
07
01
03
06
0C
08
01
FE
01
FE
00
01
04
01
FE
00
03
FD
02
FF
F6
04
EF
FE
00
04
01
01
01
FE
04
01
FF
01
FE
FD
00
01
02
01
02
04
02
03
04
02
FC
02
01
FE
FA
FE
01
02
F3
F8
03
FC
05
F9
00
FE
03
01
FC
02
FB
FE
FA
FD
FE
01
F3
F7
FF
FD
F9
FD
06
01
0B
05
09
03
E0
FC
EB
09
FE
04
F4
09
01
FA
FC
02
07
01
03
05
0B
04
0B
FE
02
FD
00
00
03
01
FF
FF
03
FE
01
FF
F7
04
F2
FF
00
07
01
03
01
00
03
01
01
01
FF
FD
00
00
FE
00
02
03
02
02
03
03
FD
01
00
FF
FC
FF
00
00
F4
FA
03
FA
05
FA
00
03
01
00
FE
02
FC
FF
FB
FE
F8
00
03
04
00
00
01
01
FC
01
02
01
05
01
FE
05
00
01
03
FF
02
FD
01
02
05
02
00
02
FE
F9
01
FF
00
00
00
01
03
00
04
FC
FD
FD
03
FB
07
03
FD
08
04
FF
FA
00
00
FB
01
FF
06
FF
06
FB
04
F8
FC
FB
FD
00
03
05
00
FF
07
FC
FB
FC
05
FF
01
05
F9
FC
05
00
FF
03
08
FB
01
00
FF
01
09
03
FB
03
02
FE
0D
FE
FD
00
00
00
FF
00
04
FE
FF
FD
01
FE
02
FF
00
01
03
00
FD
01
01
02
FE
02
FE
01
00
01
FE
FF
FC
FF
FE
02
FD
02
FF
00
07
FF
F9
FF
02
FF
FD
F8
08
04
04
1B
F8
0B
FE
FD
FA
02
FF
05
11
08
02
03
FF
FF
FA
01
F8
02
EE
02
05
16
00
0F
0E
02
FB
E7
09
09
0D
E7
F7
04
FE
FD
F6
00
FE
0C
06
14
08
08
B1
FE
FF
FF
02
FE
FD
FF
03
FD
01
04
FE
FF
06
FC
FF
01
FD
01
FF
00
04
FB
FB
FF
FD
FE
FD
07
FC
FD
06
01
02
FF
00
FD
FB
03
01
06
00
05
FD
FC
01
00
F2
01
02
EA
01
FB
01
F9
FE
01
FE
04
F2
FD
02
03
0A
01
02
FE
02
02
FF
03
FC
10
0A
F7
FB
F9
07
12
F8
F9
FB
12
05
FF
03
02
0D
04
FA
FA
FA
EA
F0
FA
10
04
F5
F6
FD
06
F6
07
FC
14
FE
FE
FB
01
08
F9
FF
02
01
06
EF
FD
FB
00
FB
00
FB
FF
FB
FD
F4
FD
F7
FD
F8
FB
FE
0E
F9
FC
F5
FE
07
02
EF
F2
F2
02
0B
F8
1A
02
F7
F8
FB
03
06
09
01
11
06
FE
F8
FA
F9
FF
09
08
03
19
03
FA
F7
F7
05
06
F6
E9
F4
10
08
F4
1A
F0
0E
00
05
09
16
0A
03
15
07
FF
07
04
0D
09
EF
F5
01
05
F7
0C
01
03
12
06
FA
03
06
FB
F0
0A
02
08
E8
03
02
08
F9
FE
FC
FF
F9
FF
F0
07
FC
FB
F5
FA
0B
0B
0A
01
FA
F3
1F
06
F6
F4
F4
0A
EF
FC
16
E9
F3
F8
02
00
00
04
00
0C
FE
FE
F6
FE
F0
FC
16
12
14
15
33
00
F8
F9
1A
FE
F6
E9
05
29
F4
F1
16
FA
1B
FF
0E
00
18
0C
01
11
01
F4
01
01
13
08
E9
EF
02
01
F8
0B
01
04
07
F8
F8
0A
0D
F3
EF
0A
EC
0F
E3
03
FD
E6
EB
F4
F5
EF
F7
FE
EE
03
06
F4
EF
F8
09
05
05
00
00
F4
09
F8
EF
01
FB
F7
F9
FE
EF
04
ED
05
F8
F6
F0
F1
F9
F2
02
03
F3
FE
01
F4
FF
07
13
09
1F
01
03
E3
0A
FD
03
FB
01
F7
FF
FD
FC
FF
00
0A
FB
F5
F1
F5
FC
04
01
09
04
02
09
F7
FF
05
04
FE
F7
C6
58
01
FB
FF
F6
F2
07
0D
F9
E7
FE
08
FA
FE
10
02
00
F7
F8
08
FF
0F
03
07
07
F9
02
FE
02
FF
04
F5
06
FC
FB
00
FD
02
F8
06
EE
FC
00
FD
FE
02
04
01
00
03
00
FF
03
00
02
FA
01
01
02
F6
01
00
0E
35
AC
02
F3
07
F2
0F
02
F5
09
1F
FC
F2
FF
FF
FD
08
00
0B
09
F1
03
EC
02
04
FB
0A
FF
07
03
FC
EE
AF
76
09
FE
FD
F7
EE
05
0E
F5
D2
FD
0F
00
FC
0C
04
06
F3
F6
09
FF
18
03
09
08
F6
FF
FA
03
FE
02
F7
02
03
04
00
01
05
F5
02
EB
FC
FF
03
00
01
01
05
02
00
00
01
03
FF
01
FA
FF
FE
03
F5
01
FF
15
4B
8C
04
F6
0C
F5
18
07
F1
05
32
FB
F4
00
00
F9
07
01
0C
09
F0
05
E3
03
03
FD
0A
01
05
06
FC
F0
B6
62
09
00
FE
F9
F0
06
0F
F9
D5
FD
15
03
0A
0B
02
04
F1
FA
0C
FE
19
00
FF
01
F4
01
F9
04
FE
FF
F9
F9
FE
02
FE
01
03
F6
01
F0
FC
FF
06
01
03
FD
04
02
FE
02
02
04
05
03
F9
00
FD
02
F3
02
00
13
48
8C
03
F9
04
F7
12
03
F0
01
28
FC
F8
FE
F9
F2
03
02
0C
06
EF
04
ED
04
06
FD
09
02
04
FB
04
07
00
F8
FE
07
FF
FB
00
00
06
01
FA
06
FC
02
02
06
00
00
03
03
0B
00
FE
01
FF
00
01
04
06
FB
04
08
00
F7
F6
08
FD
01
FF
FC
0A
FD
FE
03
FD
03
FA
09
03
00
04
03
0A
00
F7
02
03
05
02
07
0B
FC
04
09
01
F8
F8
07
FF
02
01
01
0A
FF
FD
04
FF
02
FD
09
00
00
03
03
09
FF
F7
01
02
06
02
02
06
FD
03
09
FF
FF
FF
08
00
FD
00
04
02
01
00
06
03
01
FE
05
01
00
01
00
06
FE
FB
00
09
01
FF
02
0A
FB
03
09
FE
00
F7
06
02
00
00
00
01
01
05
02
02
00
F6
07
02
FD
00
00
06
FE
F6
00
07
05
FF
03
0D
FC
03
07
FF
00
F6
06
05
03
02
02
01
FE
05
04
FC
FE
FE
07
01
FD
00
FF
07
FD
F6
00
08
01
FE
FF
02
FF
02
06
00
02
FD
05
FF
00
02
01
FD
00
FA
04
02
FF
00
FF
00
FE
FE
FF
FF
FE
02
FF
05
04
FE
FF
06
FD
01
03
FF
03
F9
02
FF
02
03
FF
FA
04
FB
00
01
FF
F9
FF
00
FE
FD
FF
FD
FE
01
FF
FD
01
FE
00
05
FF
01
03
00
03
F5
01
01
03
04
FF
F8
01
FC
00
04
FD
FF
FE
00
FC
FD
FE
FF
FE
00
FE
FD
04
FD
FF
FF
FF
00
00
FE
04
02
03
FD
00
FE
00
FD
FF
F9
01
FF
00
FE
FC
02
00
FF
01
FF
01
FE
01
00
FF
FF
01
FF
FD
00
00
FF
00
01
01
FE
FE
FC
02
FE
01
00
00
01
00
FE
FD
00
00
FF
00
FE
00
F5
00
00
04
FF
02
00
FD
00
FF
FF
02
03
04
FD
FE
FD
01
FF
00
FE
01
FF
00
03
FF
FF
00
00
00
FE
01
F5
01
FF
02
00
00
FF
FE
00
00
FF
00
01
03
FC
01
FE
00
FF
00
FE
00
01
00
00
FD
02
00
00
00
FF
03
F8
01
FF
00
FF
02
00
FD
00
01
01
FB
01
03
00
00
FD
00
FF
01
06
00
FF
00
FD
FE
00
FF
00
FF
00
02
EF
01
FF
FF
00
03
01
FD
01
02
00
FE
02
06
FF
FF
FD
FF
01
FE
04
01
FE
00
03
00
FF
00
01
00
00
01
EF
02
FF
FF
00
02
FF
FE
00
FF
FE
03
00
03
FC
00
FE
00
00
FF
FD
00
00
00
01
FD
04
00
00
02
FF
03
F9
02
FE
FE
00
02
01
FD
00
01
FF
FF
00
03
FD
00
FD
FF
01
00
04
FF
00
00
FB
FE
03
00
00
01
FE
01
F0
01
FD
FE
00
04
03
FD
01
01
FE
02
FF
06
FC
00
FD
00
02
FF
02
00
01
00
FF
FF
04
00
01
01
FE
01
F1
02
FD
00
00
FD
00
F1
01
04
F0
0E
04
03
00
FB
01
01
0B
FD
2A
F7
01
FD
03
12
06
FE
03
FA
0A
06
D5
05
0C
01
03
F9
FD
FE
03
02
FD
FC
00
FF
FC
F9
06
F8
05
FB
FD
FF
02
FF
F7
02
04
04
FF
04
00
07
03
01
FD
FE
01
FC
FA
06
04
FB
10
EE
06
FD
00
01
09
FD
F9
05
D1
0C
FC
0B
02
EE
06
0B
FC
11
FD
01
2C
03
FB
FD
FF
FD
04
F0
02
02
F1
10
FF
03
05
F8
FC
0F
0C
FA
34
F6
08
F9
10
16
04
FC
02
F9
0A
01
C4
05
0B
05
03
F7
FE
00
03
03
FF
FF
FC
FD
F9
F5
02
02
05
F2
FA
FD
04
FA
07
03
02
01
FE
01
FD
03
FF
FD
FD
FF
00
F9
FA
0D
05
FC
11
F4
FF
FD
F9
00
07
07
F3
01
C4
0D
F7
07
11
ED
05
0B
FB
0E
FE
FB
36
FD
FB
FF
FC
FD
05
ED
01
02
F2
13
07
03
04
F9
FC
08
0A
FE
31
FA
08
FB
0B
12
04
F8
03
FC
09
01
C7
06
EF
04
03
F8
FE
FC
03
03
FF
03
01
FE
FA
F9
01
00
01
F4
FA
02
04
FC
01
01
00
00
FF
04
00
02
FD
00
F0
00
01
FA
F9
0C
05
FD
0E
FA
03
FF
FD
FC
03
08
F3
04
C7
0E
FB
0A
06
ED
08
0C
FC
0C
FE
FF
2D
FD
05
05
FC
01
0E
F7
FB
F4
C8
4D
FC
08
00
FF
F7
06
0B
0A
01
FA
09
F7
04
12
F9
F6
F8
FC
06
FE
02
05
04
05
FB
04
15
F5
F9
F0
B0
7B
09
06
FC
FC
EA
0C
0B
06
EA
FC
07
F8
05
10
FB
F4
F1
F9
0B
FC
03
08
FB
09
F8
06
0F
FA
F9
F7
B4
6D
FA
0F
FF
00
EA
09
0F
FA
F1
F8
FD
F8
14
0F
FA
F8
F3
F9
12
FD
02
03
F9
0D
F7
FF
05
FF
FE
F9
F5
FB
08
01
00
05
05
FA
00
FF
00
FF
FD
FA
F7
00
EB
FB
04
00
FD
00
FE
04
05
00
00
06
02
FF
FC
F7
FA
02
0C
FF
FE
02
04
FD
04
FA
FF
00
00
00
F7
03
EF
FE
02
01
00
02
02
04
FD
FF
03
05
01
FD
FE
F8
F6
02
00
02
FD
02
FE
FE
FF
FD
FD
FA
03
02
F8
01
EF
F9
00
00
05
02
FE
02
F6
03
02
03
F7
10
FF
07
30
A5
F5
FF
F9
09
0B
04
EF
FF
08
02
FC
02
07
EF
01
05
0E
05
EA
FF
08
00
08
F7
06
06
F0
13
FE
0B
57
81
FF
00
03
0A
18
04
EF
02
1E
06
FC
05
09
F1
09
08
12
0A
EC
00
01
FE
02
FA
0B
09
F2
08
00
06
4D
88
F9
FB
FF
07
0B
FE
F3
FF
17
02
00
05
F4
F0
01
02
0E
05
EC
FD
FE
FF
FE
F8
0C
02
03
FD
FD
03
FB
0C
FD
F9
00
FD
00
F8
00
07
14
F9
06
FF
FA
04
05
FD
FF
00
01
06
F9
07
0A
04
00
01
03
FF
FF
00
00
FF
FD
FB
00
00
00
F3
FF
FA
00
01
03
FF
03
FC
07
FF
FF
01
02
FF
02
02
06
FC
00
01
00
03
03
00
08
F0
02
F9
FE
F9
00
FD
00
F8
EC
06
FF
05
01
F6
FB
03
02
FF
FB
FB
08
FB
F2
FF
01
FF
03
FB
FD
FC
F7
11
01
F9
04
00
FD
F3
FF
03
17
FA
01
FC
FE
04
0A
FE
FF
00
02
07
F7
0B
07
04
FF
FD
FF
00
00
FE
FF
02
00
FD
00
FF
00
EC
FE
EB
01
02
FE
FC
0D
FD
02
00
00
FF
04
FD
02
02
05
00
FF
FD
FD
09
04
04
0C
EF
FC
01
F8
FC
02
F8
00
E1
E5
09
F7
03
0E
F7
F5
08
04
FC
FE
F6
0A
F9
F7
00
01
00
01
F9
FD
FC
F8
0E
08
FA
04
00
FE
F1
01
07
16
FC
02
FC
FA
06
FF
FE
00
02
04
06
F8
0B
F7
00
00
FE
FF
00
00
FE
FE
03
05
FD
01
FF
FF
EB
FF
EF
03
02
FF
FC
05
00
FF
02
FF
00
05
FD
FE
03
00
07
FF
FD
FE
0B
04
06
08
F5
F9
03
FA
FC
00
FA
FF
E7
ED
06
F5
04
01
FB
01
06
02
FE
FE
F7
06
FA
0C
FE
FE
02
04
05
FE
FB
FC
02
04
FC
03
02
0B
03
FF
03
F7
FE
04
FD
01
FF
00
00
FA
FD
00
FB
00
01
F9
00
FE
05
09
04
FE
FD
F9
08
00
00
00
02
09
FE
03
0A
FA
FE
0D
06
F2
FE
04
03
FC
FC
00
FA
00
02
FB
07
FD
01
04
07
FF
FF
FD
FD
FF
02
05
FF
09
01
01
09
FF
FE
FF
01
FD
02
02
01
FE
FC
00
01
F8
FD
05
06
FE
03
08
07
FE
FE
F5
0B
08
FF
02
FE
08
01
02
03
F2
FE
02
01
04
00
06
04
FB
00
00
00
0B
01
01
09
FE
01
08
05
FF
FB
F4
0E
07
01
01
01
06
FB
03
08
F8
00
00
07
EC
00
01
03
FD
FE
01
FD
09
04
01
04
FD
01
04
07
FF
00
F9
FE
03
01
07
FE
06
FE
06
00
FF
FF
02
04
F9
05
01
08
FF
FD
00
04
F9
FF
06
0A
FF
04
04
06
FE
FC
F6
03
06
01
03
01
07
02
02
05
F4
FF
00
02
07
00
07
03
FC
03
00
00
06
02
03
02
FF
03
05
05
FE
F9
F4
04
02
01
01
02
06
FE
05
08
F6
01
03
07
F2
00
03
08
FD
02
01
FE
02
04
FD
01
FF
01
02
06
FF
FE
F8
F6
FD
00
05
FE
05
FD
04
03
FF
FF
02
04
FF
04
03
09
00
03
FE
05
F4
01
FC
01
00
FE
01
00
00
02
04
F5
02
FD
FC
FF
F6
02
01
01
FE
01
FE
FD
FE
01
01
FB
01
FD
00
02
FE
FE
FD
FE
01
FD
FF
01
00
04
12
EA
FC
00
01
01
F6
00
00
00
05
00
02
FE
FF
01
00
00
03
FF
FF
02
FA
01
04
01
02
00
00
FF
01
04
0B
EF
FE
FF
FE
02
F1
FE
01
FE
FD
01
01
00
FC
00
FF
FF
03
FF
01
FF
FC
03
01
FC
01
FF
00
05
00
07
0C
F1
FF
FF
FF
00
F7
00
00
00
01
01
FF
FE
FD
FF
02
FE
02
FD
FF
03
FF
FE
FF
02
01
FF
FE
06
00
08
1B
E6
FE
00
06
03
F6
02
FC
03
09
00
01
01
01
FF
FF
02
04
FF
FE
03
F9
01
00
02
03
01
FF
04
00
09
16
E9
01
00
02
01
F2
00
FF
FE
02
FF
02
03
00
FE
FF
03
05
FF
FF
FF
FA
04
FF
03
03
FF
00
03
00
03
01
FA
05
01
FF
00
F2
FF
02
00
FC
01
FD
FD
FE
FC
01
01
03
FB
01
06
FB
FE
07
01
02
00
FF
04
01
03
0F
F0
03
01
02
01
F1
03
FF
04
01
FE
01
00
02
FC
FD
04
04
FC
FF
06
F6
02
03
03
04
01
FF
02
00
03
0A
F3
03
00
00
02
EE
01
FF
01
FB
FD
02
01
F9
FB
FE
01
03
FC
FF
02
F8
04
06
02
03
EF
F6
EC
0B
F0
F1
FE
FF
E7
FD
EE
F8
D4
FE
09
FD
09
08
FA
FE
F7
FE
FA
03
05
07
04
F3
FA
01
07
FF
03
02
FD
14
F9
FB
F2
FD
F5
0A
F9
F1
EF
05
02
FC
04
ED
09
FC
01
03
09
02
00
04
FA
F3
FE
FE
05
07
F9
FA
F6
0B
F9
FA
FF
02
D9
FF
FB
FC
F7
F8
F7
01
F3
FF
02
00
FD
FB
FC
F4
FF
FA
F6
FB
FC
FF
0C
05
F3
03
05
0C
0C
FF
FA
FF
03
06
F5
F6
E3
06
FF
F9
13
F8
FC
FF
FA
0C
F8
03
04
0B
FB
03
F9
05
FB
FD
1F
18
19
16
31
04
E8
03
0C
FC
F8
EC
0D
24
FA
EB
0D
0F
1E
FA
08
0E
1C
08
FC
05
F3
F4
F6
FA
0E
09
0B
15
05
0E
0A
05
F7
05
DC
04
FF
FB
16
01
FE
FD
00
F9
11
F8
01
06
FF
F8
FB
FC
ED
0D
F7
00
F2
06
F1
FE
06
09
03
FF
04
F4
01
02
FE
00
E2
F9
06
FB
FC
07
FB
01
F8
F5
FA
F9
FE
FD
FD
08
F8
02
F8
F9
0D
13
16
0E
21
03
F9
DF
07
06
FA
F7
06
05
02
FB
00
F5
0F
F8
FE
F9
01
FF
FC
FF
F4
01
FB
01
06
FE
02
08
02
0B
06
06
FF
EC
E9
01
03
02
07
02
F7
00
F8
F4
0A
F9
FC
F0
FD
F6
FA
F8
EF
08
FA
06
F6
FF
FD
FD
0E
01
FC
0D
09
FA
02
FC
01
04
02
F7
0A
D1
05
06
06
15
EC
F9
05
FC
09
F8
F9
35
FE
03
04
FB
F9
FB
0D
01
F9
09
06
02
FC
F9
FC
01
04
F4
05
C5
08
0B
05
12
EE
F6
05
FA
09
F9
F8
3E
FA
0C
0C
F9
FA
F9
0D
01
FB
09
0B
FB
FE
FC
04
03
FD
FA
05
C9
0A
07
05
F7
F0
F4
08
FC
0B
F9
F8
3F
FA
FF
0F
F9
01
FC
01
01
FE
02
00
00
04
F9
01
06
FA
00
06
F6
FE
FD
05
F6
F8
E9
01
00
FF
02
FD
06
02
F6
03
01
03
F9
00
02
FA
02
F5
07
03
F7
02
01
F9
05
FB
F9
00
00
02
FE
01
E6
04
FF
FD
02
00
F3
FC
0C
04
00
03
FA
03
03
F8
02
FC
FD
01
FA
05
05
FB
00
FE
F7
01
FE
01
02
03
E7
03
03
FF
FF
00
FF
FE
FC
02
FF
04
02
F1
FE
03
F5
09
F6
08
05
04
03
F7
02
07
28
F5
FD
FD
E7
08
01
FB
01
F8
08
03
D6
06
F2
FE
04
0D
07
EE
00
08
F6
F9
01
09
0D
04
FB
FF
0F
02
3D
F6
FB
FB
EA
15
FE
F9
05
F7
08
03
AA
04
0C
FC
03
0A
0F
F4
03
04
F9
FF
FB
05
0D
02
00
0C
09
02
2F
F4
FE
FA
1B
18
01
FE
0C
F9
06
03
BA
04
05
FA
02
FF
01
FF
01
FF
01
FF
01
FF
00
00
FE
00
FD
02
FE
FF
03
02
00
01
03
FE
FF
FE
FF
FE
03
00
FE
F9
00
FF
FF
FD
01
FB
02
00
FE
04
02
01
FC
FC
FC
FF
FF
01
F6
01
FE
01
01
FC
01
FD
01
FC
FF
01
02
FA
00
04
FF
FE
01
FE
02
FD
FB
02
FB
02
FA
01
06
01
FC
01
FE
01
FD
01
01
01
01
FE
FF
FF
F7
FF
00
13
01
00
03
00
FF
00
03
00
01
FF
03
00
00
06
01
02
04
FE
FD
FF
FF
02
00
01
00
01
FF
FD
03
00
FF
05
01
02
01
01
FF
01
FF
03
F8
02
FD
00
00
04
02
FF
01
F9
FF
02
FE
05
04
02
FE
04
FA
FA
FF
FE
FE
06
01
04
03
02
FE
09
FF
FF
F1
04
FA
FD
FF
04
02
FF
FF
FC
07
05
FF
04
04
FF
00
06
FE
F8
FF
00
FE
2E
00
FE
00
FF
01
00
02
00
FE
FF
FC
FF
FE
FF
00
FD
01
04
05
FD
FE
02
FD
01
04
FE
04
00
FB
00
01
FC
01
FE
00
FD
02
FE
FF
04
0C
FF
02
06
00
FC
FE
01
03
03
0B
FD
07
04
FD
FE
04
00
03
09
02
00
02
E7
02
01
00
FB
FF
F6
01
02
12
FD
0D
06
02
FF
F1
09
07
0B
F6
FC
01
02
FA
F7
01
01
0A
FF
0D
07
07
C8
00
FF
01
02
01
FF
02
01
03
08
01
00
FE
FA
00
FF
FE
02
FF
FF
FF
FF
00
00
01
00
02
FF
FD
05
00
05
FF
07
00
02
01
00
05
01
F8
02
FB
06
FD
06
05
06
FD
02
03
04
00
FF
FD
02
FF
FE
FF
05
F8
00
02
0E
01
03
FD
00
00
FC
01
04
08
FC
02
02
01
FF
FC
04
02
FE
02
02
02
FE
FC
FF
FD
FF
00
01
05
01
01
F3
00
03
FF
02
FE
FD
FE
00
F6
02
02
02
01
03
01
FF
01
FB
F3
00
00
02
02
00
FC
04
FC
FC
FC
01
FE
02
FF
05
04
05
FE
0D
00
FF
E8
04
F6
FF
00
04
05
FF
FE
FC
0D
07
FF
01
02
02
00
05
FD
FD
F9
02
FD
40
FF
02
06
02
00
00
FF
FF
F6
02
02
FE
03
00
00
F9
01
FD
FD
06
FE
FF
02
01
00
01
FD
FF
FD
FF
FE
F3
FF
01
03
FE
02
00
FC
FF
01
FA
FD
03
02
01
FC
06
FF
02
0E
00
0A
03
FF
01
00
FF
01
08
FE
FD
03
FA
00
FD
01
FE
00
F9
FF
02
0A
01
0C
05
03
F9
EF
03
04
0C
E2
FA
FE
FF
FF
F5
02
01
0C
FE
12
0B
07
DE
FD
FE
FD
00
01
00
00
FF
09
01
FD
FC
01
00
03
FF
FC
04
01
FC
FA
FD
00
03
00
FC
00
00
F9
00
FD
E8
FF
04
04
06
05
08
FE
FB
00
09
02
FC
F7
00
06
F3
FE
08
F7
09
F3
00
FD
07
FE
FE
00
01
F2
FD
FB
FA
FF
03
07
08
03
0A
02
F9
EC
09
FA
FD
F9
02
05
FA
F7
02
FA
0E
F6
FD
FF
06
FE
04
FE
07
FB
02
02
FE
FD
06
09
03
05
0B
02
F9
EB
04
00
EE
F7
02
07
FB
FC
06
01
0F
E9
01
F6
05
03
02
04
07
F3
00
02
FB
FE
FE
00
05
02
01
03
01
FC
03
FB
FE
FB
06
FA
F1
FA
07
FF
FE
FA
FB
01
FD
FA
FA
FF
FC
02
F8
F3
02
FC
F8
02
03
00
FD
06
04
F1
FD
FB
FF
00
0A
F1
FF
FA
00
FF
F9
FE
F7
03
F6
F7
FF
FD
04
10
FE
00
FA
FA
F8
00
01
00
02
06
01
F0
07
00
F7
FD
FF
F9
ED
00
05
F2
F7
EC
FD
F2
F6
FE
FC
07
FF
02
FE
FC
03
FB
FC
F7
FE
00
F5
00
02
FD
02
03
FD
FC
06
FF
EF
03
00
FC
FB
F1
FF
04
03
FC
FE
FF
FB
FA
FB
03
04
FE
F8
F7
F9
FF
F2
02
05
00
FC
FD
FD
00
0C
FA
FD
01
F7
03
FC
FC
FD
04
03
FA
01
FB
02
00
FE
0F
06
FE
F6
F8
F9
01
F5
03
03
02
0B
02
FE
FF
FA
FC
EC
06
FF
02
F7
F2
02
02
FE
01
FF
07
00
FB
FD
04
03
FE
FD
F9
01
00
FA
FE
FD
06
FF
01
F9
FB
06
FB
FC
FA
01
04
00
08
F7
FF
00
FE
02
FB
FB
FE
FB
F5
04
00
F7
F4
FE
00
F9
01
FB
0B
00
FD
FF
FF
05
FE
FE
F9
01
02
FE
01
FB
FB
FF
00
02
FE
FE
08
FA
F8
02
00
F9
F7
FB
FF
F8
05
FD
0A
01
07
FF
FE
06
FF
02
08
01
0A
F9
01
02
FB
FC
03
02
05
01
01
FC
FF
FF
00
FC
FB
01
01
FE
FD
FE
0A
03
FA
FC
FE
03
00
FB
F3
00
00
FF
01
FA
01
FD
FD
04
FF
FC
FD
FA
FC
03
FF
FB
FA
FF
00
03
FC
00
08
06
F6
01
00
00
07
FD
F8
FC
0A
FF
EE
01
FE
FD
FE
04
FF
FF
02
F9
08
03
FF
FF
00
FB
FF
02
01
01
0A
08
0A
00
00
04
05
01
0C
00
FE
FC
F2
0B
FC
F8
04
03
0B
02
FE
FE
12
FC
FF
00
FE
FB
02
FF
FA
00
FF
07
F7
FE
FE
04
04
F8
F5
02
07
00
F7
04
FF
01
00
04
09
F9
F1
F8
F9
FD
00
FE
00
F7
02
00
F7
06
05
08
FE
03
00
FC
0A
F7
FD
01
05
FD
E5
0B
FD
FD
02
02
0B
FC
F5
F9
FB
F1
00
01
08
F4
FF
FF
FD
06
0D
0B
10
FD
00
04
05
F8
0E
04
ED
F9
F3
14
FF
FA
05
02
17
FE
EE
FC
F5
ED
00
01
F6
09
FF
06
33
C0
01
01
FD
05
0C
09
F6
08
06
02
0A
03
11
F1
FD
02
06
03
F3
FC
10
FC
04
06
02
02
F0
0C
00
0D
54
9F
00
00
01
06
15
0C
F1
05
15
03
0A
FF
09
F4
F9
04
0C
07
F0
FC
0D
F8
0C
11
06
03
ED
0A
01
0A
4E
A5
F7
00
FF
0C
0E
04
F1
03
10
01
01
01
F5
F4
F8
01
0C
05
F0
FA
07
F8
FF
0E
08
FF
F5
01
FF
05
F9
F2
04
01
03
04
02
FB
FE
FD
03
FF
FD
02
03
FE
EA
00
FB
01
00
00
03
04
F3
FE
FB
03
F7
04
01
08
FF
EF
05
04
02
03
03
00
F9
FC
02
02
FE
01
FC
FE
E3
05
FC
00
01
FF
FE
FF
FA
05
FB
06
F1
05
01
0A
03
E6
FE
01
FF
04
04
FE
FB
FA
03
FD
01
03
FD
FC
E5
03
00
01
FF
01
FC
FE
F3
01
FD
FD
0E
F8
FD
FA
B9
4D
F9
03
03
01
F3
F8
0A
0C
01
F4
FB
F8
F9
0C
09
FA
F1
FB
0D
06
F4
0A
FE
F9
F5
05
17
FA
FF
FC
A5
70
F9
06
FD
FE
EA
FD
0C
05
EE
F5
FD
FD
EF
0B
03
FE
EF
F7
0E
07
F8
08
08
FC
F3
05
0E
FD
FD
FE
B1
5B
F7
03
FE
01
F1
04
0A
01
F4
F2
FE
FF
09
09
07
FE
F4
F9
11
09
FA
05
04
FC
F5
FE
FE
FE
00
FE
00
00
01
06
02
FB
03
05
06
FF
00
01
03
FE
01
FD
04
06
01
0C
01
0D
00
07
01
00
01
00
FE
FE
00
FD
FE
00
FC
03
02
FC
02
02
03
FD
FF
01
02
FE
FA
01
FD
04
01
16
02
0C
04
0D
FD
01
01
05
FE
FD
00
FC
00
00
FC
00
01
FC
01
05
00
FB
01
FF
FF
02
03
FF
01
04
FF
14
00
0A
02
0B
FF
FF
01
FB
FE
FE
00
00
00
00
04
05
04
F8
03
02
06
FF
01
01
00
FC
FB
FD
FE
02
01
0A
01
18
FF
0B
04
01
01
00
00
FE
FF
FF
FD
00
FC
05
FF
FD
02
00
05
FE
FF
01
00
FC
FB
02
FD
03
01
15
03
1B
06
1A
01
01
01
05
FF
FE
00
FF
FF
00
01
01
02
FA
03
04
01
FD
00
FF
FE
01
FF
01
FD
03
FF
13
02
12
04
19
00
01
01
FB
00
FF
FF
03
00
01
00
08
00
FC
03
01
04
02
03
FF
02
FD
FD
FA
FE
FF
FF
05
00
19
FE
0E
FB
00
FF
00
02
00
FF
02
FE
02
FE
08
FF
FF
03
00
03
FF
01
00
FF
FD
FF
FF
FE
00
00
0E
01
1C
05
1C
FC
01
00
06
02
00
FF
01
00
01
03
02
FF
FB
04
03
00
FD
03
FF
FD
02
FF
FE
00
FF
FD
0D
02
13
03
1B
FF
01
00
01
01
00
02
00
00
00
FF
07
FF
01
FE
05
04
FB
FD
04
02
02
FD
04
00
04
02
00
04
FF
FE
FF
FF
01
00
05
02
01
02
03
01
FE
F6
07
FF
FF
FD
06
07
F9
FD
03
01
05
FE
05
00
05
02
00
03
FF
FA
FE
FE
07
01
07
04
01
02
02
01
FF
F8
02
FF
FC
FD
0A
05
FC
FE
02
00
05
FE
05
FE
03
01
FF
03
FF
FB
FE
FE
02
01
01
01
00
01
00
FF
00
FC
05
00
00
01
01
00
FB
FF
02
00
01
FD
01
FB
01
00
00
01
01
00
01
FE
FC
FF
01
02
00
01
02
FF
00
F1
03
00
FE
00
02
00
F9
FF
01
FD
02
FD
01
FC
FF
00
FF
02
00
FE
00
FE
01
FF
03
03
00
01
02
FF
FF
F4
01
00
FE
00
03
02
FA
FF
01
00
03
FB
02
FA
00
FF
FF
01
00
FD
00
FE
00
00
00
00
01
00
00
01
00
F8
00
01
01
03
00
FE
02
01
FF
00
00
01
FF
05
FF
FE
03
FE
03
04
03
FD
FE
FF
FE
01
FF
FF
FF
00
01
EE
FE
02
00
03
FF
FC
01
02
FE
FD
FF
02
FE
07
FD
FD
03
FE
02
06
03
FE
FF
FE
FF
00
00
FF
01
00
00
EF
FF
01
03
02
FC
FD
FD
03
FE
00
00
00
FE
05
FE
FD
02
FF
02
03
03
FF
03
FE
06
04
01
00
FB
FF
FE
FE
FC
02
0C
FD
05
FB
FB
03
FE
04
01
FF
03
F9
FF
02
07
03
FD
FB
FC
01
FE
FF
01
02
00
FF
FD
04
F6
FD
FA
03
04
F8
08
FD
01
02
02
FF
FA
05
03
F8
F9
02
02
07
FD
0D
F6
E4
F8
02
F7
FE
00
FF
FF
FB
07
FA
02
09
01
F4
FC
FB
02
0B
00
0A
FA
F1
06
FA
FB
02
05
0A
FE
FA
FA
F0
FF
02
05
04
FB
FF
F9
FC
FA
03
F9
08
09
F9
06
FC
F7
04
01
01
04
17
05
FE
FC
03
07
04
F9
EF
FF
04
FD
01
05
02
FB
01
04
0A
E7
0A
FC
F2
04
F4
0B
08
FC
F1
04
00
05
1B
01
01
FD
04
02
02
FE
FD
F1
E7
06
04
FA
01
FA
FF
00
00
00
FD
FA
FD
FC
F2
EE
06
06
03
FC
00
FD
CC
01
FE
F5
FF
05
03
FF
F7
F7
E5
FD
03
01
09
F8
00
F6
F5
06
03
FA
0A
08
F9
05
FA
F7
06
00
FC
01
07
04
02
01
01
03
03
FE
EE
00
1D
06
FF
03
06
FC
01
04
03
F8
08
00
F0
05
F5
13
01
FF
F7
FF
FC
00
15
04
08
04
04
01
01
00
00
F4
30
01
00
F7
FF
F8
01
00
01
09
06
F9
FA
FD
F8
F1
03
03
03
FC
0A
FA
C7
03
FD
FB
00
04
04
02
FC
FA
23
FD
00
F7
FD
EE
01
F5
F7
14
0D
09
F9
06
F9
0C
02
F7
04
FA
04
F6
FA
01
01
F5
02
F6
00
FB
FB
F4
00
FF
FD
F8
FE
F4
05
FD
FD
0D
00
03
FF
01
F2
0A
FE
01
00
02
04
FA
F2
F7
03
FB
00
FA
FA
01
FC
FA
FF
FB
00
F9
FA
FF
08
01
09
FE
03
05
06
01
EC
06
FB
00
FB
0F
03
04
03
EF
03
03
05
FE
F9
00
08
FF
F7
FE
04
F4
FD
F5
02
F6
F8
12
FF
06
FD
02
F6
0D
FE
F4
07
00
FE
F5
FF
FD
00
F9
02
F7
FD
FD
F3
F8
FE
02
FC
F7
FB
01
06
03
06
02
00
05
01
02
F2
03
F7
F6
00
08
00
FD
F9
F1
00
05
05
FB
F9
02
F6
FD
F2
00
01
F8
F8
0D
0B
08
19
EC
04
09
FE
FF
ED
08
F6
F6
F5
1B
FD
0B
0D
E7
00
12
0A
FF
F8
00
07
02
E7
FC
07
F4
FC
00
04
FC
00
0B
FF
0B
00
03
F2
05
02
F4
05
06
09
FA
08
FC
04
03
05
FB
00
01
F7
FB
00
01
FD
FA
F8
10
08
05
10
F8
07
0A
02
01
EE
03
F5
F6
FD
11
05
01
03
EF
02
0E
06
FE
FC
07
FF
02
F9
FA
02
FA
F5
1E
0D
10
21
E5
0E
0F
FE
FC
E5
05
F8
F5
F1
1C
F3
13
02
E3
05
17
0B
00
F4
07
10
08
FE
FA
06
F8
FA
FF
00
FB
03
02
EF
00
00
F8
FE
F8
05
FE
FE
FE
03
F9
02
FD
06
FE
FF
FF
FF
FE
03
F9
05
02
00
FB
FA
03
00
FF
02
03
F2
FC
FF
FD
FB
F6
01
F3
FA
FE
F5
FD
FE
FC
0F
FD
00
02
FE
FD
03
FD
02
FA
00
03
00
01
FF
FF
05
03
F1
F7
FD
FC
FE
00
04
F7
F8
FD
FB
05
03
FA
08
00
FE
02
FB
FA
04
FC
01
0F
01
FE
FC
02
01
01
01
FD
F0
02
FA
FE
FD
06
07
00
F9
02
04
FC
FF
FE
05
FC
00
FD
00
FB
00
F8
FE
06
00
00
FC
05
01
00
01
FB
F5
FE
F9
FF
FC
04
01
FF
F7
FF
0A
00
FD
FB
0D
FD
FF
FE
FE
FB
FE
F9
FF
08
00
03
FC
05
FF
00
04
FB
EF
FB
F9
02
FE
07
FE
F6
F8
FF
F3
01
FC
F8
0C
FB
FC
FF
FD
F7
03
FC
01
08
FF
01
FF
00
FF
06
FB
FF
FE
03
0A
02
FD
03
05
08
05
03
F9
01
FE
01
0D
FD
00
00
05
FF
F8
FB
09
06
00
05
00
03
FF
07
FA
FA
07
00
06
01
FB
05
05
0A
03
01
03
05
F9
FF
17
04
02
02
02
FC
F3
FC
0E
11
01
03
FF
02
FF
04
FD
F9
06
FA
05
06
FD
03
02
00
04
01
0B
03
FE
FD
18
00
FF
00
FF
FA
F4
FD
13
07
01
FE
01
FF
FD
FF
FF
04
FB
F6
FE
FF
04
01
FA
07
0B
FD
FF
FC
FF
01
03
FB
FE
07
FF
02
04
08
04
05
FF
FF
00
01
02
03
FF
FD
00
02
FF
02
00
F4
03
F2
FF
02
08
FF
05
FF
FF
02
02
FE
02
00
FD
00
FF
FD
00
FE
02
02
04
00
01
FE
08
01
01
04
FF
02
00
FE
F8
04
02
00
02
FF
FE
02
01
FC
04
01
02
FD
FF
F9
01
F9
01
FD
FB
F7
FE
06
FA
F8
05
03
04
F5
F5
00
0D
FF
EC
F9
02
00
07
F5
FD
08
00
03
0B
0E
04
FC
FD
FC
FC
01
01
04
FF
FC
FB
0D
FD
06
FD
E8
07
E2
FE
05
FE
FD
01
00
FE
04
04
FD
03
FA
F8
01
FB
05
00
02
04
03
05
05
02
FC
05
07
FE
00
FC
02
08
F4
F7
05
0E
05
01
01
FE
09
04
F9
03
FE
F6
F8
FD
00
02
F7
FD
FC
FD
F5
FF
04
09
F9
07
00
05
F9
F6
06
0A
00
F5
F7
00
00
F4
F9
FC
05
01
04
0C
0B
05
FC
FE
FB
FA
02
01
03
FF
FE
FD
0B
FE
02
FE
EA
05
E9
FF
02
03
FC
FE
00
FC
03
02
FF
02
FC
FD
00
FC
04
FF
02
04
05
04
07
02
00
FA
07
FD
02
FC
03
05
FA
F7
03
0A
06
FE
01
05
04
03
FD
02
FF
FB
FB
FF
04
00
FF
00
06
04
01
0A
F4
02
0A
02
07
00
08
01
FB
EE
07
04
04
04
FD
02
04
01
03
FD
FC
08
FE
0C
FE
FC
FE
FF
0C
05
FF
0E
F5
FD
08
FD
02
00
0B
FC
F6
E0
0A
04
0A
F8
F8
03
0A
00
04
FB
FA
18
FA
15
FF
FC
03
FB
0E
05
00
13
EF
FC
04
FA
02
01
0B
FB
FA
DA
0B
02
0E
F6
F4
02
0B
FE
05
FB
FD
1F
FA
15
FF
FC
00
02
FC
02
00
FC
FF
06
04
02
00
FD
03
02
FD
02
FD
FD
00
06
03
FE
FF
01
01
00
02
F7
02
F2
FC
FF
00
03
02
01
FE
FF
02
FD
04
FE
00
FD
03
FE
FC
F7
00
FD
03
F7
00
FA
01
FF
01
FD
FE
05
01
F7
00
FE
02
FC
05
01
FF
04
FC
FD
01
FC
01
FF
01
FC
FB
F2
00
FD
07
FD
FC
FC
04
FE
03
FE
00
09
00
F6
00
FE
02
06
EF
FF
02
ED
0D
FF
04
01
00
FA
04
08
03
24
F5
FD
F8
01
10
FF
F9
00
FF
06
09
DF
0A
0C
FD
FE
02
07
F2
FF
01
EE
11
F9
01
00
00
FA
05
06
01
1F
F7
FC
FA
F0
0F
F9
F7
FE
FE
03
07
EB
09
1D
00
FD
02
02
F8
FF
FF
F5
08
F9
02
03
00
FD
04
00
01
1A
F7
FE
FE
03
0B
FE
FB
FF
01
07
07
F0
09
1A
02
FD
02
02
FA
FB
02
FE
0D
03
02
01
FE
01
FD
07
0E
10
FC
05
FE
FC
08
01
FE
02
FD
07
02
F7
05
FB
01
02
04
04
F9
FB
03
FC
0E
FE
01
03
FE
FD
FC
0B
0B
1B
FB
04
FC
FD
0A
00
FD
02
FA
06
01
E8
06
F3
02
03
05
04
FD
FC
02
FE
0D
00
02
02
03
FE
01
07
03
17
FD
FF
FC
17
08
05
FF
02
FB
06
01
EB
04
FA
03
03
FF
FE
FA
FD
FF
FB
01
05
FF
FE
FF
04
F2
03
07
FD
FF
00
00
FC
FE
F9
01
01
03
00
02
FD
05
FC
FE
00
FF
FF
FA
FC
FF
FA
00
FE
FD
FD
FE
02
F3
04
09
00
FF
FD
00
FA
FD
F8
FF
01
03
FF
00
F9
06
EA
00
01
00
FF
FD
FC
00
FD
FF
FC
FD
FF
03
01
F6
01
06
00
00
00
00
03
FA
FB
01
FF
03
FE
02
F8
04
ED
FF
00
FC
FC
06
FE
FF
02
F8
04
FF
02
02
05
F6
FA
0A
E8
03
FD
04
13
F4
FE
03
FF
07
FC
01
0F
02
FB
01
FE
FA
FA
08
FE
FE
05
F4
FB
FC
FE
FF
07
F3
F8
0D
E3
04
FE
04
10
EF
FE
04
FE
09
FA
FF
1B
01
E2
00
FF
FC
F8
08
FD
FE
07
F3
FE
FA
FE
08
05
EF
F8
0C
E4
07
02
03
FE
EC
FB
04
FD
08
F8
00
19
01
DE
01
FF
04
06
FF
FF
08
04
FF
FD
04
05
F9
FF
FF
03
FA
0F
FD
03
FD
F6
06
FF
FA
02
01
05
FF
F8
01
00
FE
00
06
0C
FC
FE
0B
03
05
FF
07
0D
00
FF
FF
08
FB
1E
FC
FD
FD
F1
0F
02
F8
03
02
0C
01
F5
02
F2
FF
01
03
0E
FA
00
0F
07
03
F4
0D
0E
FD
FF
07
11
F9
21
FE
02
FF
0D
16
00
F9
08
02
14
02
EA
FD
F5
09
02
FC
FE
FF
00
FD
FD
FF
FD
01
FD
F8
FF
FC
FA
F7
FA
01
03
FA
FD
F7
FA
FD
FF
FE
FE
FD
F6
FE
FD
03
FD
00
02
FC
00
FF
FC
01
FF
04
FF
FF
00
FB
03
FD
00
02
05
FD
FA
FB
FA
FC
00
00
03
00
FA
FD
E8
FF
FF
FE
03
F9
00
02
01
01
F3
07
04
FB
FF
FE
08
FD
09
02
FC
FE
FF
01
F7
F9
03
00
0A
02
F3
FB
E4
04
00
F7
F9
05
01
F9
FA
02
01
FE
FC
F6
FB
02
ED
F6
E5
01
05
FA
09
EB
00
FD
FA
FC
F5
FB
FA
FB
0A
00
F9
FB
FD
06
02
00
FB
02
04
03
F6
F9
FE
02
F6
FE
E1
02
03
00
07
EC
07
01
FD
FE
F8
FD
04
F8
FC
04
FC
FB
FE
03
01
03
01
FF
00
02
FD
F9
FF
00
FA
00
EB
03
FF
01
F8
F0
06
FC
FE
FF
FE
FF
01
F7
F1
FF
FE
00
00
01
00
FE
03
FE
03
FF
02
01
05
FD
FE
03
07
03
00
FF
FA
01
00
00
00
FE
00
FF
02
FF
01
FF
00
00
03
01
00
FD
03
04
01
00
00
FF
04
FE
FF
01
0B
01
02
00
04
03
01
01
00
FE
01
FF
01
00
02
02
01
04
01
00
00
FF
04
04
04
01
01
05
05
FE
02
02
0F
04
03
00
FD
04
03
FF
01
FD
04
FE
FE
00
FC
FE
01
01
01
03
00
FF
00
03
00
00
00
FE
03
FD
FE
04
04
01
01
FF
FA
02
03
02
FF
FF
FF
FF
07
FD
FF
FF
00
FF
04
02
00
00
FF
0A
FD
00
00
FD
03
FF
FE
03
06
00
FF
00
06
03
03
01
FF
00
00
00
09
01
03
01
00
04
03
01
FF
01
03
08
00
01
FF
05
04
FF
04
FF
0A
04
01
01
FF
04
05
00
01
FF
04
FE
06
02
01
00
01
02
00
03
00
00
00
00
07
FF
02
FD
03
FD
FF
04
01
04
FE
00
FC
01
01
00
FF
FF
01
00
08
FD
F9
00
00
01
04
02
00
FE
FF
09
06
00
02
FF
02
FE
FD
02
03
03
00
01
07
03
00
FE
FF
FF
02
01
0A
01
FD
00
00
02
01
01
00
00
02
07
08
02
03
07
04
FE
00
00
08
07
FC
FF
00
04
01
FE
00
FE
07
FF
08
02
00
FF
00
00
01
00
01
FD
03
01
FC
00
01
FE
FF
FE
FE
FF
00
02
00
00
03
00
FF
02
00
FE
00
02
06
04
00
FE
00
FD
00
03
01
00
01
01
FF
04
00
03
01
03
00
02
01
00
09
FF
FF
04
02
01
00
FF
FE
00
02
FC
FF
00
00
FD
FF
FF
00
FF
04
FF
03
00
00
F5
02
FE
FF
FA
00
04
F6
00
00
05
FF
FE
03
01
05
F9
FE
FD
04
04
FF
00
01
FE
00
FE
01
00
00
FF
FF
00
FB
FE
00
04
FD
03
05
FF
01
FF
FE
02
00
FF
01
00
FD
04
00
FE
01
02
02
03
01
05
FC
01
02
03
FC
00
00
06
06
0E
FE
FB
1E
03
05
04
00
06
FF
00
FA
09
FA
F8
FA
01
01
F9
00
FD
FE
FD
FE
01
02
03
08
FD
03
F0
F6
F7
05
06
DA
FC
FC
04
FC
F9
02
03
0A
F9
0A
04
01
08
FF
FF
FF
FF
00
03
02
FF
01
00
FD
00
FB
FF
03
04
FE
03
09
FF
00
00
02
02
02
FF
00
FF
FB
03
05
01
00
06
03
02
03
08
FE
FE
FE
03
F9
01
01
08
07
0F
00
FC
22
06
08
03
FE
06
02
FD
FA
08
F9
FA
FF
FA
02
FC
00
FD
FF
FE
00
FE
FD
03
09
FF
04
F1
F6
FA
07
0B
D3
FD
F9
02
04
F8
01
FF
0A
F9
07
02
04
FF
FF
FF
01
00
02
FF
00
00
04
01
03
FA
00
01
05
FC
FD
04
FF
FE
FD
04
00
05
03
FF
05
00
FF
FF
FF
01
02
02
FF
01
01
00
01
FF
02
FE
00
FE
02
02
04
FD
00
FE
F7
FF
FC
05
00
05
00
FF
FE
00
FD
01
FE
FE
03
01
FF
FF
FD
FC
FF
03
00
F6
00
FE
06
04
F8
0D
05
F7
FD
FD
02
00
06
01
FB
06
F9
01
05
07
02
FA
01
04
03
03
02
05
04
FE
FF
04
FF
F7
FC
09
07
00
FD
03
FF
01
FD
05
00
05
03
FE
03
FB
FC
FD
FF
FF
03
09
03
03
01
05
04
FD
FB
01
FD
FC
FF
0E
08
0A
FF
FC
0A
04
FF
06
FC
06
00
FF
FC
FF
F8
FE
FD
02
03
04
02
FE
FD
F9
FF
04
F9
F5
02
FC
04
12
F6
20
07
F5
02
FF
04
00
FF
FD
FA
06
F7
02
09
07
04
FA
00
03
04
04
01
07
03
00
01
05
00
F8
FD
05
03
FB
FB
03
FF
01
FE
02
05
00
02
FE
02
FD
00
FD
FF
02
01
09
04
03
00
07
03
FE
FE
02
FE
FC
FE
0C
04
05
FE
FD
FF
02
FD
03
FB
00
FF
FF
FD
FE
FC
FF
FD
01
01
04
02
FD
FE
FA
00
02
01
F7
02
FB
04
0F
F8
18
04
F6
03
FE
06
FF
F2
FC
FB
03
F8
01
08
06
04
02
FF
07
06
FE
01
01
ED
03
00
05
07
00
04
01
08
06
FD
FF
FE
FF
F8
F9
00
00
FD
02
FB
FE
E8
05
F3
FC
01
05
05
01
00
04
F5
07
07
03
06
FE
09
FB
04
FC
FF
FE
FE
01
1B
F9
04
02
FE
09
FB
FD
EC
08
DA
F9
02
04
00
FC
00
06
F6
05
0C
03
04
FB
06
FA
03
FD
FD
00
02
05
0F
F5
FF
FA
FF
03
00
FC
EF
05
E8
F7
01
02
03
09
03
06
FA
FF
00
FF
02
FC
0D
08
00
F8
F7
FF
FF
FE
1D
F4
FB
00
FD
FB
FA
00
FA
FD
EE
FD
FF
FC
05
08
00
03
06
05
FC
F6
FB
FA
17
03
F8
FC
F6
01
02
FD
16
F0
FE
FC
FD
03
FA
00
17
07
EE
05
00
FC
FD
00
FF
03
03
03
FD
FC
FA
FF
0F
F9
FD
FF
F8
03
02
FE
E2
F0
01
FC
FD
FF
FF
F8
0B
06
FB
01
01
01
00
0D
02
01
FD
FD
FE
00
00
FD
0A
09
FF
F7
F9
00
F9
00
0D
F8
01
01
FE
00
FF
FC
F6
FE
07
FD
FF
FB
FD
0B
02
FC
05
03
07
FB
FC
FD
0F
05
FC
F9
FA
04
09
FE
F1
F7
FE
04
00
01
01
FC
04
04
2E
05
00
FB
F6
04
00
FF
FF
03
04
FE
02
FE
06
FF
FF
01
FF
03
06
FC
D7
F8
FF
01
FE
FE
06
FA
F5
01
28
03
00
05
01
FE
02
03
03
FD
F2
0E
02
FF
FE
04
08
FE
05
04
03
FF
FA
09
FA
FF
03
00
07
FF
FB
FE
F9
00
02
0B
06
FD
01
07
02
FC
E9
07
05
FD
FB
04
0C
F8
07
02
00
04
03
0A
FE
FE
01
00
04
FF
F2
FF
F6
FD
02
0B
09
FE
02
06
04
FD
EE
04
01
00
FC
0A
09
FE
04
03
FD
03
0A
08
FC
FD
01
FF
03
FF
F7
FF
F7
FD
02
03
01
FF
00
02
01
02
F2
0A
03
00
01
06
00
FD
06
02
01
FF
FA
03
F9
FD
00
FC
FF
FD
00
FE
04
FF
FF
04
05
FD
00
03
00
01
EE
03
04
FC
FE
06
00
F9
05
01
03
00
02
02
FD
FC
FF
FC
FE
FD
FC
FD
03
FE
FF
05
05
FE
00
02
02
00
F3
02
00
FF
FE
09
01
FC
02
02
FF
FF
03
01
FB
FD
FF
FC
FE
FD
FE
FE
05
FA
FF
FD
FC
02
FD
FE
03
04
ED
03
FF
03
05
03
F4
06
FF
FB
FC
FD
02
F7
01
F8
FB
00
F4
00
0E
00
FA
FF
FD
FC
FC
00
FD
FA
01
05
E5
FD
FF
FD
03
FF
F2
FF
FD
F9
FE
FC
0A
F5
04
F9
F9
00
F2
00
0E
FF
F8
FE
FC
FC
FA
01
FD
FC
01
04
E2
FD
FB
01
02
FE
F6
FE
FA
FA
01
FB
04
F4
00
FA
FA
FF
F3
FF
0E
01
FC
01
FC
F2
EF
FF
FD
F3
08
07
FE
FB
FC
FA
09
0B
F7
F6
09
FB
05
EE
03
F7
F8
FB
FE
FE
F6
FB
0B
FE
06
01
FE
F4
F2
F9
00
F3
00
04
07
F3
FD
EE
03
07
F7
F9
06
FC
03
EF
01
FA
F6
FE
00
FF
FB
00
07
FA
01
03
00
FD
F7
F6
02
F2
02
00
07
FC
01
01
02
09
FA
00
0B
FE
01
F9
01
03
F7
FF
01
00
07
FF
08
04
05
01
04
F3
F3
01
01
F9
02
07
F5
07
FD
F8
05
04
F7
F4
02
03
03
F1
FA
FA
FC
FB
03
FF
FD
FC
05
FD
02
FD
FD
F6
F6
FC
06
FC
FD
FF
06
0B
01
F5
FA
FA
FB
F3
FE
0F
00
F5
03
FF
00
00
0A
00
0C
FF
FE
FE
F8
FC
00
05
FE
F7
0B
FB
00
F9
0A
06
04
FC
F7
05
07
F9
01
0D
F8
01
FA
08
01
07
09
FF
0E
00
F6
02
F5
EA
06
F9
FB
04
03
04
06
05
FA
12
05
F9
03
05
FB
F7
FF
04
08
F7
00
FC
FD
F9
04
FD
01
FD
07
FE
FF
06
FF
FF
FE
02
06
0B
00
FA
01
1C
05
F6
F5
02
07
F3
F8
13
EF
FE
05
02
FE
00
0C
FF
0F
FB
F6
FC
FC
FA
02
13
0A
FF
0C
1B
02
F3
11
19
F8
F9
EF
08
23
F5
F2
0A
00
10
FE
0C
02
0F
10
FF
0A
FE
E5
FE
FB
FD
09
FF
00
F6
FE
02
F9
04
07
FE
FE
FE
FB
F7
00
05
08
F8
FD
01
E4
01
03
FD
FC
07
00
FE
F5
FF
0C
03
00
00
F6
FC
01
01
05
F9
FB
FB
02
04
01
0C
FB
E4
09
FE
FC
03
40
05
FB
01
00
04
0C
F8
E3
FE
33
F9
FD
07
0A
01
FE
FE
03
ED
FE
F3
DE
01
FA
0B
09
FD
D7
05
01
FA
01
F9
00
FE
01
06
F1
EE
1D
FC
ED
F4
FF
03
FB
F6
FA
05
FF
F9
FF
FC
F4
FF
FB
EB
0A
18
FB
F9
04
02
D3
F9
09
FD
FE
0B
00
01
0E
09
BB
0B
01
FE
F4
FD
FF
FE
04
05
FC
01
16
05
00
F6
FD
FC
25
F8
00
05
F4
07
01
02
FE
06
10
00
D5
08
0E
04
FE
FD
01
08
FF
00
06
FF
F2
F5
F0
FD
00
1C
06
EC
F2
01
F5
FD
3B
02
F8
FB
02
06
FA
FA
12
00
4D
F8
FC
03
FE
F7
FB
05
F9
EF
FB
F8
E1
F5
FB
E8
0F
10
D3
FC
04
01
00
F1
FE
FF
03
01
FE
FD
28
01
DA
FF
00
03
F9
FA
FD
00
FF
01
0B
04
0B
06
02
D4
07
14
13
FC
0F
04
A0
FF
06
01
02
02
09
F8
E6
04
B9
03
02
F9
06
07
FF
FF
FE
12
FD
F9
04
FC
01
07
FC
F6
0B
00
01
00
09
06
F8
FE
FF
FF
FA
F7
F3
FB
11
FC
FF
05
FF
FE
05
FF
03
FF
06
FE
00
03
FA
FF
FE
F7
FF
04
00
03
F6
F9
01
07
01
FB
FD
00
02
03
F8
03
02
00
FD
F9
02
FA
01
05
04
01
FC
FF
FE
06
F9
FB
FC
00
FE
00
FF
FB
03
FD
FF
FA
00
FE
04
01
F7
FF
FF
03
FD
F3
00
F7
F6
09
05
02
F9
FE
FC
0C
FC
F9
FD
F6
00
00
FF
FE
09
FF
FD
FA
02
01
FA
01
FF
FF
FD
09
01
04
06
08
07
F7
04
F9
00
FF
F9
FF
FF
FC
FF
06
00
0C
EF
F6
FD
0D
03
FC
F9
00
FF
02
F4
02
02
03
01
FD
02
FE
05
FE
05
FE
FF
FC
FE
02
F6
02
FE
02
01
09
F5
F6
05
04
01
FC
FE
FE
05
00
F4
03
00
02
00
F4
01
FA
F5
08
01
FF
01
FB
F9
03
FB
FE
06
F7
00
05
F0
FB
08
FF
FE
FB
FF
03
F3
01
FC
02
FF
07
02
0D
07
0B
0C
F3
0B
FC
00
FD
F6
05
FC
04
FD
0A
FA
0D
F1
F2
04
10
05
FB
F7
01
03
03
FA
FC
02
01
FE
06
04
FF
10
F5
07
01
FD
FB
FE
03
F7
01
F7
09
FD
0A
FB
F2
03
0A
04
FC
FC
FF
10
01
ED
FC
02
03
FC
F9
01
FC
01
FF
04
FF
02
F8
FA
01
FD
00
FF
00
00
06
F0
F8
00
07
00
FC
FF
03
FD
02
E8
02
02
02
02
00
01
02
01
01
06
05
FF
F7
FF
04
00
FB
00
01
F9
03
FC
FD
01
02
00
02
00
FE
03
00
01
07
FF
02
01
01
02
06
01
FE
02
01
FF
FD
FE
06
04
FA
01
FF
09
02
00
FD
01
02
FF
FE
FD
04
F7
FD
00
03
00
00
01
FD
00
01
FE
01
06
05
FF
07
00
02
00
04
00
04
0F
03
01
FC
02
FD
FF
04
02
01
FD
01
FE
FA
FE
FE
01
FE
00
FA
01
03
FF
00
06
FB
01
00
F7
F4
02
05
DC
FD
F8
FA
04
FC
FF
00
03
FF
08
04
02
F5
FE
01
FD
02
02
07
01
FE
FE
FA
FD
F9
02
06
04
F6
FF
FC
12
00
03
FB
07
04
FD
FE
FB
07
F2
F9
FB
FD
00
FA
00
FE
FF
FF
FC
02
FE
01
02
02
05
00
FB
03
02
01
06
FE
00
FA
03
F8
FD
04
01
00
08
02
FC
08
FE
FE
FF
FE
00
FC
FF
02
03
00
00
FC
FF
06
00
F9
FD
06
F6
FD
F5
FB
03
01
01
01
03
FA
01
FF
03
FE
00
00
FC
02
03
07
00
FF
04
F6
F8
F7
01
06
05
FA
FE
FD
20
00
03
FC
08
06
00
00
FB
07
F2
F7
00
07
01
FB
FE
FC
FF
FA
FC
03
00
FD
03
08
06
FB
F5
FF
02
06
F1
FE
FB
FA
01
F6
FD
02
05
FE
0D
02
05
F3
FE
02
FE
FF
00
FF
FB
F9
03
04
00
01
0B
FF
FC
01
00
00
01
FC
FF
FC
03
00
FF
01
FF
02
FB
06
03
02
FF
04
02
FF
00
FF
F8
03
FF
05
02
01
09
01
FF
01
02
00
02
FF
01
FE
03
02
FF
FE
00
01
FB
04
02
03
FF
02
01
FF
00
01
F7
04
00
03
00
FD
09
01
01
FE
00
00
FF
FE
FE
FE
02
00
FF
FE
FF
00
FF
03
01
02
FF
01
00
00
00
FF
F8
00
01
04
01
FE
09
01
FD
01
FF
00
01
FC
FE
FE
00
01
FF
00
FF
01
FF
05
04
01
FF
05
03
00
00
00
F4
0B
01
05
02
00
08
02
01
FF
FF
00
00
01
00
00
FF
03
FF
FD
00
00
FE
04
04
00
FF
03
03
00
FF
01
F3
0B
02
04
FF
FC
08
02
02
FD
FE
00
FF
00
FE
FF
01
01
FF
FD
00
00
01
02
04
03
FF
01
FE
01
FF
FF
F7
FE
02
05
02
FF
09
FF
FD
01
01
00
00
FD
00
FC
03
FF
FF
01
FD
01
00
05
FF
01
00
05
03
01
FF
FF
F3
09
02
04
03
01
08
01
01
00
02
00
FF
01
03
FE
02
02
FF
FF
FE
FF
00
05
FF
FF
00
04
01
01
FF
FF
F2
08
01
03
00
FC
08
02
02
FF
00
FE
FE
01
02
FE
03
01
FF
FF
FE
00
03
03
FD
00
FF
00
FE
02
00
03
FD
FE
04
03
01
03
03
FF
04
02
FF
FA
FD
00
FD
05
FF
06
FF
04
FB
03
FA
FA
FB
FF
01
04
04
01
FF
04
FC
FF
FD
05
02
F7
03
FA
FD
FF
FF
FA
FA
07
FA
03
01
03
02
06
01
FA
05
08
FE
06
00
03
04
01
02
06
00
FE
FD
03
FF
FD
01
05
05
FC
FC
FF
00
06
FE
01
FE
07
03
FF
00
04
F3
02
01
05
00
00
03
FE
01
FE
01
03
01
FD
FC
FC
01
FF
F8
05
02
01
13
FB
0A
01
FB
01
04
FF
03
0E
06
03
01
F6
00
FD
00
FA
00
F1
03
05
12
FC
12
06
02
FF
EA
06
08
04
DB
F6
FF
01
FC
F7
FF
FF
07
04
16
0A
07
B8
01
FC
FA
FE
FF
FF
02
07
00
FF
FF
FC
00
07
FE
04
03
FC
FE
F6
FF
03
F4
04
FF
FF
02
03
02
06
01
0E
02
00
00
04
FD
FA
04
00
05
08
05
FF
FD
FE
02
F9
00
01
EB
FD
FE
FD
01
FA
02
00
04
F6
FB
07
03
01
FF
0A
FE
04
01
03
04
F9
0E
07
F2
00
FC
0B
19
00
F7
F7
22
0A
02
03
FE
14
01
FB
F7
01
EB
F3
FB
0E
05
03
FD
02
FF
FD
00
03
FC
FF
06
01
01
00
F5
FD
06
FA
01
02
02
06
F4
F9
00
01
01
00
07
04
FD
0E
03
FC
02
01
FD
00
01
04
FE
00
01
F7
03
FF
FC
00
01
02
FA
FB
01
04
04
F9
02
FF
03
FF
0A
04
00
07
FF
FC
03
01
FE
01
01
05
02
FD
04
F8
00
FF
04
FF
04
01
FF
FA
FF
07
04
00
01
FC
00
04
FD
FF
04
FA
02
FE
02
01
FD
FF
02
06
02
F8
01
FB
03
00
FF
FC
04
01
FD
FB
07
09
04
FD
FC
FF
FF
01
07
05
00
FD
02
FB
FF
00
FC
FC
01
00
05
02
04
FB
04
FB
FC
FD
01
04
E3
FA
F7
04
02
FA
01
02
04
FE
0C
07
02
FB
00
FD
00
04
FE
09
02
FF
08
04
FD
F5
FF
FA
0F
F8
01
FF
09
FF
F9
09
02
08
02
FE
FD
04
F2
FD
FE
0E
02
01
04
02
FE
00
03
01
05
FA
02
F8
03
FF
03
F7
02
00
02
02
08
0A
02
00
FE
00
FD
05
02
04
01
FC
02
FD
FE
00
FD
FC
FE
FF
FF
01
01
F9
05
01
FC
01
00
01
FA
FB
FD
04
FF
FF
00
01
FF
02
0C
04
05
FC
01
FE
00
03
FE
06
FF
FF
FD
02
FF
F5
FF
FF
04
FF
02
FE
02
FD
FA
06
06
02
00
01
FC
05
FB
01
FE
00
01
02
05
02
FE
02
01
00
FA
FA
FD
FB
02
03
03
FC
00
00
FE
00
05
06
06
01
FD
02
FB
04
03
06
03
01
01
01
00
FB
FF
FF
00
01
08
01
01
00
FB
FB
FF
01
FC
01
00
FC
09
FD
03
FD
00
03
FF
02
FF
03
F1
04
02
03
01
FA
FF
FC
00
FE
07
00
04
FE
FA
FB
FC
01
05
FF
03
FD
09
FE
01
FE
00
01
00
01
EC
04
F0
00
02
04
01
FB
FF
FC
FD
01
07
02
FF
02
FA
F9
01
FF
03
01
04
FB
01
FF
01
FE
00
02
00
FE
EF
05
E8
FC
02
03
FD
FD
00
02
06
F3
03
04
FF
01
F8
FF
02
04
FC
02
00
FD
01
FC
03
00
03
03
FD
01
00
02
FD
05
02
05
00
FD
00
FF
08
F0
01
03
03
00
F6
FE
FF
01
06
FF
04
02
01
FE
FF
FF
02
00
FE
00
EE
01
01
FF
02
06
FF
FE
00
FF
03
F3
02
02
FF
04
F7
FD
04
FD
02
02
00
FF
00
FF
02
FD
02
02
01
FE
F5
03
FB
FF
02
06
FD
FF
00
03
06
EF
FF
05
FF
01
F4
02
FD
05
FC
01
02
01
FF
FB
FD
00
03
04
FC
FE
09
00
F8
FD
02
08
FF
FE
00
01
08
EB
FC
04
04
01
F1
00
FA
00
08
FF
03
05
F8
FD
FC
FE
02
01
FC
FE
F4
FE
FD
01
02
07
FE
FF
01
01
04
EE
FD
04
FF
03
F2
01
00
FC
04
01
00
01
03
FF
FE
01
02
02
FF
FD
F9
00
FE
FF
01
FC
FF
02
00
04
FF
FE
03
00
01
04
03
FB
05
02
00
FE
01
00
00
03
02
03
00
04
FE
03
FB
FF
FD
FE
02
00
04
FD
FF
FD
02
02
00
FD
FF
FC
02
FF
FB
04
01
04
FA
00
FF
01
03
FB
01
04
05
FB
08
03
02
07
00
01
FF
02
04
00
03
FF
01
01
03
04
FF
02
FF
F6
02
03
0F
00
04
01
01
00
02
FB
02
02
00
FD
02
F9
01
FF
FF
01
01
07
FA
01
02
FE
00
FD
03
FB
04
07
FE
FB
0B
04
06
03
01
03
FF
04
FC
0B
FD
FE
FC
FA
00
F9
03
FB
FE
F6
00
05
02
FD
05
01
02
F9
F2
00
03
08
CD
FA
FA
00
01
F2
00
05
09
F6
15
0C
05
02
FE
02
FC
03
04
08
04
FC
01
05
F9
03
FB
FC
0C
E6
FC
03
17
02
01
01
FE
08
03
F9
00
FE
EF
FB
FD
00
01
02
01
00
02
05
FB
FF
FE
FD
FE
00
03
FD
04
0A
00
FC
08
07
05
03
03
05
FF
04
FE
0A
FB
00
FF
00
01
F6
01
FB
FE
F6
00
04
01
FE
06
02
03
F5
F2
FE
04
06
CE
F9
FB
01
01
F7
FE
04
08
F6
12
08
0A
F9
FE
00
FB
05
03
09
03
FD
FC
06
F8
FF
FC
FD
07
E9
FF
FF
18
00
02
03
02
06
02
FC
FE
FE
F3
FB
FB
04
01
